{
  "version": "1.0",
  "truncation": null,
  "padding": null,
  "added_tokens": [
    {
      "id": 0,
      "content": "<|endoftext|>",
      "single_word": false,
      "lstrip": false,
      "rstrip": false,
      "normalized": false,
      "special": true
    }
  ],
  "normalizer": null,
  "pre_tokenizer": {
    "type": "ByteLevel",
    "add_prefix_space": false,
    "trim_offsets": true,
    "use_regex": true
  },
  "post_processor": null,
  "decoder": {
    "type": "ByteLevel",
    "add_prefix_space": true,
    "trim_offsets": true,
    "use_regex": true
  },
  "model": {
    "type": "BPE",
    "dropout": null,
    "unk_token": null,
    "continuing_subword_prefix": null,
    "end_of_word_suffix": null,
    "fuse_unk": false,
    "byte_fallback": false,
    "ignore_merges": false,
    "vocab": {
      "<|endoftext|>": 0,
      "!": 1,
      "\"": 2,
      "#": 3,
      "$": 4,
      "%": 5,
      "&": 6,
      "'": 7,
      "(": 8,
      ")": 9,
      "*": 10,
      "+": 11,
      ",": 12,
      "-": 13,
      ".": 14,
      "/": 15,
      "0": 16,
      "1": 17,
      "2": 18,
      "3": 19,
      "4": 20,
      "5": 21,
      "6": 22,
      "7": 23,
      "8": 24,
      "9": 25,
      ":": 26,
      ";": 27,
      "<": 28,
      "=": 29,
      ">": 30,
      "?": 31,
      "@": 32,
      "A": 33,
      "B": 34,
      "C": 35,
      "D": 36,
      "E": 37,
      "F": 38,
      "G": 39,
      "H": 40,
      "I": 41,
      "J": 42,
      "K": 43,
      "L": 44,
      "M": 45,
      "N": 46,
      "O": 47,
      "P": 48,
      "Q": 49,
      "R": 50,
      "S": 51,
      "T": 52,
      "U": 53,
      "V": 54,
      "W": 55,
      "X": 56,
      "Y": 57,
      "Z": 58,
      "[": 59,
      "\\": 60,
      "]": 61,
      "^": 62,
      "_": 63,
      "`": 64,
      "a": 65,
      "b": 66,
      "c": 67,
      "d": 68,
      "e": 69,
      "f": 70,
      "g": 71,
      "h": 72,
      "i": 73,
      "j": 74,
      "k": 75,
      "l": 76,
      "m": 77,
      "n": 78,
      "o": 79,
      "p": 80,
      "q": 81,
      "r": 82,
      "s": 83,
      "t": 84,
      "u": 85,
      "v": 86,
      "w": 87,
      "x": 88,
      "y": 89,
      "z": 90,
      "{": 91,
      "|": 92,
      "}": 93,
      "~": 94,
      "¡": 95,
      "¢": 96,
      "£": 97,
      "¤": 98,
      "¥": 99,
      "¦": 100,
      "§": 101,
      "¨": 102,
      "©": 103,
      "ª": 104,
      "«": 105,
      "¬": 106,
      "®": 107,
      "¯": 108,
      "°": 109,
      "±": 110,
      "²": 111,
      "³": 112,
      "´": 113,
      "µ": 114,
      "¶": 115,
      "·": 116,
      "¸": 117,
      "¹": 118,
      "º": 119,
      "»": 120,
      "¼": 121,
      "½": 122,
      "¾": 123,
      "¿": 124,
      "À": 125,
      "Á": 126,
      "Â": 127,
      "Ã": 128,
      "Ä": 129,
      "Å": 130,
      "Æ": 131,
      "Ç": 132,
      "È": 133,
      "É": 134,
      "Ê": 135,
      "Ë": 136,
      "Ì": 137,
      "Í": 138,
      "Î": 139,
      "Ï": 140,
      "Ð": 141,
      "Ñ": 142,
      "Ò": 143,
      "Ó": 144,
      "Ô": 145,
      "Õ": 146,
      "Ö": 147,
      "×": 148,
      "Ø": 149,
      "Ù": 150,
      "Ú": 151,
      "Û": 152,
      "Ü": 153,
      "Ý": 154,
      "Þ": 155,
      "ß": 156,
      "à": 157,
      "á": 158,
      "â": 159,
      "ã": 160,
      "ä": 161,
      "å": 162,
      "æ": 163,
      "ç": 164,
      "è": 165,
      "é": 166,
      "ê": 167,
      "ë": 168,
      "ì": 169,
      "í": 170,
      "î": 171,
      "ï": 172,
      "ð": 173,
      "ñ": 174,
      "ò": 175,
      "ó": 176,
      "ô": 177,
      "õ": 178,
      "ö": 179,
      "÷": 180,
      "ø": 181,
      "ù": 182,
      "ú": 183,
      "û": 184,
      "ü": 185,
      "ý": 186,
      "þ": 187,
      "ÿ": 188,
      "Ā": 189,
      "ā": 190,
      "Ă": 191,
      "ă": 192,
      "Ą": 193,
      "ą": 194,
      "Ć": 195,
      "ć": 196,
      "Ĉ": 197,
      "ĉ": 198,
      "Ċ": 199,
      "ċ": 200,
      "Č": 201,
      "č": 202,
      "Ď": 203,
      "ď": 204,
      "Đ": 205,
      "đ": 206,
      "Ē": 207,
      "ē": 208,
      "Ĕ": 209,
      "ĕ": 210,
      "Ė": 211,
      "ė": 212,
      "Ę": 213,
      "ę": 214,
      "Ě": 215,
      "ě": 216,
      "Ĝ": 217,
      "ĝ": 218,
      "Ğ": 219,
      "ğ": 220,
      "Ġ": 221,
      "ġ": 222,
      "Ģ": 223,
      "ģ": 224,
      "Ĥ": 225,
      "ĥ": 226,
      "Ħ": 227,
      "ħ": 228,
      "Ĩ": 229,
      "ĩ": 230,
      "Ī": 231,
      "ī": 232,
      "Ĭ": 233,
      "ĭ": 234,
      "Į": 235,
      "į": 236,
      "İ": 237,
      "ı": 238,
      "Ĳ": 239,
      "ĳ": 240,
      "Ĵ": 241,
      "ĵ": 242,
      "Ķ": 243,
      "ķ": 244,
      "ĸ": 245,
      "Ĺ": 246,
      "ĺ": 247,
      "Ļ": 248,
      "ļ": 249,
      "Ľ": 250,
      "ľ": 251,
      "Ŀ": 252,
      "ŀ": 253,
      "Ł": 254,
      "ł": 255,
      "Ń": 256,
      "Ġt": 257,
      "he": 258,
      "Ġa": 259,
      "Ġs": 260,
      "nd": 261,
      "Ġw": 262,
      "Ġthe": 263,
      "ed": 264,
      "Ġb": 265,
      "Ġto": 266,
      "Ġand": 267,
      "Ġh": 268,
      "Ġf": 269,
      "in": 270,
      "ĠT": 271,
      "Ġwa": 272,
      "re": 273,
      "it": 274,
      "ou": 275,
      "Ġl": 276,
      "Ġd": 277,
      "Ġc": 278,
      "Ġp": 279,
      "ay": 280,
      "Ġm": 281,
      "er": 282,
      "Ġwas": 283,
      "om": 284,
      "ĠThe": 285,
      "Ġhe": 286,
      "is": 287,
      "ar": 288,
      "Ġn": 289,
      "im": 290,
      "on": 291,
      "Ġsa": 292,
      "id": 293,
      "ll": 294,
      "Ġha": 295,
      "Ġg": 296,
      "at": 297,
      "ing": 298,
      "ĠS": 299,
      "ot": 300,
      "en": 301,
      "an": 302,
      "le": 303,
      "or": 304,
      "end": 305,
      "ir": 306,
      "of": 307,
      "am": 308,
      "et": 309,
      "ĠH": 310,
      "Ġit": 311,
      "Ġth": 312,
      "ig": 313,
      "ĠThey": 314,
      "Ġin": 315,
      "Ġpl": 316,
      "il": 317,
      "ĠHe": 318,
      "Ġ\"": 319,
      "ow": 320,
      "ver": 321,
      "ri": 322,
      "ut": 323,
      "Ġbe": 324,
      "Ġu": 325,
      "Ġplay": 326,
      "Ġsaid": 327,
      "ith": 328,
      "Ġday": 329,
      "pp": 330,
      "Ġwith": 331,
      "On": 332,
      "Ġy": 333,
      "Ġr": 334,
      "oo": 335,
      "ked": 336,
      "ex": 337,
      "ĠI": 338,
      "Ġher": 339,
      "ce": 340,
      "ld": 341,
      "ĠShe": 342,
      "ĠTim": 343,
      "Ġhis": 344,
      "Ġst": 345,
      "ke": 346,
      "ck": 347,
      "nt": 348,
      "Ġbig": 349,
      "Ġyou": 350,
      "very": 351,
      "st": 352,
      "ve": 353,
      "un": 354,
      "Ġon": 355,
      "Ġhapp": 356,
      "riend": 357,
      "Ġfriend": 358,
      "all": 359,
      "ily": 360,
      "ext": 361,
      "Ġthey": 362,
      "ĠL": 363,
      "oft": 364,
      "Ġwe": 365,
      "Ġhad": 366,
      "Ġup": 367,
      "Ġnot": 368,
      "her": 369,
      "Ġwant": 370,
      "Ġli": 371,
      "Ġof": 372,
      "ad": 373,
      "<|": 374,
      "|>": 375,
      "endoft": 376,
      "endoftext": 377,
      "se": 378,
      "itt": 379,
      "ĠB": 380,
      "Ġdo": 381,
      "Ġe": 382,
      "Ġhappy": 383,
      "ĠM": 384,
      "es": 385,
      "ent": 386,
      "Ġvery": 387,
      "Ġthat": 388,
      "'s": 389,
      "Ġsaw": 390,
      "One": 391,
      "ould": 392,
      "Ġfor": 393,
      "Ġsh": 394,
      "Ġmom": 395,
      "ittle": 396,
      "Ġlittle": 397,
      "Ġshe": 398,
      "ime": 399,
      "ch": 400,
      ".\"": 401,
      "Ġnam": 402,
      "Ġtime": 403,
      "Ġso": 404,
      "ound": 405,
      "Ġk": 406,
      "Ġthere": 407,
      "Ġnamed": 408,
      "Ġsm": 409,
      "Ġwere": 410,
      "ĠLily": 411,
      "Ġbo": 412,
      "Ġwanted": 413,
      "Ġne": 414,
      "Ġfriends": 415,
      "Ġbut": 416,
      "The": 417,
      "out": 418,
      "!\"": 419,
      "ved": 420,
      "ht": 421,
      "ird": 422,
      "ĠTom": 423,
      "el": 424,
      "Ġbird": 425,
      "al": 426,
      "ake": 427,
      "Ġan": 428,
      "ome": 429,
      "ĠIt": 430,
      "Ġtoo": 431,
      "ug": 432,
      "Ġwent": 433,
      "ide": 434,
      "Ġwh": 435,
      "Once": 436,
      "Ġhel": 437,
      "ue": 438,
      "Ġis": 439,
      "Ġall": 440,
      "Ġhelp": 441,
      "Ġloo": 442,
      "Ġlo": 443,
      "ry": 444,
      "ĠA": 445,
      "Ġupon": 446,
      "ter": 447,
      "ore": 448,
      "Ġfun": 449,
      "get": 450,
      "ind": 451,
      "ill": 452,
      "ame": 453,
      "Ġtoy": 454,
      "Ġas": 455,
      "ra": 456,
      "Ġj": 457,
      "Ġat": 458,
      "Ġdid": 459,
      "gether": 460,
      "Ġre": 461,
      "ur": 462,
      "Ġo": 463,
      "Ġse": 464,
      "Ġtogether": 465,
      "ack": 466,
      "Ġtre": 467,
      "Ġcat": 468,
      "ly": 469,
      "ic": 470,
      "ood": 471,
      "Ġdog": 472,
      "ted": 473,
      "Ġcould": 474,
      "Ġcan": 475,
      "Ġtheir": 476,
      "ark": 477,
      "ard": 478,
      "ec": 479,
      "Ġball": 480,
      "Ġplayed": 481,
      "Ġro": 482,
      "Ġhim": 483,
      "Ġgir": 484,
      "way": 485,
      "?\"": 486,
      "Ġgo": 487,
      "Ġgirl": 488,
      "hed": 489,
      "ain": 490,
      "my": 491,
      "'t": 492,
      "Ġare": 493,
      "Ġle": 494,
      "Ġout": 495,
      "Ġkn": 496,
      "ax": 497,
      "Ġthem": 498,
      "um": 499,
      "hen": 500,
      "Ġfr": 501,
      "Ġsad": 502,
      "Ġtree": 503,
      "ul": 504,
      "Ġboy": 505,
      "Ġcl": 506,
      "Ġhave": 507,
      "other": 508,
      "Ġman": 509,
      "oug": 510,
      "Ġloved": 511,
      "Ġlooked": 512,
      "Ġfound": 513,
      "Ġstar": 514,
      "Ġsp": 515,
      "ĠSue": 516,
      "hing": 517,
      "one": 518,
      "ĠMax": 519,
      "Ġback": 520,
      "own": 521,
      "Ġsc": 522,
      "Ġlike": 523,
      "are": 524,
      "Ġme": 525,
      "ful": 526,
      "Ġbec": 527,
      "Ġpark": 528,
      "side": 529,
      "ight": 530,
      "Ġcar": 531,
      "ong": 532,
      "elt": 533,
      "ĠOne": 534,
      "op": 535,
      "Ġliked": 536,
      "Ġwould": 537,
      "round": 538,
      "Ġla": 539,
      "Ġfelt": 540,
      "Ġfa": 541,
      "Ġsee": 542,
      "You": 543,
      "Ġmake": 544,
      "ĠW": 545,
      "ĠBut": 546,
      "omet": 547,
      "ell": 548,
      "ouse": 549,
      "Ġno": 550,
      "ĠBen": 551,
      "Ġstarted": 552,
      "Ġasked": 553,
      "Ġnew": 554,
      "Ġal": 555,
      "ag": 556,
      "ice": 557,
      "Ġcame": 558,
      "ared": 559,
      "ĠSam": 560,
      "ought": 561,
      "Ġother": 562,
      "iled": 563,
      "Ġag": 564,
      "Ġsomet": 565,
      "Ġgood": 566,
      "Ġbr": 567,
      "ss": 568,
      "Ġsay": 569,
      "Ġsmall": 570,
      "ings": 571,
      "Ġsmiled": 572,
      "ĠĊ": 573,
      "ried": 574,
      "ade": 575,
      "ob": 576,
      "pot": 577,
      "Ġaway": 578,
      "Ġex": 579,
      "Ġfind": 580,
      "Ġwor": 581,
      "Ġsomething": 582,
      "Ġput": 583,
      "Ġhome": 584,
      "Ġwhat": 585,
      "Ġthought": 586,
      "ty": 587,
      "ened": 588,
      "ia": 589,
      "Ġmade": 590,
      "Ġwal": 591,
      "Ġplaying": 592,
      "Ġfrom": 593,
      "ook": 594,
      "Ġmu": 595,
      "Ġevery": 596,
      "Ġco": 597,
      "ĠJ": 598,
      "Ġran": 599,
      "ach": 600,
      "arn": 601,
      "ĠF": 602,
      "ĠSpot": 603,
      "ile": 604,
      "Ġagain": 605,
      "Ġdown": 606,
      "ave": 607,
      "uc": 608,
      "ie": 609,
      "ny": 610,
      "Ġsome": 611,
      "dd": 612,
      "Ġhouse": 613,
      "king": 614,
      "Ġlaug": 615,
      "ure": 616,
      "ep": 617,
      "Ġfl": 618,
      "ick": 619,
      "Ġscared": 620,
      "ab": 621,
      "Ġtook": 622,
      "ĠYou": 623,
      "Ġpr": 624,
      "Ġbox": 625,
      "Ġlearn": 626,
      "Ġwill": 627,
      "Ġthings": 628,
      "if": 629,
      "uck": 630,
      "Ġmy": 631,
      "ret": 632,
      "Ġaround": 633,
      "Ġtoys": 634,
      "Ġbl": 635,
      "ish": 636,
      "Ġsun": 637,
      "Ġsw": 638,
      "oud": 639,
      "Ġthen": 640,
      ",\"": 641,
      "Ġyour": 642,
      "Ġfe": 643,
      "Ġlived": 644,
      "Ġwhen": 645,
      "pped": 646,
      "as": 647,
      "us": 648,
      "Ġab": 649,
      "Ġch": 650,
      "ank": 651,
      "oth": 652,
      "ĠMia": 653,
      "Ġget": 654,
      "Ġlot": 655,
      "Tim": 656,
      "ump": 657,
      "ap": 658,
      "Ġgot": 659,
      "Th": 660,
      "Ġsays": 661,
      "ist": 662,
      "Ġknow": 663,
      "ited": 664,
      "Ġwho": 665,
      "ust": 666,
      "Ġtried": 667,
      "Ġkne": 668,
      "ucy": 669,
      "nder": 670,
      "Ġmany": 671,
      "Lily": 672,
      "Ġint": 673,
      "Ġpret": 674,
      "Ġabout": 675,
      "Ġred": 676,
      "Ġany": 677,
      "Ġdec": 678,
      "qu": 679,
      "ise": 680,
      "ive": 681,
      "ĠD": 682,
      "Ġpic": 683,
      "Ġv": 684,
      "Ġmore": 685,
      "Ġpo": 686,
      "ally": 687,
      "Ġknew": 688,
      "ace": 689,
      "Ġhug": 690,
      "Ġcare": 691,
      "ous": 692,
      "Ġbest": 693,
      "Ġlearned": 694,
      "fter": 695,
      "urp": 696,
      "Ġbecame": 697,
      "au": 698,
      "Ġexc": 699,
      "ways": 700,
      "Ġop": 701,
      "Ġwater": 702,
      "Ġho": 703,
      "Ġalways": 704,
      "Ġgre": 705,
      "ause": 706,
      "Ġlook": 707,
      "Ġshow": 708,
      "Ġlaughed": 709,
      "ant": 710,
      "Ġun": 711,
      "âĢ": 712,
      "Ġoutside": 713,
      "ĠBob": 714,
      "ĠLucy": 715,
      "Ġdecid": 716,
      "Ġboth": 717,
      "ĠMom": 718,
      "nn": 719,
      "Ġdecided": 720,
      "Ġroom": 721,
      "Ġeat": 722,
      "ĠSo": 723,
      "Ġinto": 724,
      "Ġbecause": 725,
      "Ġjump": 726,
      "ers": 727,
      "udd": 728,
      "ĠAnd": 729,
      "ite": 730,
      "They": 731,
      "fe": 732,
      "Ġthis": 733,
      "Ġpe": 734,
      "Ġke": 735,
      "Ġdad": 736,
      "Ġexcited": 737,
      "ĠE": 738,
      "Ġone": 739,
      "Ġfast": 740,
      "Yes": 741,
      "Ġnice": 742,
      "Ġrun": 743,
      "Ġfeel": 744,
      "Tom": 745,
      "Ġtr": 746,
      "urpr": 747,
      "Ġlong": 748,
      "nna": 749,
      "Ġsurpr": 750,
      "Ġam": 751,
      "Ġtold": 752,
      "Ġsl": 753,
      "our": 754,
      "iny": 755,
      "Ġsor": 756,
      "ink": 757,
      "ull": 758,
      "Ġsk": 759,
      "Ġtake": 760,
      "Ġgra": 761,
      "Ġpretty": 762,
      "Ġmo": 763,
      "Ġrock": 764,
      "Ġinside": 765,
      "Wh": 766,
      "Ġeach": 767,
      "Ġgave": 768,
      "lew": 769,
      "Ġhow": 770,
      "Ġneed": 771,
      "Ġmuch": 772,
      "Ġthan": 773,
      "ged": 774,
      "Ġstr": 775,
      "Ġtow": 776,
      "imal": 777,
      "Ġanimal": 778,
      "og": 779,
      "But": 780,
      "Ġlet": 781,
      "ven": 782,
      "Ġsorry": 783,
      "ĠC": 784,
      "Ġunder": 785,
      "Ġor": 786,
      "ge": 787,
      "ess": 788,
      "ro": 789,
      "ara": 790,
      "Ġbear": 791,
      "ised": 792,
      "Ġold": 793,
      "urt": 794,
      "Ġclo": 795,
      "Ġwalked": 796,
      "and": 797,
      "Ġhand": 798,
      "Ġcle": 799,
      "urn": 800,
      "Ġfish": 801,
      "ase": 802,
      "Ġdidn": 803,
      "ast": 804,
      "Ġkind": 805,
      "ff": 806,
      "Ġhappened": 807,
      "Ġjust": 808,
      "here": 809,
      "ĠHis": 810,
      "Ġhig": 811,
      "Ġwat": 812,
      "Ġflow": 813,
      "pl": 814,
      "ine": 815,
      "Ġide": 816,
      "rom": 817,
      "ched": 818,
      "ĠWe": 819,
      "Ġlist": 820,
      "Ġfi": 821,
      "Ġfood": 822,
      "Ġanimals": 823,
      "Ġits": 824,
      "Ġbet": 825,
      "Ġtry": 826,
      "Ġsky": 827,
      "Ġidea": 828,
      "Ġte": 829,
      "ving": 830,
      "Ġus": 831,
      "Ġnear": 832,
      "gry": 833,
      "Ġtw": 834,
      "Ġheard": 835,
      "Ġbetter": 836,
      "pec": 837,
      "Ġbug": 838,
      "ĠTh": 839,
      "Ġen": 840,
      "able": 841,
      "Ġsn": 842,
      "ate": 843,
      "Ġshare": 844,
      "Ġstor": 845,
      "Ġif": 846,
      "Ġcom": 847,
      "Thank": 848,
      "Ġcareful": 849,
      "Ġfly": 850,
      "Ġdan": 851,
      "ial": 852,
      "ion": 853,
      "ĠAmy": 854,
      "Mom": 855,
      "Ġlots": 856,
      "lf": 857,
      "Ġspec": 858,
      "Ġspecial": 859,
      "Ġnever": 860,
      "Ġdon": 861,
      "Ġflew": 862,
      "Ġshiny": 863,
      "more": 864,
      "Ġanymore": 865,
      "Ġby": 866,
      "ream": 867,
      "Ġfo": 868,
      "Ġgr": 869,
      "Ġeven": 870,
      "Ġfore": 871,
      "ĠAnna": 872,
      "Ġend": 873,
      "Ġlove": 874,
      "ort": 875,
      "ak": 876,
      "Ġwind": 877,
      "Ġtal": 878,
      "Ġcake": 879,
      "rm": 880,
      "Ġbu": 881,
      "bb": 882,
      "udden": 883,
      "ĠThen": 884,
      "Ġmag": 885,
      "Ġbook": 886,
      "imb": 887,
      "Ġturn": 888,
      "Ġclean": 889,
      "Ġbad": 890,
      "Ġcol": 891,
      "ople": 892,
      "ĠEvery": 893,
      "Ġclimb": 894,
      "Ġover": 895,
      "Ġhard": 896,
      "Ġhigh": 897,
      "Let": 898,
      "uddenly": 899,
      "pected": 900,
      "Ġcome": 901,
      "Ġafter": 902,
      "Ġsurprised": 903,
      "Ġpicked": 904,
      "Ġway": 905,
      "Ġhurt": 906,
      "'m": 907,
      "ber": 908,
      "Ġche": 909,
      "expected": 910,
      "Ġunexpected": 911,
      "Ġfam": 912,
      "Ġproud": 913,
      "Ġcu": 914,
      "Ġground": 915,
      "Ġgl": 916,
      "Ġopened": 917,
      "Ġdoor": 918,
      "Ġim": 919,
      "ady": 920,
      "Ġpeople": 921,
      "As": 922,
      "Ġgive": 923,
      "Ġthanked": 924,
      "arden": 925,
      "Ġgarden": 926,
      "ĠFrom": 927,
      "Ġsafe": 928,
      "Ġstill": 929,
      "Ġcolor": 930,
      "Ġloud": 931,
      "Ġhugged": 932,
      "Ġfar": 933,
      "Ġever": 934,
      "No": 935,
      "ĠWhen": 936,
      "Ġcall": 937,
      "Ġblue": 938,
      "ail": 939,
      "ild": 940,
      "ool": 941,
      "les": 942,
      "Ġwalk": 943,
      "ummy": 944,
      "Ġqu": 945,
      "Ġoff": 946,
      "Ġmagic": 947,
      "ough": 948,
      "uff": 949,
      "ip": 950,
      "Ġjumped": 951,
      "ĠHer": 952,
      "iz": 953,
      "kay": 954,
      "ĠK": 955,
      "Ġshould": 956,
      "Ġkid": 957,
      "Ġsmile": 958,
      "Ġfamily": 959,
      "ĠSara": 960,
      "age": 961,
      "Ġstay": 962,
      "Ġforest": 963,
      "ĠIn": 964,
      "ture": 965,
      "hes": 966,
      "Ġpar": 967,
      "ct": 968,
      "aut": 969,
      "Ġsqu": 970,
      "Ġsto": 971,
      "em": 972,
      "Ġnow": 973,
      "Ġgreat": 974,
      "Ġplace": 975,
      "ning": 976,
      "Ġstick": 977,
      "ĠP": 978,
      "Ġbeaut": 979,
      "Ġunt": 980,
      "Ġbra": 981,
      "ane": 982,
      "oon": 983,
      "Ġstrong": 984,
      "unny": 985,
      "dy": 986,
      "rel": 987,
      "be": 988,
      "Ġnext": 989,
      "Ġuntil": 990,
      "lease": 991,
      "Ġpicture": 992,
      "Ġtra": 993,
      "iful": 994,
      "Ġbeautiful": 995,
      "Ġrain": 996,
      "aking": 997,
      "itty": 998,
      "Ġstory": 999,
      "Ġhappily": 1000,
      "Ġkids": 1001,
      "oy": 1002,
      "Ġbro": 1003,
      "Ġclos": 1004,
      "Ġimp": 1005,
      "Ġlisten": 1006,
      "Ġtown": 1007,
      "Ġshowed": 1008,
      "Ġapp": 1009,
      "Ġhelped": 1010,
      "pt": 1011,
      "Ġwhile": 1012,
      "Ġfrog": 1013,
      "ress": 1014,
      "Ġtruck": 1015,
      "Ġeveryone": 1016,
      "It": 1017,
      "th": 1018,
      "ies": 1019,
      "Ġmet": 1020,
      "Now": 1021,
      "Ġmor": 1022,
      "Ġgame": 1023,
      "Ġmouse": 1024,
      "Ġbeing": 1025,
      "uffy": 1026,
      "ree": 1027,
      "Ġwo": 1028,
      "Ġcalled": 1029,
      "Ġstopped": 1030,
      "by": 1031,
      "Ġsoft": 1032,
      "Ġrem": 1033,
      "Ġcry": 1034,
      "Ġhat": 1035,
      "Ġad": 1036,
      "When": 1037,
      "ĠSally": 1038,
      "Ġopen": 1039,
      "Ġdra": 1040,
      "Can": 1041,
      "He": 1042,
      "ĠLet": 1043,
      "Ġwatch": 1044,
      "Ġdoll": 1045,
      "Ġbed": 1046,
      "Ġangry": 1047,
      "Ġkeep": 1048,
      "Ġyummy": 1049,
      "Ġslide": 1050,
      "bit": 1051,
      "Ġboat": 1052,
      "ished": 1053,
      "abbit": 1054,
      "Ġcouldn": 1055,
      "so": 1056,
      "ĠWh": 1057,
      "vent": 1058,
      "ger": 1059,
      "Ġbrave": 1060,
      "Ġalso": 1061,
      "Ġlost": 1062,
      "fore": 1063,
      "Ġleave": 1064,
      "iss": 1065,
      "Ġrabbit": 1066,
      "gan": 1067,
      "dded": 1068,
      "ary": 1069,
      "Ġflowers": 1070,
      "Ġde": 1071,
      "Ġgreen": 1072,
      "Ġfell": 1073,
      "Ġate": 1074,
      "ĠR": 1075,
      "irrel": 1076,
      "Ġwarm": 1077,
      "irst": 1078,
      "Ġwhere": 1079,
      "Ġsoon": 1080,
      "luffy": 1081,
      "Ġpain": 1082,
      "Ġsquirrel": 1083,
      "self": 1084,
      "az": 1085,
      "Ġnoise": 1086,
      "ble": 1087,
      "ock": 1088,
      "What": 1089,
      "ĠKitty": 1090,
      "Ġpus": 1091,
      "Ġface": 1092,
      "ma": 1093,
      "Ġtwo": 1094,
      "Ġhole": 1095,
      "leep": 1096,
      "ired": 1097,
      "Ġbefore": 1098,
      "owl": 1099,
      "Ġhands": 1100,
      "Ġhear": 1101,
      "Ben": 1102,
      "Hi": 1103,
      "illy": 1104,
      "Look": 1105,
      "Ġkept": 1106,
      "Ġexpl": 1107,
      "ear": 1108,
      "Then": 1109,
      "Ġnodded": 1110,
      "Ġsat": 1111,
      "Ġfin": 1112,
      "That": 1113,
      "Ġpa": 1114,
      "aybe": 1115,
      "Ġey": 1116,
      "ĠFluffy": 1117,
      "day": 1118,
      "Ġbre": 1119,
      "âĢľ": 1120,
      "Ġbirds": 1121,
      "Ġuse": 1122,
      "âĢĿ": 1123,
      "Ġcatch": 1124,
      "thing": 1125,
      "Ġthink": 1126,
      "Ġfunny": 1127,
      "Ġsunny": 1128,
      "ĠNow": 1129,
      "Ġtired": 1130,
      "Ġgoing": 1131,
      "Ġhaving": 1132,
      "Ġhas": 1133,
      "Ġcook": 1134,
      "Ġstore": 1135,
      "Ġbunny": 1136,
      "ange": 1137,
      "Ġpond": 1138,
      "Ġlooking": 1139,
      "Ġwr": 1140,
      "Ġfix": 1141,
      "ting": 1142,
      "Ġthr": 1143,
      "Ġused": 1144,
      "Ġothers": 1145,
      "Ġour": 1146,
      "Ġmommy": 1147,
      "uch": 1148,
      "Ġcra": 1149,
      "Ġsing": 1150,
      "Ġmean": 1151,
      "Ġhead": 1152,
      "Ġbeh": 1153,
      "Ġwork": 1154,
      "ĠCan": 1155,
      "uit": 1156,
      "Ġwait": 1157,
      "Ġyell": 1158,
      "Ġsound": 1159,
      "ember": 1160,
      "Ġask": 1161,
      "Ġpull": 1162,
      "joy": 1163,
      "We": 1164,
      "rew": 1165,
      "Ġjo": 1166,
      "Ġeyes": 1167,
      "Ġbus": 1168,
      "ĠJack": 1169,
      "Ġfav": 1170,
      "Ġfirst": 1171,
      "Ġtri": 1172,
      "ĠG": 1173,
      "air": 1174,
      "Ġflo": 1175,
      "aug": 1176,
      "Ġdr": 1177,
      "aught": 1178,
      "Ġsleep": 1179,
      "Ġright": 1180,
      "Ġtalk": 1181,
      "Ġhill": 1182,
      "Ġvo": 1183,
      "led": 1184,
      "ng": 1185,
      "Hell": 1186,
      "Hello": 1187,
      "ĠJo": 1188,
      "Ġimport": 1189,
      "Ġpie": 1190,
      "Ġbright": 1191,
      "ious": 1192,
      "Ġenjoy": 1193,
      "Ġremember": 1194,
      "itc": 1195,
      "ĠDo": 1196,
      "Ġmess": 1197,
      "Ġdif": 1198,
      "Ġrace": 1199,
      "Ġreal": 1200,
      "zy": 1201,
      "Ġkitc": 1202,
      "Ġkitchen": 1203,
      "ac": 1204,
      "Ġmoral": 1205,
      "Ġsand": 1206,
      "Ġcuri": 1207,
      "Ġduck": 1208,
      "Ġbag": 1209,
      "Ġflower": 1210,
      "llow": 1211,
      "Ġcon": 1212,
      "Ġokay": 1213,
      "Ġhop": 1214,
      "Ġimportant": 1215,
      "Ġadvent": 1216,
      "eet": 1217,
      "ft": 1218,
      "Ġshared": 1219,
      "orn": 1220,
      "Ġparty": 1221,
      "ath": 1222,
      "Ġdir": 1223,
      "ĠFin": 1224,
      "imes": 1225,
      "reed": 1226,
      "Ġbegan": 1227,
      "Ġcold": 1228,
      "Ġcurious": 1229,
      "Ġfavor": 1230,
      "Ġgrass": 1231,
      "Ġz": 1232,
      "Ġfavorite": 1233,
      "Ġhid": 1234,
      "ount": 1235,
      "Ġmon": 1236,
      "Ġhere": 1237,
      "Ġcla": 1238,
      "At": 1239,
      "Ġmaking": 1240,
      "que": 1241,
      "ĠâĢľ": 1242,
      "ect": 1243,
      "lly": 1244,
      "Ġworked": 1245,
      "Ġthing": 1246,
      "Ġyard": 1247,
      "hn": 1248,
      "Ġdress": 1249,
      "Don": 1250,
      "Ġtall": 1251,
      "Ġdis": 1252,
      "Ġrest": 1253,
      "aper": 1254,
      "Ġsurprise": 1255,
      "Wow": 1256,
      "ster": 1257,
      "Ġfollow": 1258,
      "Ġown": 1259,
      "Ġtop": 1260,
      "Ġagreed": 1261,
      "Ġwalking": 1262,
      "Ġsho": 1263,
      "ĠThis": 1264,
      "Ġblock": 1265,
      "Ġnight": 1266,
      "Ġtrees": 1267,
      "Ġbehind": 1268,
      "Ġbel": 1269,
      "Ġwatched": 1270,
      "Ġpick": 1271,
      "Ġcars": 1272,
      "Ġcut": 1273,
      "Ġvoice": 1274,
      "Ġri": 1275,
      "Ġhot": 1276,
      "Ġice": 1277,
      "Ġhun": 1278,
      "Ġstop": 1279,
      "ied": 1280,
      "Ġsong": 1281,
      "Ġru": 1282,
      "Ġworry": 1283,
      "Ġmove": 1284,
      "Ġdark": 1285,
      "Ġleaves": 1286,
      "Ġforg": 1287,
      "Ġfarm": 1288,
      "Ġtable": 1289,
      "isy": 1290,
      "Anna": 1291,
      "Ġtell": 1292,
      "ĠDad": 1293,
      "After": 1294,
      "Ġneeded": 1295,
      "Ġturned": 1296,
      "Max": 1297,
      "Ġdraw": 1298,
      "Ġfloor": 1299,
      "Ġshout": 1300,
      "ike": 1301,
      "Ġcolors": 1302,
      "Ġdoes": 1303,
      "aring": 1304,
      "Ġread": 1305,
      "ign": 1306,
      "Ġtail": 1307,
      "Why": 1308,
      "Ġfire": 1309,
      "Ġplease": 1310,
      "âĢĻ": 1311,
      "fere": 1312,
      "Ġdiffere": 1313,
      "Ġcried": 1314,
      "Ġlion": 1315,
      "ĠMr": 1316,
      "ĠSuddenly": 1317,
      "Ġadventure": 1318,
      "Ġfeeling": 1319,
      "Ġcloser": 1320,
      "Ġpaper": 1321,
      "Ġsweet": 1322,
      "co": 1323,
      "Ġswing": 1324,
      "Ġdel": 1325,
      "ered": 1326,
      "Ġhungry": 1327,
      "Ġwet": 1328,
      "Ġdance": 1329,
      "Sue": 1330,
      "Ġplan": 1331,
      "Ġfriendly": 1332,
      "Ġlaugh": 1333,
      "bo": 1334,
      "ĠBobo": 1335,
      "ĠAs": 1336,
      "Ġroll": 1337,
      "ached": 1338,
      "Ġfull": 1339,
      "Ġclimbed": 1340,
      "Ġpiece": 1341,
      "ĠThat": 1342,
      "Ġdifferent": 1343,
      "Ġtast": 1344,
      "bye": 1345,
      "Sam": 1346,
      "ken": 1347,
      "Ġswim": 1348,
      "Ġdanc": 1349,
      "Ġant": 1350,
      "Ġlady": 1351,
      "Ġyellow": 1352,
      "Ġper": 1353,
      "ater": 1354,
      "Ġtrain": 1355,
      "Ġwood": 1356,
      "Ġhold": 1357,
      "Ġcr": 1358,
      "oom": 1359,
      "Ġready": 1360,
      "Ġbroken": 1361,
      "where": 1362,
      "ient": 1363,
      "Ġprin": 1364,
      "Ġrunning": 1365,
      "She": 1366,
      "Ġwonder": 1367,
      "Ġtouch": 1368,
      "ĠTimmy": 1369,
      "Ġfruit": 1370,
      "cked": 1371,
      "Ġpretend": 1372,
      "Ġprom": 1373,
      "ĠJane": 1374,
      "ndma": 1375,
      "Ġlight": 1376,
      "Ġglad": 1377,
      "Ġlistened": 1378,
      "Ġclose": 1379,
      "sh": 1380,
      "Ġgone": 1381,
      "Ġonly": 1382,
      "ppy": 1383,
      "Ġcool": 1384,
      "bbed": 1385,
      "Ġreached": 1386,
      "Ġsees": 1387,
      "aby": 1388,
      "Ġanother": 1389,
      "Ġblocks": 1390,
      "So": 1391,
      "Ġhelping": 1392,
      "oney": 1393,
      "Ġbutter": 1394,
      "Suddenly": 1395,
      "ĠO": 1396,
      "Ġhair": 1397,
      "Ġgoodbye": 1398,
      "Ġstuck": 1399,
      "Ġrepl": 1400,
      "Ġamaz": 1401,
      "Ġbeen": 1402,
      "ather": 1403,
      "Ġsmell": 1404,
      "Ġdri": 1405,
      "af": 1406,
      "iced": 1407,
      "ĠAll": 1408,
      "Ġwall": 1409,
      "Ġpu": 1410,
      "ĠEveryone": 1411,
      "av": 1412,
      "Ġless": 1413,
      "Ġslow": 1414,
      "ila": 1415,
      "Ġquick": 1416,
      "Ġpushed": 1417,
      "Ġar": 1418,
      "Ġac": 1419,
      "Ġsit": 1420,
      "Ġheld": 1421,
      "Ġcream": 1422,
      "Ġmust": 1423,
      "Ġwished": 1424,
      "Ġmight": 1425,
      "Ġste": 1426,
      "Ġbaby": 1427,
      "Sara": 1428,
      "Ġdin": 1429,
      "Ġbit": 1430,
      "Ġmoment": 1431,
      "Ġcloud": 1432,
      "Ġballoon": 1433,
      "Ġfair": 1434,
      "aisy": 1435,
      "Ġcoming": 1436,
      "Ġname": 1437,
      "Ġdoing": 1438,
      "Ġperf": 1439,
      "Mia": 1440,
      "Ġwin": 1441,
      "Ġfight": 1442,
      "Ġwag": 1443,
      "Ġwindow": 1444,
      "Ġunderst": 1445,
      "Ġlooks": 1446,
      "Ġbuy": 1447,
      "Ġthank": 1448,
      "Ġdone": 1449,
      "Ġdream": 1450,
      "Ġexplore": 1451,
      "ames": 1452,
      "Ġbar": 1453,
      "Ġreach": 1454,
      "Ġwhy": 1455,
      "Ġbooks": 1456,
      "Ġgrow": 1457,
      "Ġbrother": 1458,
      "Ġtrying": 1459,
      "Ġdirty": 1460,
      "ized": 1461,
      "Ġdro": 1462,
      "icy": 1463,
      "red": 1464,
      "key": 1465,
      "Ġthrough": 1466,
      "'re": 1467,
      "uddy": 1468,
      "Ġmat": 1469,
      "Ġshouted": 1470,
      "Ġleft": 1471,
      "ott": 1472,
      "Ġclapped": 1473,
      "Okay": 1474,
      "Ġfall": 1475,
      "andy": 1476,
      "Ġpink": 1477,
      "Ġreplied": 1478,
      "ins": 1479,
      "Ġapple": 1480,
      "Ġchild": 1481,
      "Ġsnow": 1482,
      "Ġpaint": 1483,
      "ation": 1484,
      "ely": 1485,
      "Ġcount": 1486,
      "Ġwise": 1487,
      "Ġhide": 1488,
      "ix": 1489,
      "Ġtiny": 1490,
      "In": 1491,
      "Ġseen": 1492,
      "Ġowl": 1493,
      "Ġthree": 1494,
      "ash": 1495,
      "Ġsure": 1496,
      "Ġswam": 1497,
      "Ġbuild": 1498,
      "pe": 1499,
      "Ġplant": 1500,
      "ĠMommy": 1501,
      "Ġair": 1502,
      "art": 1503,
      "Ġscary": 1504,
      "Ġjoin": 1505,
      "Ġpulled": 1506,
      "Ġbutterf": 1507,
      "Ġwaved": 1508,
      "room": 1509,
      "Ġbigger": 1510,
      "Ġspl": 1511,
      "Ġquickly": 1512,
      "ield": 1513,
      "Ġbran": 1514,
      "Ġsometimes": 1515,
      "ĠAfter": 1516,
      "Ġpot": 1517,
      "Ġwaited": 1518,
      "Ġcup": 1519,
      "Ġremembered": 1520,
      "outh": 1521,
      "Ġlesson": 1522,
      "Ġblew": 1523,
      "Ġanything": 1524,
      "ask": 1525,
      "Ġmouth": 1526,
      "Ġgrabbed": 1527,
      "Ġcolorful": 1528,
      "Ġgames": 1529,
      "der": 1530,
      "Ġstayed": 1531,
      "Ġpictures": 1532,
      "Ġalone": 1533,
      "Ġenjoyed": 1534,
      "Ġland": 1535,
      "Oh": 1536,
      "Ġcont": 1537,
      "avy": 1538,
      "Ġnoticed": 1539,
      "Ġfill": 1540,
      "ph": 1541,
      "Ġpen": 1542,
      "Ġwoods": 1543,
      "ĠThere": 1544,
      "Ġtreat": 1545,
      "Ġtight": 1546,
      "Ġbike": 1547,
      "Ġnest": 1548,
      "Ġmiss": 1549,
      "ries": 1550,
      "Ġcast": 1551,
      "ds": 1552,
      "Ġmar": 1553,
      "asure": 1554,
      "Ġchair": 1555,
      "Ġset": 1556,
      "ower": 1557,
      "Ġjob": 1558,
      "Jo": 1559,
      "de": 1560,
      "This": 1561,
      "Ġarm": 1562,
      "oup": 1563,
      "ucky": 1564,
      "Ġspot": 1565,
      "ĠBuddy": 1566,
      "cle": 1567,
      "Ġcre": 1568,
      "Ġcomp": 1569,
      "Ġworld": 1570,
      "Ġgent": 1571,
      "Ġturns": 1572,
      "Ġhopped": 1573,
      "row": 1574,
      "Ġthrew": 1575,
      "ctor": 1576,
      "Ġmix": 1577,
      "Ġclot": 1578,
      "Ġmus": 1579,
      "Ġclothes": 1580,
      "Ġlikes": 1581,
      "Ġpat": 1582,
      "Ġbott": 1583,
      "man": 1584,
      "Ġyear": 1585,
      "ape": 1586,
      "lc": 1587,
      "Ġsea": 1588,
      "Ġje": 1589,
      "Ġhimself": 1590,
      "ton": 1591,
      "Ġheavy": 1592,
      "Ġbroke": 1593,
      "Ġgif": 1594,
      "Ġfollowed": 1595,
      "ĠDaisy": 1596,
      "Ġbreak": 1597,
      "Ġtower": 1598,
      "Ġmakes": 1599,
      "Ġblack": 1600,
      "Do": 1601,
      "Ġwon": 1602,
      "Ġeverywhere": 1603,
      "Ġbutterfly": 1604,
      "Ġpol": 1605,
      "ĠWhat": 1606,
      "amp": 1607,
      "os": 1608,
      "Ġdelic": 1609,
      "Her": 1610,
      "Ġwrong": 1611,
      "less": 1612,
      "olly": 1613,
      "Spot": 1614,
      "Ġforgot": 1615,
      "Ġkey": 1616,
      "Ġcastle": 1617,
      "zz": 1618,
      "Ġbee": 1619,
      "Ġju": 1620,
      "iet": 1621,
      "Ġwhite": 1622,
      "Ġvis": 1623,
      "\".": 1624,
      "ued": 1625,
      "Ġmum": 1626,
      "Ġmusic": 1627,
      "Ġbrought": 1628,
      "Lucy": 1629,
      "Ġdry": 1630,
      "Ġquiet": 1631,
      "ee": 1632,
      "Ġride": 1633,
      "Ġdanced": 1634,
      "Ġround": 1635,
      "Ġwear": 1636,
      "Ġhit": 1637,
      "thy": 1638,
      "ner": 1639,
      "ully": 1640,
      "orm": 1641,
      "Bob": 1642,
      "Ġrel": 1643,
      "Ġdeep": 1644,
      "Ġunderstand": 1645,
      "up": 1646,
      "Ġve": 1647,
      "Ġbor": 1648,
      "Ġrocks": 1649,
      "Ġmonster": 1650,
      "Ġque": 1651,
      "ves": 1652,
      "ĠJohn": 1653,
      "Ġnap": 1654,
      "fully": 1655,
      "Ġwants": 1656,
      "Ġtalked": 1657,
      "Ġfaster": 1658,
      "ross": 1659,
      "Ġsign": 1660,
      "Ġleaf": 1661,
      "ister": 1662,
      "cy": 1663,
      "Ġleg": 1664,
      "Ġsmart": 1665,
      "arent": 1666,
      "cess": 1667,
      "ance": 1668,
      "Ġres": 1669,
      "Ġele": 1670,
      "oun": 1671,
      "Ġsharing": 1672,
      "ts": 1673,
      "Ġvisit": 1674,
      "Ġgi": 1675,
      "Ġparent": 1676,
      "Ġem": 1677,
      "Ġsilly": 1678,
      "ards": 1679,
      "Ġpoin": 1680,
      "ren": 1681,
      "From": 1682,
      "ĠInside": 1683,
      "Ġside": 1684,
      "Ġcookies": 1685,
      "Ġcontin": 1686,
      "Ġflying": 1687,
      "Ġsomeone": 1688,
      "Ġsec": 1689,
      "Ġfox": 1690,
      "eddy": 1691,
      "Ġblank": 1692,
      "ĠSarah": 1693,
      "Ġfinished": 1694,
      "Ġbutton": 1695,
      "Ġreally": 1696,
      "Ġworried": 1697,
      "ĠEm": 1698,
      "ĠTo": 1699,
      "itten": 1700,
      "Ġblanket": 1701,
      "rot": 1702,
      "ey": 1703,
      "Maybe": 1704,
      "Ġeverything": 1705,
      "Ġsister": 1706,
      "Ġking": 1707,
      "Ġsecret": 1708,
      "Ġmud": 1709,
      "Ġperfect": 1710,
      "Ġel": 1711,
      "imi": 1712,
      "Ġhappen": 1713,
      "Ġjar": 1714,
      "ĠMaybe": 1715,
      "Ġbowl": 1716,
      "ang": 1717,
      "Ġwell": 1718,
      "ence": 1719,
      "Ġsmiles": 1720,
      "Ġdinner": 1721,
      "Ġpig": 1722,
      "Ġpudd": 1723,
      "Ġgu": 1724,
      "Ġelse": 1725,
      "Ġbeach": 1726,
      "ĠSoon": 1727,
      "Ġcrying": 1728,
      "Ġwish": 1729,
      "Ġcarefully": 1730,
      "Ġgrandma": 1731,
      "Ġfield": 1732,
      "Ġwelc": 1733,
      "ĠAt": 1734,
      "Ġtoday": 1735,
      "Ġsang": 1736,
      "John": 1737,
      "ated": 1738,
      "ses": 1739,
      "Ġcontinued": 1740,
      "Ġeating": 1741,
      "While": 1742,
      "Ġriver": 1743,
      "Ġfilled": 1744,
      "ze": 1745,
      "Ġshin": 1746,
      "His": 1747,
      "Fin": 1748,
      "Ġpromised": 1749,
      "Ġbrown": 1750,
      "Ġear": 1751,
      "Ġbranch": 1752,
      "ĠLila": 1753,
      "Ġorange": 1754,
      "Ġasks": 1755,
      "Ġspr": 1756,
      "cket": 1757,
      "Ġfur": 1758,
      "Ġapples": 1759,
      "ead": 1760,
      "Just": 1761,
      "Ġdanger": 1762,
      "Ġdoctor": 1763,
      "Ġclosed": 1764,
      "Ġrealized": 1765,
      "Ġpurp": 1766,
      "Ġpieces": 1767,
      "Ġrolled": 1768,
      "stead": 1769,
      "Ġthrow": 1770,
      "Ġcrab": 1771,
      "Ġfree": 1772,
      "Ġchildren": 1773,
      "Ġbite": 1774,
      "Ġlon": 1775,
      "Ġpast": 1776,
      "chool": 1777,
      "itting": 1778,
      "Ġlaughing": 1779,
      "Ġdrink": 1780,
      "Ġlonely": 1781,
      "ipp": 1782,
      "ĠJen": 1783,
      "fish": 1784,
      "Ġpurple": 1785,
      "Ġamazing": 1786,
      "Ġstrange": 1787,
      "Ġcow": 1788,
      "ire": 1789,
      "Ġschool": 1790,
      "Ġwagged": 1791,
      "Ġbarked": 1792,
      "Ġsnack": 1793,
      "board": 1794,
      "Ġshoes": 1795,
      "Amy": 1796,
      "ĠCh": 1797,
      "Ġfairy": 1798,
      "ons": 1799,
      "Ġwithout": 1800,
      "Ġbath": 1801,
      "Ġyes": 1802,
      "Ġsnake": 1803,
      "Ġparents": 1804,
      "Ġpet": 1805,
      "Ġmonkey": 1806,
      "used": 1807,
      "Ġmorning": 1808,
      "Ġce": 1809,
      "ord": 1810,
      "Ġchee": 1811,
      "Ġliving": 1812,
      "ĠMimi": 1813,
      "ises": 1814,
      "Ġwords": 1815,
      "Mommy": 1816,
      "Ġcandy": 1817,
      "Ġ-": 1818,
      "Ġatt": 1819,
      "ĠJoe": 1820,
      "Ġruns": 1821,
      "Ġenough": 1822,
      "Ġmoved": 1823,
      "Ġletter": 1824,
      "Ġgift": 1825,
      "fort": 1826,
      "Ġmad": 1827,
      "Ġwelcome": 1828,
      "ĠBilly": 1829,
      "ĠZ": 1830,
      "Ġsoup": 1831,
      "Ġmoney": 1832,
      "ĠGra": 1833,
      "Ġgetting": 1834,
      "Ġthinks": 1835,
      ".âĢĿ": 1836,
      "Ġsitting": 1837,
      "igh": 1838,
      "Ġcoat": 1839,
      "Ġshop": 1840,
      "ich": 1841,
      "ella": 1842,
      "ible": 1843,
      "Ġwhe": 1844,
      "ased": 1845,
      "emy": 1846,
      "Ġroad": 1847,
      "Ġtreasure": 1848,
      "Ġbottle": 1849,
      "Ġpush": 1850,
      "Ġlake": 1851,
      "Ġfinally": 1852,
      "iver": 1853,
      "Ġwings": 1854,
      "ined": 1855,
      "arm": 1856,
      "gy": 1857,
      "Ġhigher": 1858,
      "Ġfan": 1859,
      "Ġcoll": 1860,
      "ush": 1861,
      "Ġdrag": 1862,
      "Ġbask": 1863,
      "Ġstre": 1864,
      "Ġpass": 1865,
      "Ġbasket": 1866,
      "Ġboun": 1867,
      "itch": 1868,
      "eb": 1869,
      "bow": 1870,
      "Ġdelicious": 1871,
      "set": 1872,
      "Ġpuddle": 1873,
      "Ġshining": 1874,
      "ubb": 1875,
      "Ġbelie": 1876,
      "ale": 1877,
      "ass": 1878,
      "unch": 1879,
      "Ġsmo": 1880,
      "Ġph": 1881,
      "Ġhor": 1882,
      "althy": 1883,
      "Ġseed": 1884,
      "Ġpre": 1885,
      "Ġmother": 1886,
      "Ġswings": 1887,
      "vel": 1888,
      "'ll": 1889,
      "Ġdangerous": 1890,
      "Ġstart": 1891,
      "Ġstand": 1892,
      "Ġcreat": 1893,
      "ier": 1894,
      "Ġsail": 1895,
      "Ġsack": 1896,
      "Ġpill": 1897,
      "Ġrainbow": 1898,
      "!âĢĿ": 1899,
      "Ġstone": 1900,
      "me": 1901,
      "Ġmail": 1902,
      "Ġpaw": 1903,
      "llie": 1904,
      "Ġnose": 1905,
      "app": 1906,
      "Ġdays": 1907,
      "Ġfarmer": 1908,
      "phant": 1909,
      "Ġteddy": 1910,
      "Ġscream": 1911,
      "Ġbring": 1912,
      "Ġshell": 1913,
      "igg": 1914,
      "ĠBl": 1915,
      "Ġcaught": 1916,
      "Please": 1917,
      "Ġnut": 1918,
      "Ġdropped": 1919,
      "gg": 1920,
      "Ġbow": 1921,
      "isk": 1922,
      "Ġherself": 1923,
      "Ġarri": 1924,
      "Ġelephant": 1925,
      "Ġsame": 1926,
      "ches": 1927,
      "Ġtalking": 1928,
      "Ġdolls": 1929,
      "Ġbuck": 1930,
      "Ġwoke": 1931,
      "Ġbelong": 1932,
      "cks": 1933,
      "ub": 1934,
      "Ġben": 1935,
      "una": 1936,
      "Ġcheese": 1937,
      "Ġwore": 1938,
      "Ġyears": 1939,
      "Ġwhist": 1940,
      "Ġowner": 1941,
      "Ġcorn": 1942,
      "sc": 1943,
      "Ġcheered": 1944,
      "sw": 1945,
      "Ġtom": 1946,
      "Jack": 1947,
      "OK": 1948,
      "Ġtwins": 1949,
      "Ġcute": 1950,
      "Ġmin": 1951,
      "Ġra": 1952,
      "Ġmine": 1953,
      "Ġegg": 1954,
      "Ġsear": 1955,
      "ĠEmma": 1956,
      "Ġansw": 1957,
      "Ġvill": 1958,
      "ĠTommy": 1959,
      "Ġseem": 1960,
      "Ġhoped": 1961,
      "Ġtasty": 1962,
      "iskers": 1963,
      "Ġbat": 1964,
      "Ġfit": 1965,
      "Ġrope": 1966,
      "Ġteach": 1967,
      "ĠRemy": 1968,
      "Ġpuppy": 1969,
      "ipped": 1970,
      "Ġcray": 1971,
      "Ġpile": 1972,
      "Ġsinging": 1973,
      "Ġgrew": 1974,
      "Ġforever": 1975,
      "erry": 1976,
      "Ġpers": 1977,
      "Ġteac": 1978,
      "sy": 1979,
      "Ġable": 1980,
      "Ġgentle": 1981,
      "Ġtouc": 1982,
      "Ġspin": 1983,
      "Ġcho": 1984,
      "Ġtrou": 1985,
      "Ġmost": 1986,
      "Ġcarrot": 1987,
      "Ġstreet": 1988,
      "Ġplane": 1989,
      "Ġbread": 1990,
      "idge": 1991,
      "ract": 1992,
      "Ġhoney": 1993,
      "Finally": 1994,
      "Ġheart": 1995,
      "Ġband": 1996,
      "Ġbush": 1997,
      "Ġarrived": 1998,
      "Good": 1999,
      "Ġjoy": 2000,
      "urtle": 2001,
      "ama": 2002,
      "Ġbench": 2003,
      "Ġvillage": 2004,
      "isa": 2005,
      "Ġwonderful": 2006,
      "Ġcour": 2007,
      "Ġdragon": 2008,
      "ĠThank": 2009,
      "Ġhiding": 2010,
      "Ġholding": 2011,
      "Ġprob": 2012,
      "adow": 2013,
      "Ġjuice": 2014,
      "Ġinc": 2015,
      "ĠBella": 2016,
      "aur": 2017,
      "br": 2018,
      "ator": 2019,
      "irth": 2020,
      "Ġshook": 2021,
      "Ġcarry": 2022,
      "Ġtouched": 2023,
      "Ġshap": 2024,
      "irp": 2025,
      "fused": 2026,
      "irthday": 2027,
      "lem": 2028,
      "ian": 2029,
      "Ġcloth": 2030,
      "Ġfew": 2031,
      "ourn": 2032,
      "ĠWhiskers": 2033,
      "Ġproblem": 2034,
      "Ġdirt": 2035,
      "Ġcourse": 2036,
      "umb": 2037,
      "Ġkiss": 2038,
      "Ġjourn": 2039,
      "epend": 2040,
      "Ġcave": 2041,
      "Ġpop": 2042,
      "Ġbugs": 2043,
      "Ġeas": 2044,
      "Ġsounds": 2045,
      "Ġshake": 2046,
      "Ġspo": 2047,
      "Ġteacher": 2048,
      "Ġwar": 2049,
      "Ġbusy": 2050,
      "aughty": 2051,
      "Ġfence": 2052,
      "Ġdes": 2053,
      "Ġpower": 2054,
      "Ġtowards": 2055,
      "Ġpromise": 2056,
      "Ġgiant": 2057,
      "Ġnaughty": 2058,
      "eared": 2059,
      "Ġlate": 2060,
      "Ġmeet": 2061,
      "Ġbelieve": 2062,
      "Ġpocket": 2063,
      "ĠBlue": 2064,
      "Ġbirthday": 2065,
      "Ġtrip": 2066,
      "Ġshapes": 2067,
      "Ġturtle": 2068,
      "Ġfeels": 2069,
      "ato": 2070,
      "Ġshar": 2071,
      "Ġlunch": 2072,
      "Ġwra": 2073,
      "Ġsharp": 2074,
      "Ġlucky": 2075,
      "Ġob": 2076,
      "eter": 2077,
      "ling": 2078,
      "Ġpatient": 2079,
      "lla": 2080,
      "Ġhorse": 2081,
      "Ġbell": 2082,
      "Ġspark": 2083,
      "ball": 2084,
      "unt": 2085,
      "Ġmist": 2086,
      "Ġupset": 2087,
      "ĠLe": 2088,
      "Ġwild": 2089,
      "ountain": 2090,
      "Ġspoon": 2091,
      "Ġstars": 2092,
      "Ġdriver": 2093,
      "gly": 2094,
      "Ġnoises": 2095,
      "Ġfold": 2096,
      "ol": 2097,
      "Ġtaking": 2098,
      "Ġstorm": 2099,
      "ost": 2100,
      "Ġmark": 2101,
      "iling": 2102,
      "Ġstories": 2103,
      "Ġgray": 2104,
      "Ġducks": 2105,
      "Ġrec": 2106,
      "Ġspid": 2107,
      "Ġhugs": 2108,
      "Ġneck": 2109,
      "Ġorgan": 2110,
      "col": 2111,
      "Ġhelpful": 2112,
      "Ġshr": 2113,
      "umpy": 2114,
      "Ġtreats": 2115,
      "Ġugly": 2116,
      "alm": 2117,
      "Ġlem": 2118,
      "ĠFred": 2119,
      "Ġslowly": 2120,
      "Ġseat": 2121,
      "fortable": 2122,
      "Ġpuzz": 2123,
      "Ġlive": 2124,
      "Ġamazed": 2125,
      "Ġballs": 2126,
      "ular": 2127,
      "ĠMark": 2128,
      "umber": 2129,
      "Ġshy": 2130,
      "Ġrob": 2131,
      "Ġdisapp": 2132,
      "Ġdrove": 2133,
      "elly": 2134,
      "Ġsplas": 2135,
      "Ġsel": 2136,
      "Ġwasn": 2137,
      "Ġinv": 2138,
      "Ġrude": 2139,
      "Ġsug": 2140,
      "Ġzoom": 2141,
      "Ġwide": 2142,
      "Ġmagical": 2143,
      "Ġcard": 2144,
      "irt": 2145,
      "ilk": 2146,
      "Ġphone": 2147,
      "Ġpillow": 2148,
      "ĠOn": 2149,
      "read": 2150,
      "ize": 2151,
      "Ġrobot": 2152,
      "Ġdist": 2153,
      "ĠFinally": 2154,
      "ĠJim": 2155,
      "Ġsuc": 2156,
      "Ġmilk": 2157,
      "Ġyoung": 2158,
      "Ġcover": 2159,
      "Ġselfish": 2160,
      "Ġpart": 2161,
      "Ġinstead": 2162,
      "Ġbucket": 2163,
      "Ġkitten": 2164,
      "Ġwhistle": 2165,
      "Sure": 2166,
      "Ġnet": 2167,
      "Ġcoin": 2168,
      "Ġmoon": 2169,
      "Hey": 2170,
      "Ġkite": 2171,
      "Ġgrab": 2172,
      "Ġcir": 2173,
      "pping": 2174,
      "Ġslid": 2175,
      "Ġstring": 2176,
      "Ġseek": 2177,
      "Lila": 2178,
      "Ġsandw": 2179,
      "ens": 2180,
      "Ġglow": 2181,
      "Ġbubb": 2182,
      "Ġdaddy": 2183,
      "ung": 2184,
      "Ġdrive": 2185,
      "not": 2186,
      "Ġser": 2187,
      "ĠJust": 2188,
      "Be": 2189,
      "Later": 2190,
      "ove": 2191,
      "Ġwrite": 2192,
      "Ġmach": 2193,
      "Ġspicy": 2194,
      "Ġfixed": 2195,
      "Ġwheel": 2196,
      "Ġlad": 2197,
      "Ġcannot": 2198,
      "Ġsick": 2199,
      "Ġdi": 2200,
      "Ġboss": 2201,
      "ĠCat": 2202,
      "Ġpan": 2203,
      "let": 2204,
      "Ġstepped": 2205,
      "Ġhuge": 2206,
      "Ġsleepy": 2207,
      "ĠLeo": 2208,
      "Ġthin": 2209,
      "ĠCome": 2210,
      "ere": 2211,
      "ĠLisa": 2212,
      "Ġshelf": 2213,
      "Ġval": 2214,
      "Ġfighting": 2215,
      "Ġspider": 2216,
      "Ġtie": 2217,
      "Ġclever": 2218,
      "Ġsuddenly": 2219,
      "Of": 2220,
      "Ġbone": 2221,
      "Ġmot": 2222,
      "ĠBunny": 2223,
      "Ġca": 2224,
      "Ġpath": 2225,
      "Ġladder": 2226,
      "ors": 2227,
      "Ġforget": 2228,
      "Ġsal": 2229,
      "Ġash": 2230,
      "Ġwatching": 2231,
      "Ġspe": 2232,
      "Ġcomes": 2233,
      "Ġchew": 2234,
      "Ġmissed": 2235,
      "Ġlast": 2236,
      "Ġchick": 2237,
      "irpy": 2238,
      "Ġgrate": 2239,
      "Ġprincess": 2240,
      "Ġtid": 2241,
      "ĠMomo": 2242,
      "Ġadventures": 2243,
      "Ġbeak": 2244,
      "den": 2245,
      "Ġsticks": 2246,
      "Ġlater": 2247,
      "Ġfinish": 2248,
      "Ġbark": 2249,
      "Ġfle": 2250,
      "Ġchased": 2251,
      "Ġjelly": 2252,
      "erest": 2253,
      "Ġgrateful": 2254,
      "lower": 2255,
      "Ġmessy": 2256,
      "Ġhidden": 2257,
      "dge": 2258,
      "ĠOllie": 2259,
      "est": 2260,
      "Ġsmooth": 2261,
      "ert": 2262,
      "ose": 2263,
      "Ġcraw": 2264,
      "ĠGrandma": 2265,
      "Ġwave": 2266,
      "ĠAnn": 2267,
      "Ġpeace": 2268,
      "Ġsongs": 2269,
      "ever": 2270,
      "Ġstep": 2271,
      "Ġrocket": 2272,
      "oggy": 2273,
      "amed": 2274,
      "Ġthough": 2275,
      "Ġinterest": 2276,
      "Ġqueen": 2277,
      "Ġcart": 2278,
      "Ġacross": 2279,
      "Ġchange": 2280,
      "Ġgrumpy": 2281,
      "Ġconfused": 2282,
      "oose": 2283,
      "Ġexplain": 2284,
      "rill": 2285,
      "Ġlife": 2286,
      "Ġent": 2287,
      "St": 2288,
      "to": 2289,
      "Ġrad": 2290,
      "Ġmyster": 2291,
      "ions": 2292,
      "pper": 2293,
      "Ġyog": 2294,
      "Ġtidy": 2295,
      "Ġcookie": 2296,
      "ward": 2297,
      "Ġworm": 2298,
      "ĠDaddy": 2299,
      "iger": 2300,
      "Ġexp": 2301,
      "ery": 2302,
      "oph": 2303,
      "eth": 2304,
      "yard": 2305,
      "Ġdogs": 2306,
      "Ġimag": 2307,
      "Ġban": 2308,
      "Ġmed": 2309,
      "Ġwash": 2310,
      "Ġnothing": 2311,
      "osaur": 2312,
      "Soon": 2313,
      "mer": 2314,
      "Ġlegs": 2315,
      "ming": 2316,
      "Ġtaste": 2317,
      "ones": 2318,
      "Ġalong": 2319,
      "Ġclouds": 2320,
      "Ġbackyard": 2321,
      "ity": 2322,
      "Ġwondered": 2323,
      "Ġdish": 2324,
      "Ġoven": 2325,
      "Ġzoo": 2326,
      "Ġbought": 2327,
      "Ġtea": 2328,
      "ĠJill": 2329,
      "ife": 2330,
      "Ġlanded": 2331,
      "Ġjog": 2332,
      "Ġneigh": 2333,
      "Ġscar": 2334,
      "Ġseemed": 2335,
      "Ġsu": 2336,
      "Ġmachine": 2337,
      "ĠLuna": 2338,
      "Ġlaw": 2339,
      "Ġjoke": 2340,
      "wel": 2341,
      "Ġlay": 2342,
      "Ġwhole": 2343,
      "Ġfruits": 2344,
      "Ġquest": 2345,
      "Ġdrew": 2346,
      "Ġcou": 2347,
      "Ġpack": 2348,
      "Ġlemon": 2349,
      "Ġsnowman": 2350,
      "Ġsmelly": 2351,
      "Ġneighb": 2352,
      "Ġsour": 2353,
      "Ġcalm": 2354,
      "ĠBu": 2355,
      "ugg": 2356,
      "Ġexplor": 2357,
      "Ġdinosaur": 2358,
      "ĠChirpy": 2359,
      "ĠN": 2360,
      "unk": 2361,
      "ipe": 2362,
      "Ġgently": 2363,
      "Ġhope": 2364,
      "Ġfing": 2365,
      "Ġforgive": 2366,
      "Ġbanan": 2367,
      "Ġpuzzle": 2368,
      "Ġsupp": 2369,
      "ars": 2370,
      "Ġtakes": 2371,
      "Ġjewel": 2372,
      "Ġinteresting": 2373,
      "erly": 2374,
      "Ġspray": 2375,
      "Ġarms": 2376,
      "?âĢĿ": 2377,
      "To": 2378,
      "ĠWith": 2379,
      "ek": 2380,
      "Ġba": 2381,
      "pect": 2382,
      "Ġfoot": 2383,
      "Ġmotor": 2384,
      "ocked": 2385,
      "izz": 2386,
      "Ġcross": 2387,
      "Ġplaces": 2388,
      "Ġsave": 2389,
      "Ġsheep": 2390,
      "Ġdrum": 2391,
      "ope": 2392,
      "Ġworking": 2393,
      "Ġeasy": 2394,
      "Ġweak": 2395,
      "Ġfeather": 2396,
      "Ġign": 2397,
      "Ġpract": 2398,
      "Ġkick": 2399,
      "izzy": 2400,
      "ont": 2401,
      "Ġlift": 2402,
      "ĠJerry": 2403,
      "Ġpin": 2404,
      "Ġswimming": 2405,
      "pty": 2406,
      "ĠBe": 2407,
      "Ġempty": 2408,
      "ĠTheir": 2409,
      "Ġring": 2410,
      "Ġdeer": 2411,
      "box": 2412,
      "Ġants": 2413,
      "ment": 2414,
      "Ġmaybe": 2415,
      "Ġanyone": 2416,
      "Ġjumping": 2417,
      "Ġfaces": 2418,
      "ned": 2419,
      "orrow": 2420,
      "irr": 2421,
      "Ġret": 2422,
      "Ġmatch": 2423,
      "Ġboring": 2424,
      "Come": 2425,
      "ĠTV": 2426,
      "Ġact": 2427,
      "Ġsuch": 2428,
      "Ġonto": 2429,
      "Ġlonger": 2430,
      "ork": 2431,
      "ĠMolly": 2432,
      "Ġbossy": 2433,
      "llo": 2434,
      "ult": 2435,
      "Ġsold": 2436,
      "Ġgives": 2437,
      "Ġhealthy": 2438,
      "arge": 2439,
      "Ġreturn": 2440,
      "Ġsmelled": 2441,
      "Ġjourney": 2442,
      "Ġscarf": 2443,
      "bar": 2444,
      "Ġfil": 2445,
      "Ġtrue": 2446,
      "Ġtrouble": 2447,
      "Ġpour": 2448,
      "Ġav": 2449,
      "ina": 2450,
      "Ġmistake": 2451,
      "Ġfake": 2452,
      "Ġsaved": 2453,
      "Ġfront": 2454,
      "Ġprot": 2455,
      "Ġperson": 2456,
      "aw": 2457,
      "Ġwing": 2458,
      "ually": 2459,
      "Ġsplash": 2460,
      "urse": 2461,
      "Sally": 2462,
      "onest": 2463,
      "Ġwaiting": 2464,
      "Ġsol": 2465,
      "Ġlovely": 2466,
      "sp": 2467,
      "Ġmind": 2468,
      "Ġboot": 2469,
      "oomy": 2470,
      "Ġtomorrow": 2471,
      "Ġhonest": 2472,
      "Ġline": 2473,
      "rass": 2474,
      "oop": 2475,
      "Ġfancy": 2476,
      "Ġlarge": 2477,
      "oman": 2478,
      "Ġcheer": 2479,
      "Ġembar": 2480,
      "Ġembarrass": 2481,
      "Ġwaff": 2482,
      "Ġmap": 2483,
      "Ġgather": 2484,
      "aced": 2485,
      "Ġstret": 2486,
      "Ġwolf": 2487,
      "iting": 2488,
      "Ġimpress": 2489,
      "ĠWhy": 2490,
      "ĠTogether": 2491,
      "kin": 2492,
      "Ġlazy": 2493,
      "My": 2494,
      "Ġgoes": 2495,
      "Ġcrayons": 2496,
      "Ġsplashed": 2497,
      "Ġwoman": 2498,
      "Ġplate": 2499,
      "Ġputs": 2500,
      "And": 2501,
      "Ġashamed": 2502,
      "Ġpool": 2503,
      "Ġgold": 2504,
      "Ġnearby": 2505,
      "Ġnote": 2506,
      "Ġappeared": 2507,
      "Ġpretended": 2508,
      "Ġpointed": 2509,
      "Ġpowerful": 2510,
      "Kitty": 2511,
      "Ġsoap": 2512,
      "Ġcarried": 2513,
      "Ġhum": 2514,
      "elp": 2515,
      "Ġscreamed": 2516,
      "Ġsur": 2517,
      "Ġgate": 2518,
      "gest": 2519,
      "Ġdig": 2520,
      "Ġprince": 2521,
      "Ġplants": 2522,
      "Ġaf": 2523,
      "Ġshadow": 2524,
      "Ġloves": 2525,
      "Ġrich": 2526,
      "oc": 2527,
      "Ġstood": 2528,
      "Ġwis": 2529,
      "Ġtrust": 2530,
      "ser": 2531,
      "ĠIf": 2532,
      "itter": 2533,
      "Ġteeth": 2534,
      "Ġpainted": 2535,
      "Ġtape": 2536,
      "Ġshirt": 2537,
      "era": 2538,
      "Ġwearing": 2539,
      "Ġnoisy": 2540,
      "Ġicy": 2541,
      "ĠMy": 2542,
      "Ġreg": 2543,
      "ĠBobby": 2544,
      "Ġnumber": 2545,
      "Ġgun": 2546,
      "Ġcozy": 2547,
      "ĠGo": 2548,
      "raid": 2549,
      "Ġdancing": 2550,
      "Ġanswer": 2551,
      "Ġsuccess": 2552,
      "live": 2553,
      "Ġfear": 2554,
      "Ġafraid": 2555,
      "Ġrare": 2556,
      "pa": 2557,
      "arl": 2558,
      "ĠSomet": 2559,
      "Ġeag": 2560,
      "icked": 2561,
      "Ġvan": 2562,
      "Ġcleaned": 2563,
      "Ġbounce": 2564,
      "Ġsque": 2565,
      "izza": 2566,
      "Ġhang": 2567,
      "ĠPlease": 2568,
      "Help": 2569,
      "mb": 2570,
      "vous": 2571,
      "Ġsmiling": 2572,
      "Ġbuilding": 2573,
      "scape": 2574,
      "Ġsandwich": 2575,
      "Ġcage": 2576,
      "ute": 2577,
      "Ġpri": 2578,
      "Ġmirr": 2579,
      "ĠBird": 2580,
      "Ġchase": 2581,
      "Ġcreative": 2582,
      "Ġshark": 2583,
      "Ġbridge": 2584,
      "Ġtries": 2585,
      "Ġmirror": 2586,
      "Ġballoons": 2587,
      "Ġmatter": 2588,
      "Ġrelie": 2589,
      "Ġsaf": 2590,
      "Ġfeet": 2591,
      "ĠDon": 2592,
      "erries": 2593,
      "Ġship": 2594,
      "Ġsearch": 2595,
      "Ġberries": 2596,
      "Ġpizza": 2597,
      "Ġstra": 2598,
      "Dad": 2599,
      "Ġbake": 2600,
      "Ġwand": 2601,
      "ĠDoggy": 2602,
      "Ġchocol": 2603,
      "Ġsnee": 2604,
      "Ġcloset": 2605,
      "Ġknee": 2606,
      "ĠTr": 2607,
      "Stop": 2608,
      "Ġcap": 2609,
      "Ġcorner": 2610,
      "uce": 2611,
      "Ġner": 2612,
      "ĠMary": 2613,
      "Ġjet": 2614,
      "Ġnervous": 2615,
      "Ġhello": 2616,
      "ĠSt": 2617,
      "ĠHow": 2618,
      "iff": 2619,
      "Ġfeed": 2620,
      "Ġthick": 2621,
      "Ġlock": 2622,
      "Ġmeasure": 2623,
      "Ġclass": 2624,
      "Ġmarch": 2625,
      "Ġthese": 2626,
      "Ġclown": 2627,
      "Ġcrown": 2628,
      "Ġbarn": 2629,
      "Ġhero": 2630,
      "Ġmoms": 2631,
      "Ġdecor": 2632,
      "aughter": 2633,
      "Ġpolite": 2634,
      "rag": 2635,
      "ness": 2636,
      "ndpa": 2637,
      "Ġprint": 2638,
      "Ġfurry": 2639,
      "Ġpoor": 2640,
      "ual": 2641,
      "Ġbal": 2642,
      "Ġcri": 2643,
      "Ġtowel": 2644,
      "Ġclock": 2645,
      "Ġknocked": 2646,
      "Ġap": 2647,
      "Ġvase": 2648,
      "Ġbranches": 2649,
      "Ġsugar": 2650,
      "Ġclap": 2651,
      "Ġchocolate": 2652,
      "ĠSome": 2653,
      "Ġrat": 2654,
      "ado": 2655,
      "Ġspace": 2656,
      "nic": 2657,
      "Ġstu": 2658,
      "Ġpicnic": 2659,
      "Ġstir": 2660,
      "ĠBear": 2661,
      "Ġtent": 2662,
      "Ġfat": 2663,
      "lebr": 2664,
      "Ġmysterious": 2665,
      "Ġprotect": 2666,
      "Ġdaughter": 2667,
      "ote": 2668,
      "Ġhose": 2669,
      "Ġhur": 2670,
      "isp": 2671,
      "Ġtele": 2672,
      "Ġcelebr": 2673,
      "Ġcouch": 2674,
      "Ġorganized": 2675,
      "Ġtick": 2676,
      "lderly": 2677,
      "Ġlamp": 2678,
      "Ġkicked": 2679,
      "Ġdrank": 2680,
      "Ġrespect": 2681,
      "Ġmuff": 2682,
      "ensive": 2683,
      "Ġembarrassed": 2684,
      "Ġwake": 2685,
      "Ġdisco": 2686,
      "Ġbald": 2687,
      "Ġrelieved": 2688,
      "Ġhar": 2689,
      "Ġdull": 2690,
      "any": 2691,
      "Ġyarn": 2692,
      "obe": 2693,
      "ventually": 2694,
      "Ġpolice": 2695,
      "Ġwhisp": 2696,
      "Ġexpensive": 2697,
      "Ġcollect": 2698,
      "Ġexploring": 2699,
      "Ġlose": 2700,
      "Ġcircle": 2701,
      "Ġpeaceful": 2702,
      "Ġgas": 2703,
      "Ġelderly": 2704,
      "Ġword": 2705,
      "Ġpay": 2706,
      "Ġsock": 2707,
      "Ġtwist": 2708,
      "Ġchicken": 2709,
      "Ġstat": 2710,
      "Ġmis": 2711,
      "Ġgigg": 2712,
      "Ġyelled": 2713,
      "Ġind": 2714,
      "Ġgroup": 2715,
      "issors": 2716,
      "Ġtasted": 2717,
      "Ġincred": 2718,
      "Ġfool": 2719,
      "oppy": 2720,
      "ym": 2721,
      "Ġrough": 2722,
      "Ġbecome": 2723,
      "Ġmixed": 2724,
      "lves": 2725,
      "Ġtool": 2726,
      "Ġrose": 2727,
      "Ġwouldn": 2728,
      "rated": 2729,
      "Ġlead": 2730,
      "Ġfier": 2731,
      "Ġglass": 2732,
      "Ġincredible": 2733,
      "Ġ'": 2734,
      "Ġwashed": 2735,
      "ragile": 2736,
      "ond": 2737,
      "Ġter": 2738,
      "Ġgen": 2739,
      "Ġbean": 2740,
      "Ġweird": 2741,
      "Ġwhale": 2742,
      "Ġexam": 2743,
      "Ġsword": 2744,
      "Ġunderstood": 2745,
      "Ġfierce": 2746,
      "Ġstones": 2747,
      "Ġbrush": 2748,
      "Ġpotato": 2749,
      "ĠSometimes": 2750,
      "Ġfragile": 2751,
      "Ġcand": 2752,
      "ĠSp": 2753,
      "ĠAl": 2754,
      "Ġscissors": 2755,
      "Ġlab": 2756,
      "Ġflag": 2757,
      "kn": 2758,
      "robe": 2759,
      "Ġpray": 2760,
      "Ġclear": 2761,
      "Ġpres": 2762,
      "imp": 2763,
      "Ġglue": 2764,
      "Ġadm": 2765,
      "Ġfoolish": 2766,
      "ighed": 2767,
      "Ġspread": 2768,
      "Ġfinding": 2769,
      "Ġterri": 2770,
      "Ġmountain": 2771,
      "Ġnuts": 2772,
      "gu": 2773,
      "Ġdizzy": 2774,
      "Ġcomfortable": 2775,
      "Ġbreath": 2776,
      "Ġfrust": 2777,
      "usual": 2778,
      "Ġhears": 2779,
      "Ġmighty": 2780,
      "Ġtaught": 2781,
      "Ġunusual": 2782,
      "Ġstatue": 2783,
      "known": 2784,
      "Ġscare": 2785,
      "Ġguess": 2786,
      "Ġbubbles": 2787,
      "alk": 2788,
      "airs": 2789,
      "Ġbitter": 2790,
      "ĠBenny": 2791,
      "Ġfinger": 2792,
      "Tommy": 2793,
      "Ġshoe": 2794,
      "Ġseeds": 2795,
      "dle": 2796,
      "Ġjeep": 2797,
      "Ġmic": 2798,
      "Ġfrustrated": 2799,
      "ced": 2800,
      "Ġtest": 2801,
      "Ġfamous": 2802,
      "Ġtiger": 2803,
      "Ġunknown": 2804,
      "port": 2805,
      "Ġ3": 2806,
      "Ġburn": 2807,
      "anged": 2808,
      "Ġsell": 2809,
      "Ġblow": 2810,
      "fic": 2811,
      "Ġstri": 2812,
      "Ġsunf": 2813,
      "Ġteam": 2814,
      "upid": 2815,
      "cycle": 2816,
      "ependent": 2817,
      "cient": 2818,
      "Ġdiffic": 2819,
      "Ġeggs": 2820,
      "orry": 2821,
      "Ġfright": 2822,
      "Ġnosy": 2823,
      "Ġasleep": 2824,
      "Ġunl": 2825,
      "Ġspoiled": 2826,
      "ume": 2827,
      "Ġjeal": 2828,
      "ĠJimmy": 2829,
      "ory": 2830,
      "Ġancient": 2831,
      "Ġdifficult": 2832,
      "Ġjealous": 2833,
      "Ġdug": 2834,
      "Ġboard": 2835,
      "Ġwhich": 2836,
      "Ġgloomy": 2837,
      "Ġcrazy": 2838,
      "Ġdrawing": 2839,
      "Ġgener": 2840,
      "zzy": 2841,
      "Ġwaves": 2842,
      "Ġsco": 2843,
      "inky": 2844,
      "ĠTrue": 2845,
      "lace": 2846,
      "ony": 2847,
      "iable": 2848,
      "aken": 2849,
      "Ġwrote": 2850,
      "shine": 2851,
      "Ġsearched": 2852,
      "Ġstupid": 2853,
      "Ġdrop": 2854,
      "yal": 2855,
      "reen": 2856,
      "Ġdepend": 2857,
      "Ġstubb": 2858,
      "Ġsquare": 2859,
      "Ġaunt": 2860,
      "Ġfig": 2861,
      "Ġshine": 2862,
      "Ġlog": 2863,
      "Ġasking": 2864,
      "Ġjoined": 2865,
      "Ġexplained": 2866,
      "Ġneighbor": 2867,
      "ĠTiny": 2868,
      "Ġcher": 2869,
      "Ġsunshine": 2870,
      "Who": 2871,
      "Ġnecklace": 2872,
      "Ġsquee": 2873,
      "Ġindependent": 2874,
      "Ġstamp": 2875,
      "Ġspent": 2876,
      "Ġending": 2877,
      "Ġdelicate": 2878,
      "Ġcovered": 2879,
      "apped": 2880,
      "Ġtaken": 2881,
      "Ġnods": 2882,
      "Ġgets": 2883,
      "enny": 2884,
      "Ġrug": 2885,
      "Ġwrap": 2886,
      "Ġstubborn": 2887,
      "owed": 2888,
      "Ġorig": 2889,
      "Ġthankful": 2890,
      "Ġfrightened": 2891,
      "xible": 2892,
      "Ġtoast": 2893,
      "ĠBr": 2894,
      "Ġchanged": 2895,
      "Ġterrible": 2896,
      "Where": 2897,
      "Ġmill": 2898,
      "anut": 2899,
      "Ġyourself": 2900,
      "Ġtrump": 2901,
      "Ġignor": 2902,
      "Ġpump": 2903,
      "Ġclay": 2904,
      "ĠPe": 2905,
      "Ġbedroom": 2906,
      "Ġdead": 2907,
      "Ġjolly": 2908,
      "Ġdependable": 2909,
      "Ġtrumpet": 2910,
      "ground": 2911,
      "iant": 2912,
      "Ġstuff": 2913,
      "ĠDucky": 2914,
      "Ġgenerous": 2915,
      "iness": 2916,
      "getable": 2917,
      "Ġvegetable": 2918,
      "Ġpaws": 2919,
      "Ġdiscover": 2920,
      "Ġfine": 2921,
      "Ġcro": 2922,
      "inal": 2923,
      "Ġwealthy": 2924,
      "ĠMama": 2925,
      "Ġarrow": 2926,
      "Ġsalad": 2927,
      "Together": 2928,
      "Ġmotorcycle": 2929,
      "iv": 2930,
      "ique": 2931,
      "ĠTw": 2932,
      "Ġloyal": 2933,
      "Ġunique": 2934,
      "Ġshoot": 2935,
      "Ġpresent": 2936,
      "ying": 2937,
      "Ġhorn": 2938,
      "Ġescape": 2939,
      "Ġroar": 2940,
      "Ġmeal": 2941,
      "Ġflexible": 2942,
      "Ġfrown": 2943,
      "Ġoriginal": 2944,
      "Ġslipped": 2945,
      "Ġstove": 2946,
      "Here": 2947,
      "Ġtrick": 2948,
      "Ġbathroom": 2949,
      "Ġmarket": 2950,
      "rilliant": 2951,
      "Ġimpressive": 2952,
      "If": 2953,
      "Ġbrilliant": 2954,
      "Ġcries": 2955,
      "Ġhats": 2956,
      "com": 2957,
      "Ġmoving": 2958,
      "Jim": 2959,
      "met": 2960,
      "Ġref": 2961,
      "Ġpebb": 2962,
      "Ġeng": 2963,
      "Every": 2964,
      "Ġcats": 2965,
      "ĠYour": 2966,
      "Ġcounted": 2967,
      "Ġbanana": 2968,
      "Ġstraw": 2969,
      "Ġshore": 2970,
      "ĠElla": 2971,
      "Ġmov": 2972,
      "Ġcube": 2973,
      "Ġwagon": 2974,
      "Ġreliable": 2975,
      "Ġvalue": 2976,
      "cil": 2977,
      "Ġlow": 2978,
      "Ġhelmet": 2979,
      "Ġacorn": 2980,
      "Ġpencil": 2981,
      "Ġbottom": 2982,
      "Ġcreature": 2983,
      "ĠNo": 2984,
      "Ġnorm": 2985,
      "Ġord": 2986,
      "Ġmagn": 2987,
      "Ġuseful": 2988,
      "Ġwitch": 2989,
      "Ġcone": 2990,
      "ates": 2991,
      "Ġrelax": 2992,
      "Ġnormal": 2993,
      "Ġtoug": 2994,
      "Ġtooth": 2995,
      "Ġhay": 2996,
      "Ġjam": 2997,
      "Ġbrace": 2998,
      "Ġbalance": 2999,
      "gust": 3000,
      "Ġtimes": 3001,
      "Ġfour": 3002,
      "Ġcab": 3003,
      "Ġham": 3004,
      "Ġlif": 3005,
      "irsty": 3006,
      "iddle": 3007,
      "ĠMany": 3008,
      "Ġpainting": 3009,
      "Ġdisgust": 3010,
      "Ġsunflower": 3011,
      "Ġtough": 3012,
      "most": 3013,
      "Ġpipe": 3014,
      "ĠWill": 3015,
      "ours": 3016,
      "ĠWhile": 3017,
      "Ġspotted": 3018,
      "amond": 3019,
      "unn": 3020,
      "selves": 3021,
      "ray": 3022,
      "Ġswan": 3023,
      "Ġbored": 3024,
      "Ġmedic": 3025,
      "Ġsolve": 3026,
      "light": 3027,
      "Ġthirsty": 3028,
      "Ġalmost": 3029,
      "Ġcareless": 3030,
      "Ġadventur": 3031,
      "Ġdiamond": 3032,
      "Ġmedicine": 3033,
      "Ġsighed": 3034,
      "ict": 3035,
      "Ġclum": 3036,
      "Ġmeat": 3037,
      "opard": 3038,
      "Ġadventurous": 3039,
      "Ġwaffle": 3040,
      "Ġclumsy": 3041,
      "aff": 3042,
      "berry": 3043,
      "Ġcabin": 3044,
      "Are": 3045,
      "Ġadd": 3046,
      "Ġmiddle": 3047,
      "Ġbody": 3048,
      "Ġsmaller": 3049,
      "Ġcomb": 3050,
      "Ġhairy": 3051,
      "Ġsnacks": 3052,
      "Ġwander": 3053,
      "Ġguit": 3054,
      "Ġknowing": 3055,
      "Ġexciting": 3056,
      "Ġwrapped": 3057,
      "Ġumb": 3058,
      "azz": 3059,
      "Ġdisgusting": 3060,
      "Ġumbre": 3061,
      "bled": 3062,
      "ube": 3063,
      "Ġfis": 3064,
      "Ġscr": 3065,
      "Ġcharm": 3066,
      "Ġchest": 3067,
      "Ġpant": 3068,
      "Ġpeanut": 3069,
      "Ġcompet": 3070,
      "ages": 3071,
      "Me": 3072,
      "Sorry": 3073,
      "ident": 3074,
      "cean": 3075,
      "Ġocean": 3076,
      "ĠInstead": 3077,
      "ache": 3078,
      "Ġoat": 3079,
      "Ġleopard": 3080,
      "Ġbloom": 3081,
      "Ġquar": 3082,
      "Ġtells": 3083,
      "Ġserious": 3084,
      "Ġyours": 3085,
      "Ġvine": 3086,
      "ĠBrown": 3087,
      "Ġengine": 3088,
      "Ġraced": 3089,
      "Ġmush": 3090,
      "Ġruined": 3091,
      "Ġfilthy": 3092,
      "Ġguitar": 3093,
      "Ġgem": 3094,
      "Ġflute": 3095,
      "Ġpepper": 3096,
      "ĠJenny": 3097,
      "Ġkissed": 3098,
      "Mum": 3099,
      "edy": 3100,
      "edient": 3101,
      "real": 3102,
      "Ġmetal": 3103,
      "Ġdest": 3104,
      "Ġborrow": 3105,
      "Ġcereal": 3106,
      "Ġtomato": 3107,
      "Ġfigure": 3108,
      "Ġcharming": 3109,
      "dile": 3110,
      "codile": 3111,
      "Ġpopular": 3112,
      "Ġquarrel": 3113,
      "Molly": 3114,
      "erable": 3115,
      "Ġrh": 3116,
      "Ġlean": 3117,
      "Ġshows": 3118,
      "Ġenorm": 3119,
      "Ġbelonged": 3120,
      "Ġmiserable": 3121,
      "Ġenormous": 3122,
      "Ġgoat": 3123,
      "Ġharder": 3124,
      "Ġsoldier": 3125,
      "Ġmagnet": 3126,
      "corn": 3127,
      "xious": 3128,
      "Ġsuit": 3129,
      "Ġstage": 3130,
      "Ġshade": 3131,
      "Ġanxious": 3132,
      "Ġobedient": 3133,
      "Ġsuccessful": 3134,
      "Ġeager": 3135,
      "How": 3136,
      "Ġdust": 3137,
      "Ġnail": 3138,
      "Ġmoder": 3139,
      "Ġmuffin": 3140,
      "Ġtied": 3141,
      "Ġtube": 3142,
      "Ġspring": 3143,
      "Ġpopcorn": 3144,
      "Ġfearful": 3145,
      "Ġprize": 3146,
      "und": 3147,
      "Ġmel": 3148,
      "Ġmask": 3149,
      "Ġpige": 3150,
      "Ġcrocodile": 3151,
      "Ġmushroom": 3152,
      "Ġmodern": 3153,
      "Ġhook": 3154,
      "Ġremind": 3155,
      "Ġcomput": 3156,
      "Ġdesign": 3157,
      "ĠBuzz": 3158,
      "Ġbracelet": 3159,
      "Ġhappiness": 3160,
      "Inside": 3161,
      "Ġregular": 3162,
      "Ġpants": 3163,
      "Ġtap": 3164,
      "Ġfountain": 3165,
      "atch": 3166,
      "Ġweek": 3167,
      "Ġfridge": 3168,
      "Ġveil": 3169,
      "Ġflash": 3170,
      "Ġpumpkin": 3171,
      "Ġpress": 3172,
      "Ġpengu": 3173,
      "appy": 3174,
      "als": 3175,
      "Ġsteal": 3176,
      "Ġumbrella": 3177,
      "zed": 3178,
      "Ġliz": 3179,
      "Ġthoughtful": 3180,
      "Ġguil": 3181,
      "Ġstanding": 3182,
      "Ġcrayon": 3183,
      "Ġcompetit": 3184,
      "Ġharm": 3185,
      "Ġhouses": 3186,
      "Ġpicks": 3187,
      "ging": 3188,
      "Their": 3189,
      "Ġhopping": 3190,
      "Ġguilty": 3191,
      "Ġcop": 3192,
      "urkey": 3193,
      "Ġswe": 3194,
      "Ġhurts": 3195,
      "Ġplanet": 3196,
      "hip": 3197,
      "ĠAndy": 3198,
      "Ġgrace": 3199,
      "angle": 3200,
      "Ġpir": 3201,
      "Ġshiver": 3202,
      "Ġknot": 3203,
      "Ġpassed": 3204,
      "Ġcheerful": 3205,
      "oby": 3206,
      "Ġtwig": 3207,
      "Ġpasta": 3208,
      "Ġlifted": 3209,
      "Ġturkey": 3210,
      "Ġdove": 3211,
      "Ġfriendship": 3212,
      "Ġzip": 3213,
      "ubby": 3214,
      "assion": 3215,
      "Ġcomputer": 3216,
      "Ġcollar": 3217,
      "ĠU": 3218,
      "Ġhalf": 3219,
      "Ġgar": 3220,
      "Ġfluffy": 3221,
      "Ġcheap": 3222,
      "aze": 3223,
      "Ġcompassion": 3224,
      "Ġdough": 3225,
      "Ġstream": 3226,
      "chair": 3227,
      "Timmy": 3228,
      "Ġtem": 3229,
      "Ġenv": 3230,
      "Ġtag": 3231,
      "omes": 3232,
      "oto": 3233,
      "Ġchubby": 3234,
      "Ġparrot": 3235,
      "io": 3236,
      "Ġfather": 3237,
      "Ġnoteb": 3238,
      "ulb": 3239,
      "ĠEven": 3240,
      "ebra": 3241,
      "Ġnotebook": 3242,
      "Ġwire": 3243,
      "llip": 3244,
      "Ġtrucks": 3245,
      "Ġlizard": 3246,
      "llipop": 3247,
      "Ġdeaf": 3248,
      "Ġzebra": 3249,
      "ungle": 3250,
      "Ġhumble": 3251,
      "Ġmovie": 3252,
      "Ġer": 3253,
      "ilt": 3254,
      "axi": 3255,
      "Ġyogurt": 3256,
      "Ġhammer": 3257,
      "inted": 3258,
      "Ġheal": 3259,
      "Ġgum": 3260,
      "Ġplayful": 3261,
      "Ġlollipop": 3262,
      "Ġknife": 3263,
      "ellig": 3264,
      "Ġprun": 3265,
      "Ġvide": 3266,
      "Ġwalks": 3267,
      "Ġcryst": 3268,
      "Ġtricks": 3269,
      "Ġarmchair": 3270,
      "Ġrecord": 3271,
      "Ġspeed": 3272,
      "esday": 3273,
      "Ġneeds": 3274,
      "berries": 3275,
      "Mama": 3276,
      "Ġtire": 3277,
      "Ġtaxi": 3278,
      "Ġjungle": 3279,
      "ĠJake": 3280,
      "Ġboxes": 3281,
      "Ġperform": 3282,
      "Ġcarrots": 3283,
      "Ġfeathers": 3284,
      "Ġlit": 3285,
      "Ġpian": 3286,
      "Ġintellig": 3287,
      "Ġuncom": 3288,
      "Ġenc": 3289,
      "Ġuncomfortable": 3290,
      "ither": 3291,
      "Ġcomet": 3292,
      "igator": 3293,
      "Ġhelpless": 3294,
      "Ġshape": 3295,
      "Ġnod": 3296,
      "Ġswitch": 3297,
      "Ġpiano": 3298,
      "Ġbulb": 3299,
      "Ġones": 3300,
      "Ġalligator": 3301,
      "Ġgarage": 3302,
      "Ġtor": 3303,
      "Ġneedle": 3304,
      "Sarah": 3305,
      "land": 3306,
      "Ġroof": 3307,
      "ĠSammy": 3308,
      "Ġrestless": 3309,
      "Ġdesk": 3310,
      "lph": 3311,
      "Ġtunn": 3312,
      "Ġang": 3313,
      "asses": 3314,
      "Ġcartoon": 3315,
      "Ġtunnel": 3316,
      "Ġhelps": 3317,
      "Ġrode": 3318,
      "Ġchoose": 3319,
      "essie": 3320,
      "Ġtears": 3321,
      "Ġanswered": 3322,
      "Ġyoga": 3323,
      "cles": 3324,
      "Ġtank": 3325,
      "Ġsle": 3326,
      "atient": 3327,
      "ano": 3328,
      "Ġbeet": 3329,
      "ulu": 3330,
      "Ġcrack": 3331,
      "Ġtriangle": 3332,
      "Ġdisappo": 3333,
      "Ġinvited": 3334,
      "Ġcompassionate": 3335,
      "Ġwip": 3336,
      "Ġhomes": 3337,
      "inary": 3338,
      "Ġrag": 3339,
      "Ġlibr": 3340,
      "Ġdolph": 3341,
      "Ġmole": 3342,
      "ctus": 3343,
      "Ġsquash": 3344,
      "Ġwheat": 3345,
      "Ġjellyfish": 3346,
      "Ġreturned": 3347,
      "Ġenvious": 3348,
      "Ġtorn": 3349,
      "cream": 3350,
      "host": 3351,
      "erp": 3352,
      "There": 3353,
      "Ġoffice": 3354,
      "ĠPolly": 3355,
      "Ġboats": 3356,
      "Ġdeliver": 3357,
      "Ġtemp": 3358,
      "cident": 3359,
      "dom": 3360,
      "Ġrub": 3361,
      "Ġshells": 3362,
      "Ġstretch": 3363,
      "Ġticket": 3364,
      "Ġgoose": 3365,
      "Ġscreen": 3366,
      "Ġways": 3367,
      "Ġimpatient": 3368,
      "Ġcupboard": 3369,
      "Ġgraceful": 3370,
      "pes": 3371,
      "Ġlying": 3372,
      "Ġghost": 3373,
      "Ġears": 3374,
      "Ġspinning": 3375,
      "Ġintelligent": 3376,
      "Ġcam": 3377,
      "Ġcase": 3378,
      "Ġmop": 3379,
      "Ġsauce": 3380,
      "Ġloop": 3381,
      "Ġsleeping": 3382,
      "Ġpenny": 3383,
      "Bobo": 3384,
      "Ġcricket": 3385,
      "Ġstudy": 3386,
      "Ġvegetables": 3387,
      "ti": 3388,
      "was": 3389,
      "het": 3390,
      "anger": 3391,
      "Ġhelic": 3392,
      "Ġisland": 3393,
      "opter": 3394,
      "Ġdecide": 3395,
      "Ġpoke": 3396,
      "Ġtrunk": 3397,
      "Ġusing": 3398,
      "Ġbuilt": 3399,
      "Ġwallet": 3400,
      "lcano": 3401,
      "Ġpastry": 3402,
      "Ġdishwas": 3403,
      "Ġhelicopter": 3404,
      "Ġdishwasher": 3405,
      "Go": 3406,
      "vator": 3407,
      "Ġaccident": 3408,
      "Ġelevator": 3409,
      "Ġquestions": 3410,
      "Ġwhispered": 3411,
      "Ġdestro": 3412,
      "cut": 3413,
      "ye": 3414,
      "Ġhedge": 3415,
      "ĠSh": 3416,
      "Ġforth": 3417,
      "Ġmeant": 3418,
      "Ġpro": 3419,
      "Ġpracticed": 3420,
      "Ġbees": 3421,
      "Ġyaw": 3422,
      "Ġcrystal": 3423,
      "Ġlicked": 3424,
      "Ġload": 3425,
      "Ġlaser": 3426,
      "aghet": 3427,
      "Ġsmoke": 3428,
      "Ġcactus": 3429,
      "Ġcrawled": 3430,
      "Ġquestion": 3431,
      "aghetti": 3432,
      "Jane": 3433,
      "Ġed": 3434,
      "Ġspaghetti": 3435,
      "Ġparade": 3436,
      "Ġvolcano": 3437,
      "Ġpersist": 3438,
      "Ġradio": 3439,
      "Ġslept": 3440,
      "Ġsil": 3441,
      "Ġdeter": 3442,
      "erop": 3443,
      "Ġstack": 3444,
      "Ġsheet": 3445,
      "Ġlocked": 3446,
      "Ġpale": 3447,
      "Ġdelight": 3448,
      "ĠOK": 3449,
      "Ġavoc": 3450,
      "Ġdisappointed": 3451,
      "eropl": 3452,
      "case": 3453,
      "Ġaeropl": 3454,
      "atter": 3455,
      "Ġrep": 3456,
      "Ġchalk": 3457,
      "Ġuniver": 3458,
      "Ġpigeon": 3459,
      "Ġcompetitive": 3460,
      "pack": 3461,
      "Ġalert": 3462,
      "ĠToday": 3463,
      "Ġangel": 3464,
      "Ġcob": 3465,
      "Ġmelt": 3466,
      "Ġboys": 3467,
      "Ġspear": 3468,
      "Ġsniff": 3469,
      "Ġwalls": 3470,
      "Ġhappening": 3471,
      "Ġpersistent": 3472,
      "Ġdeterm": 3473,
      "Ġspend": 3474,
      "Ġcoins": 3475,
      "Ġbelt": 3476,
      "Ġcrane": 3477,
      "Ġbatter": 3478,
      "Ġharsh": 3479,
      "Ġpebble": 3480,
      "ped": 3481,
      "uth": 3482,
      "Ġspun": 3483,
      "Ġlights": 3484,
      "Ġcreate": 3485,
      "Ġtroubled": 3486,
      "Ġcamera": 3487,
      "web": 3488,
      "Ġpun": 3489,
      "Ġforward": 3490,
      "Ġenth": 3491,
      "Ġwishes": 3492,
      "Ġflashlight": 3493,
      "Ġharmless": 3494,
      "ĠMiss": 3495,
      "Ġcaterp": 3496,
      "Ġmailbox": 3497,
      "Ġencou": 3498,
      "Ġbeetle": 3499,
      "Ġcaterpill": 3500,
      "Ġcarp": 3501,
      "Ġsaying": 3502,
      "Ġjudge": 3503,
      "Ġcobweb": 3504,
      "Ġpine": 3505,
      "Ġmug": 3506,
      "Ġoy": 3507,
      "usia": 3508,
      "Ġlively": 3509,
      "Ġenthusia": 3510,
      "Ġhoop": 3511,
      "Ġjug": 3512,
      "Ġcost": 3513,
      "Ġcomplet": 3514,
      "Ġcarpet": 3515,
      "Ġinse": 3516,
      "ulif": 3517,
      "Ġscale": 3518,
      "Ġpoem": 3519,
      "Ġpatch": 3520,
      "Ġresc": 3521,
      "Ġunlock": 3522,
      "Ġdestroy": 3523,
      "Ġcaterpillar": 3524,
      "Ġrid": 3525,
      "Ġlouder": 3526,
      "Ġquit": 3527,
      "Ġcounting": 3528,
      "Ġsplit": 3529,
      "Ġpenguin": 3530,
      "Ġspill": 3531,
      "aser": 3532,
      "Ġtrap": 3533,
      "Ġfloat": 3534,
      "Ġfireman": 3535,
      "Ġcaulif": 3536,
      "ject": 3537,
      "Ġcush": 3538,
      "Ġolive": 3539,
      "ĠDan": 3540,
      "umbers": 3541,
      "Ġspeak": 3542,
      "Ġordinary": 3543,
      "Ġedge": 3544,
      "Ġcable": 3545,
      "Ġroot": 3546,
      "Ġbandage": 3547,
      "Ġradish": 3548,
      "Ġaeroplane": 3549,
      "Ġstation": 3550,
      "Ġexcite": 3551,
      "Ġorder": 3552,
      "Ġtrack": 3553,
      "Ġacce": 3554,
      "Ġgiving": 3555,
      "Ġinsect": 3556,
      "Ġcauliflower": 3557,
      "Billy": 3558,
      "Gra": 3559,
      "squ": 3560,
      "Ġpony": 3561,
      "ĠLulu": 3562,
      "seum": 3563,
      "ĠEmily": 3564,
      "Ġcelebrate": 3565,
      "Ġsend": 3566,
      "Ġthread": 3567,
      "Ġonce": 3568,
      "Ġeventually": 3569,
      "rage": 3570,
      "Ġmuseum": 3571,
      "Ġpole": 3572,
      "Ġnicely": 3573,
      "Ġmosqu": 3574,
      "Ġbarrel": 3575,
      "Ġgifted": 3576,
      "Ġmosquit": 3577,
      "Ġbump": 3578,
      "Ġpoured": 3579,
      "Ġfisher": 3580,
      "Ġrod": 3581,
      "Ġcooler": 3582,
      "Ġcrawl": 3583,
      "head": 3584,
      "Ġwife": 3585,
      "Ġnumbers": 3586,
      "Ġsailed": 3587,
      "Ġshield": 3588,
      "asing": 3589,
      "Ġcompl": 3590,
      "Ġdistant": 3591,
      "ĠTina": 3592,
      "Ġcoo": 3593,
      "ĠSunny": 3594,
      "Ġseal": 3595,
      "Ġstranger": 3596,
      "Ġlaughs": 3597,
      "Ġmixer": 3598,
      "Ġtemple": 3599,
      "work": 3600,
      "Ġstaff": 3601,
      "Ġlearning": 3602,
      "Ġpolish": 3603,
      "umbled": 3604,
      "Ġmosquito": 3605,
      "Ġbase": 3606,
      "uring": 3607,
      "ief": 3608,
      "Ġskipped": 3609,
      "Ġstronger": 3610,
      "dest": 3611,
      "bul": 3612,
      "Ġadded": 3613,
      "Ġpurse": 3614,
      "Ġweep": 3615,
      "ĠMum": 3616,
      "acket": 3617,
      "Ġtear": 3618,
      "Ġmissile": 3619,
      "ctory": 3620,
      "Ġscoot": 3621,
      "isted": 3622,
      "Ġbiggest": 3623,
      "Ġuncle": 3624,
      "Ġambul": 3625,
      "Ġhotel": 3626,
      "Ġslides": 3627,
      "Ġambulance": 3628,
      "Ġreward": 3629,
      "Ġfactory": 3630,
      "Ġgrown": 3631,
      "Ġbrothers": 3632,
      "Ġoyster": 3633,
      "Ġwool": 3634,
      "Ġhaircut": 3635,
      "Ġbarber": 3636,
      "Ġmatt": 3637,
      "Ġdecorate": 3638,
      "ĠTweet": 3639,
      "Ġdolphin": 3640,
      ",âĢĿ": 3641,
      "Ġaw": 3642,
      "Ġnurse": 3643,
      "orable": 3644,
      "Ġjacket": 3645,
      "Ġframe": 3646,
      "iew": 3647,
      "Ġsort": 3648,
      "Ġfirew": 3649,
      "Ġrubbed": 3650,
      "Ġattic": 3651,
      "Ġsweater": 3652,
      "Ġvideo": 3653,
      "Ġsink": 3654,
      "ĠSn": 3655,
      "stic": 3656,
      "Ġonion": 3657,
      "Ġspir": 3658,
      "Ġscrew": 3659,
      "Ġview": 3660,
      "Ġkindness": 3661,
      "aky": 3662,
      "Ġcleaning": 3663,
      "Ġdreams": 3664,
      "Ġguard": 3665,
      "Ġfisherman": 3666,
      "ik": 3667,
      "Ġhipp": 3668,
      "Ġthu": 3669,
      "Ġyet": 3670,
      "Ġoak": 3671,
      "Ġtray": 3672,
      "Ġcalling": 3673,
      "Ġadorable": 3674,
      "Ġbehave": 3675,
      "Ġsandbox": 3676,
      "Jimmy": 3677,
      "Ġpow": 3678,
      "arian": 3679,
      "Ġrise": 3680,
      "Ġcoal": 3681,
      "ĠFo": 3682,
      "ushed": 3683,
      "Ġmodest": 3684,
      "Ġmessage": 3685,
      "Ġfalls": 3686,
      "Ġfolder": 3687,
      "Ġsteps": 3688,
      "Ġdetermined": 3689,
      "Ġcomplain": 3690,
      "ines": 3691,
      "Ġtruth": 3692,
      "Ġtrains": 3693,
      "Ġshrimp": 3694,
      "Ġspirit": 3695,
      "Ġple": 3696,
      "Ġmitten": 3697,
      "Ġplayground": 3698,
      "Ġherb": 3699,
      "Ġblouse": 3700,
      "Ġbushes": 3701,
      "Ġcandle": 3702,
      "Ġhippo": 3703,
      "Ġmaze": 3704,
      "Ġshut": 3705,
      "Ġmakeup": 3706,
      "Ġflame": 3707,
      "Ġpost": 3708,
      "Ġholes": 3709,
      "Ġbounced": 3710,
      "Ġminer": 3711,
      "Ġsneeze": 3712,
      "Ġoats": 3713,
      "Ġenthusiastic": 3714,
      "Give": 3715,
      "Ġbill": 3716,
      "ready": 3717,
      "Ġcolour": 3718,
      "Ġtravel": 3719,
      "Ġglowing": 3720,
      "Ġeraser": 3721,
      "Ġfirework": 3722,
      "ital": 3723,
      "Ġcane": 3724,
      "Ġalready": 3725,
      "Ġhosp": 3726,
      "Ġshowing": 3727,
      "Ġstrugg": 3728,
      "ĠRex": 3729,
      "ĠRose": 3730,
      "Ġattract": 3731,
      "Ġhospital": 3732,
      "lies": 3733,
      "Ġhours": 3734,
      "Ġfork": 3735,
      "Ġrubb": 3736,
      "Ġprep": 3737,
      "Ġfu": 3738,
      "Ġcamp": 3739,
      "Ġsteak": 3740,
      "Ġgathered": 3741,
      "Ġattractive": 3742,
      "Jill": 3743,
      "Ġled": 3744,
      "ĠFr": 3745,
      "Ġmattress": 3746,
      "Ġpit": 3747,
      "Ġthemselves": 3748,
      "Ġgrowl": 3749,
      "ĠZoom": 3750,
      "Ġdisappeared": 3751,
      "ĠBuzzy": 3752,
      "Ġteleph": 3753,
      "Ġavocado": 3754,
      "ision": 3755,
      "Ġshort": 3756,
      "Ġscatter": 3757,
      "Ġmule": 3758,
      "Ġskin": 3759,
      "ĠPipp": 3760,
      "Ġraven": 3761,
      "Ġflea": 3762,
      "ney": 3763,
      "imney": 3764,
      "Ġitself": 3765,
      "htub": 3766,
      "illa": 3767,
      "Ġmanag": 3768,
      "Ġfest": 3769,
      "Ġimpro": 3770,
      "Ġdreamed": 3771,
      "Ġpointing": 3772,
      "Ġtelephone": 3773,
      "la": 3774,
      "Ġhunt": 3775,
      "Ġmild": 3776,
      "Ġrot": 3777,
      "Ġgolf": 3778,
      "Ġblackboard": 3779,
      "Ġbathtub": 3780,
      "Ġjournal": 3781,
      "Ġbubble": 3782,
      "Ġcomplete": 3783,
      "Ġbillboard": 3784,
      "ccol": 3785,
      "Ġsize": 3786,
      "Ġbull": 3787,
      "Ġspell": 3788,
      "Ġsung": 3789,
      "Ġenjoying": 3790,
      "Ġsuggest": 3791,
      "Ġvalu": 3792,
      "ccoli": 3793,
      "ĠToby": 3794,
      "Ġsaus": 3795,
      "Ġpeach": 3796,
      "Ġbookcase": 3797,
      "Ġglove": 3798,
      "Ġbikes": 3799,
      "Ġignorant": 3800,
      "Ġmelon": 3801,
      "Ġlibrary": 3802,
      "Ġcooked": 3803,
      "Al": 3804,
      "Ġthief": 3805,
      "Ġrolling": 3806,
      "ival": 3807,
      "Ġbicy": 3808,
      "Ġitch": 3809,
      "Ġwheels": 3810,
      "ĠBirdy": 3811,
      "par": 3812,
      "time": 3813,
      "Ġped": 3814,
      "Ġgear": 3815,
      "Ġnovel": 3816,
      "Ġbroccoli": 3817,
      "Ġearth": 3818,
      "Ġwiped": 3819,
      "Bye": 3820,
      "arry": 3821,
      "utes": 3822,
      "Ġnotice": 3823,
      "Ġchimney": 3824,
      "Ġenvel": 3825,
      "Ġpainter": 3826,
      "Ġcups": 3827,
      "Ġraft": 3828,
      "ĠPeople": 3829,
      "Ġfestival": 3830,
      "lasses": 3831,
      "old": 3832,
      "vet": 3833,
      "ĠBet": 3834,
      "Ġsoar": 3835,
      "Ġoil": 3836,
      "Ġtrash": 3837,
      "reek": 3838,
      "Ġbarking": 3839,
      "iki": 3840,
      "Ġsunglasses": 3841,
      "Ġtummy": 3842,
      "Ġcreek": 3843,
      "Ġknows": 3844,
      "Ġvi": 3845,
      "Ġboots": 3846,
      "Ġsafely": 3847,
      "Ġcushion": 3848,
      "ete": 3849,
      "?\".": 3850,
      "Ġchain": 3851,
      "Ġmedal": 3852,
      "Ġsurf": 3853,
      "aving": 3854,
      "Ġsight": 3855,
      "Ġur": 3856,
      "Ġeither": 3857,
      "tern": 3858,
      "Ġnewsp": 3859,
      "Fluffy": 3860,
      "come": 3861,
      "hic": 3862,
      "offe": 3863,
      "keep": 3864,
      "ĠLittle": 3865,
      "Ġskip": 3866,
      "ĠRob": 3867,
      "Ġrice": 3868,
      "Ġvehic": 3869,
      "Ġbuttons": 3870,
      "Ġpackage": 3871,
      "Ġscooter": 3872,
      "offee": 3873,
      "See": 3874,
      "Well": 3875,
      "Ġcell": 3876,
      "Ġnation": 3877,
      "Ġjunk": 3878,
      "Ġsepar": 3879,
      "Ġtroph": 3880,
      "Ġtripped": 3881,
      "Ġarg": 3882,
      "Ġresist": 3883,
      "Ġstrawberry": 3884,
      "Ġot": 3885,
      "ĠEverywhere": 3886,
      "affe": 3887,
      "Ġminutes": 3888,
      "Ġhurry": 3889,
      "Ġotter": 3890,
      "Ġson": 3891,
      "Ġpor": 3892,
      "ured": 3893,
      "Ġgiraffe": 3894,
      "ĠPeter": 3895,
      "Ġcooking": 3896,
      "Ġbathe": 3897,
      "Ġhanging": 3898,
      "Ġtask": 3899,
      "Ġcity": 3900,
      "Ġcoffee": 3901,
      "Ġstumbled": 3902,
      "Ġagainst": 3903,
      "ailable": 3904,
      "Ġopens": 3905,
      "Ġpacked": 3906,
      "Ġdrawings": 3907,
      "Ġdriving": 3908,
      "Ġmarry": 3909,
      "Joe": 3910,
      "Ġsupport": 3911,
      "Ġvaluable": 3912,
      "ĠLook": 3913,
      "Ġrepe": 3914,
      "Ġmem": 3915,
      "Ġpee": 3916,
      "Ġmeans": 3917,
      "Ġreading": 3918,
      "Ġearly": 3919,
      "Ġtrophy": 3920,
      "Mummy": 3921,
      "Ġaut": 3922,
      "ĠTeddy": 3923,
      "ention": 3924,
      "Ġstops": 3925,
      "Ġbathrobe": 3926,
      "Ġmanaged": 3927,
      "Ġbri": 3928,
      "Ġstairs": 3929,
      "ĠBessie": 3930,
      "Ġrever": 3931,
      "Ġvend": 3932,
      "Ġskull": 3933,
      "rosc": 3934,
      "Ġholds": 3935,
      "Ġimagine": 3936,
      "Ġbicycle": 3937,
      "Ġnewspaper": 3938,
      "roscope": 3939,
      "ckey": 3940,
      "Ġgor": 3941,
      "ĠSus": 3942,
      "Ġthose": 3943,
      "Ġnames": 3944,
      "Ġhockey": 3945,
      "play": 3946,
      "Ġpretending": 3947,
      "'d": 3948,
      "xy": 3949,
      "Ġpal": 3950,
      "Ġstared": 3951,
      "ucet": 3952,
      "ĠKim": 3953,
      "Ġbags": 3954,
      "Ġribb": 3955,
      "Ġlabel": 3956,
      "Is": 3957,
      "Ġow": 3958,
      "Ġfaucet": 3959,
      "Ġalarm": 3960,
      "Ġfastest": 3961,
      "Ġgrandpa": 3962,
      "anda": 3963,
      "Ġquiz": 3964,
      "Ġdrawer": 3965,
      "coa": 3966,
      "Ġsparkly": 3967,
      "olin": 3968,
      "Ġserve": 3969,
      "Ġpinch": 3970,
      "Ġavailable": 3971,
      "keeper": 3972,
      "Ġpalace": 3973,
      "na": 3974,
      "ilot": 3975,
      "ric": 3976,
      "Ġmeadow": 3977,
      "Ġgrowing": 3978,
      "Ġmint": 3979,
      "Ġsalt": 3980,
      "Ġlawn": 3981,
      "Ġthunder": 3982,
      "ination": 3983,
      "urb": 3984,
      "Ġok": 3985,
      "Ġknight": 3986,
      "Ġclub": 3987,
      "Ġpoked": 3988,
      "Ġgrand": 3989,
      "Ġmeeting": 3990,
      "Ġvendor": 3991,
      "cing": 3992,
      "Ġfog": 3993,
      "Ġknock": 3994,
      "Ġchess": 3995,
      "Ġtrail": 3996,
      "Ġeye": 3997,
      "Ġdisplay": 3998,
      "peedy": 3999,
      "Ġorganize": 4000,
      "Ġpractice": 4001,
      "Ġgorilla": 4002,
      "Ġten": 4003,
      "Ġcurt": 4004,
      "Ġmarched": 4005,
      "Ġexcitement": 4006,
      "Ġporch": 4007,
      "Re": 4008,
      "Ġax": 4009,
      "Ġmen": 4010,
      "obile": 4011,
      "Ġrules": 4012,
      "Ġpattern": 4013,
      "Ġceiling": 4014,
      "Ġdisturb": 4015,
      "Ġtools": 4016,
      "Ġviolin": 4017,
      "Ġahead": 4018,
      "Ġbin": 4019,
      "Ġgro": 4020,
      "Ġyach": 4021,
      "Ġmagaz": 4022,
      "Ġcurtain": 4023,
      "Ġext": 4024,
      "Ġshaking": 4025,
      "Ġwhenever": 4026,
      "Ġswamp": 4027,
      "Ġobject": 4028,
      "Ġdiary": 4029,
      "Ġbananas": 4030,
      "Ġaxe": 4031,
      "lu": 4032,
      "omobile": 4033,
      "Ġrail": 4034,
      "Ġshocked": 4035,
      "Ġrepair": 4036,
      "Ġautomobile": 4037,
      "nam": 4038,
      "Ġmay": 4039,
      "Ġmummy": 4040,
      "Ġneat": 4041,
      "ugged": 4042,
      "Ġcheck": 4043,
      "Ġgiggled": 4044,
      "omed": 4045,
      "Ġtightly": 4046,
      "Ġmicroscope": 4047,
      "Ġyacht": 4048,
      "Ġwine": 4049,
      "Ġleash": 4050,
      "Ġblin": 4051,
      "ĠPoppy": 4052,
      "ĠRu": 4053,
      "Ġperm": 4054,
      "uper": 4055,
      "Ġbaseball": 4056,
      "Ġenvelope": 4057,
      "ron": 4058,
      "Ġfile": 4059,
      "ionary": 4060,
      "Ġpicking": 4061,
      "Ġattach": 4062,
      "Ġletters": 4063,
      "Ġbasketball": 4064,
      "Ġinclu": 4065,
      "Ġfrogs": 4066,
      "Ġrealised": 4067,
      "ictionary": 4068,
      "Ow": 4069,
      "ait": 4070,
      "Ġoft": 4071,
      "Ġpilot": 4072,
      "stri": 4073,
      "Ġweigh": 4074,
      "elery": 4075,
      "Ġrece": 4076,
      "Ġcocoa": 4077,
      "iest": 4078,
      "Ġchance": 4079,
      "Ġpear": 4080,
      "Ġsne": 4081,
      "bol": 4082,
      "Ġsett": 4083,
      "Ġbelongs": 4084,
      "Ġstretched": 4085,
      "Ġmagazine": 4086,
      "Ġoften": 4087,
      "Ġfive": 4088,
      "Ġdictionary": 4089,
      "Ġcelery": 4090,
      "ense": 4091,
      "ourite": 4092,
      "Ġornam": 4093,
      "Ġfavourite": 4094,
      "ĠOw": 4095
    },
    "merges": [
      [
        "Ġ",
        "t"
      ],
      [
        "h",
        "e"
      ],
      [
        "Ġ",
        "a"
      ],
      [
        "Ġ",
        "s"
      ],
      [
        "n",
        "d"
      ],
      [
        "Ġ",
        "w"
      ],
      [
        "Ġt",
        "he"
      ],
      [
        "e",
        "d"
      ],
      [
        "Ġ",
        "b"
      ],
      [
        "Ġt",
        "o"
      ],
      [
        "Ġa",
        "nd"
      ],
      [
        "Ġ",
        "h"
      ],
      [
        "Ġ",
        "f"
      ],
      [
        "i",
        "n"
      ],
      [
        "Ġ",
        "T"
      ],
      [
        "Ġw",
        "a"
      ],
      [
        "r",
        "e"
      ],
      [
        "i",
        "t"
      ],
      [
        "o",
        "u"
      ],
      [
        "Ġ",
        "l"
      ],
      [
        "Ġ",
        "d"
      ],
      [
        "Ġ",
        "c"
      ],
      [
        "Ġ",
        "p"
      ],
      [
        "a",
        "y"
      ],
      [
        "Ġ",
        "m"
      ],
      [
        "e",
        "r"
      ],
      [
        "Ġwa",
        "s"
      ],
      [
        "o",
        "m"
      ],
      [
        "ĠT",
        "he"
      ],
      [
        "Ġ",
        "he"
      ],
      [
        "i",
        "s"
      ],
      [
        "a",
        "r"
      ],
      [
        "Ġ",
        "n"
      ],
      [
        "i",
        "m"
      ],
      [
        "o",
        "n"
      ],
      [
        "Ġs",
        "a"
      ],
      [
        "i",
        "d"
      ],
      [
        "l",
        "l"
      ],
      [
        "Ġh",
        "a"
      ],
      [
        "Ġ",
        "g"
      ],
      [
        "a",
        "t"
      ],
      [
        "in",
        "g"
      ],
      [
        "Ġ",
        "S"
      ],
      [
        "o",
        "t"
      ],
      [
        "e",
        "n"
      ],
      [
        "a",
        "n"
      ],
      [
        "l",
        "e"
      ],
      [
        "o",
        "r"
      ],
      [
        "e",
        "nd"
      ],
      [
        "i",
        "r"
      ],
      [
        "o",
        "f"
      ],
      [
        "a",
        "m"
      ],
      [
        "e",
        "t"
      ],
      [
        "Ġ",
        "H"
      ],
      [
        "Ġ",
        "it"
      ],
      [
        "Ġt",
        "h"
      ],
      [
        "i",
        "g"
      ],
      [
        "ĠThe",
        "y"
      ],
      [
        "Ġ",
        "in"
      ],
      [
        "Ġp",
        "l"
      ],
      [
        "i",
        "l"
      ],
      [
        "ĠH",
        "e"
      ],
      [
        "Ġ",
        "\""
      ],
      [
        "o",
        "w"
      ],
      [
        "v",
        "er"
      ],
      [
        "r",
        "i"
      ],
      [
        "u",
        "t"
      ],
      [
        "Ġb",
        "e"
      ],
      [
        "Ġ",
        "u"
      ],
      [
        "Ġpl",
        "ay"
      ],
      [
        "Ġsa",
        "id"
      ],
      [
        "it",
        "h"
      ],
      [
        "Ġd",
        "ay"
      ],
      [
        "p",
        "p"
      ],
      [
        "Ġw",
        "ith"
      ],
      [
        "O",
        "n"
      ],
      [
        "Ġ",
        "y"
      ],
      [
        "Ġ",
        "r"
      ],
      [
        "o",
        "o"
      ],
      [
        "k",
        "ed"
      ],
      [
        "e",
        "x"
      ],
      [
        "Ġ",
        "I"
      ],
      [
        "Ġhe",
        "r"
      ],
      [
        "c",
        "e"
      ],
      [
        "l",
        "d"
      ],
      [
        "ĠS",
        "he"
      ],
      [
        "ĠT",
        "im"
      ],
      [
        "Ġh",
        "is"
      ],
      [
        "Ġs",
        "t"
      ],
      [
        "k",
        "e"
      ],
      [
        "c",
        "k"
      ],
      [
        "n",
        "t"
      ],
      [
        "Ġb",
        "ig"
      ],
      [
        "Ġy",
        "ou"
      ],
      [
        "ver",
        "y"
      ],
      [
        "s",
        "t"
      ],
      [
        "v",
        "e"
      ],
      [
        "u",
        "n"
      ],
      [
        "Ġ",
        "on"
      ],
      [
        "Ġha",
        "pp"
      ],
      [
        "ri",
        "end"
      ],
      [
        "Ġf",
        "riend"
      ],
      [
        "a",
        "ll"
      ],
      [
        "il",
        "y"
      ],
      [
        "ex",
        "t"
      ],
      [
        "Ġthe",
        "y"
      ],
      [
        "Ġ",
        "L"
      ],
      [
        "of",
        "t"
      ],
      [
        "Ġw",
        "e"
      ],
      [
        "Ġha",
        "d"
      ],
      [
        "Ġu",
        "p"
      ],
      [
        "Ġn",
        "ot"
      ],
      [
        "he",
        "r"
      ],
      [
        "Ġwa",
        "nt"
      ],
      [
        "Ġl",
        "i"
      ],
      [
        "Ġ",
        "of"
      ],
      [
        "a",
        "d"
      ],
      [
        "<",
        "|"
      ],
      [
        "|",
        ">"
      ],
      [
        "end",
        "oft"
      ],
      [
        "endoft",
        "ext"
      ],
      [
        "s",
        "e"
      ],
      [
        "it",
        "t"
      ],
      [
        "Ġ",
        "B"
      ],
      [
        "Ġd",
        "o"
      ],
      [
        "Ġ",
        "e"
      ],
      [
        "Ġhapp",
        "y"
      ],
      [
        "Ġ",
        "M"
      ],
      [
        "e",
        "s"
      ],
      [
        "en",
        "t"
      ],
      [
        "Ġ",
        "very"
      ],
      [
        "Ġth",
        "at"
      ],
      [
        "'",
        "s"
      ],
      [
        "Ġsa",
        "w"
      ],
      [
        "On",
        "e"
      ],
      [
        "ou",
        "ld"
      ],
      [
        "Ġf",
        "or"
      ],
      [
        "Ġs",
        "h"
      ],
      [
        "Ġm",
        "om"
      ],
      [
        "itt",
        "le"
      ],
      [
        "Ġl",
        "ittle"
      ],
      [
        "Ġs",
        "he"
      ],
      [
        "im",
        "e"
      ],
      [
        "c",
        "h"
      ],
      [
        ".",
        "\""
      ],
      [
        "Ġn",
        "am"
      ],
      [
        "Ġt",
        "ime"
      ],
      [
        "Ġs",
        "o"
      ],
      [
        "ou",
        "nd"
      ],
      [
        "Ġ",
        "k"
      ],
      [
        "Ġthe",
        "re"
      ],
      [
        "Ġnam",
        "ed"
      ],
      [
        "Ġs",
        "m"
      ],
      [
        "Ġwe",
        "re"
      ],
      [
        "ĠL",
        "ily"
      ],
      [
        "Ġb",
        "o"
      ],
      [
        "Ġwant",
        "ed"
      ],
      [
        "Ġn",
        "e"
      ],
      [
        "Ġfriend",
        "s"
      ],
      [
        "Ġb",
        "ut"
      ],
      [
        "T",
        "he"
      ],
      [
        "ou",
        "t"
      ],
      [
        "!",
        "\""
      ],
      [
        "v",
        "ed"
      ],
      [
        "h",
        "t"
      ],
      [
        "ir",
        "d"
      ],
      [
        "ĠT",
        "om"
      ],
      [
        "e",
        "l"
      ],
      [
        "Ġb",
        "ird"
      ],
      [
        "a",
        "l"
      ],
      [
        "a",
        "ke"
      ],
      [
        "Ġa",
        "n"
      ],
      [
        "om",
        "e"
      ],
      [
        "ĠI",
        "t"
      ],
      [
        "Ġto",
        "o"
      ],
      [
        "u",
        "g"
      ],
      [
        "Ġw",
        "ent"
      ],
      [
        "id",
        "e"
      ],
      [
        "Ġw",
        "h"
      ],
      [
        "On",
        "ce"
      ],
      [
        "Ġhe",
        "l"
      ],
      [
        "u",
        "e"
      ],
      [
        "Ġ",
        "is"
      ],
      [
        "Ġa",
        "ll"
      ],
      [
        "Ġhel",
        "p"
      ],
      [
        "Ġl",
        "oo"
      ],
      [
        "Ġl",
        "o"
      ],
      [
        "r",
        "y"
      ],
      [
        "Ġ",
        "A"
      ],
      [
        "Ġup",
        "on"
      ],
      [
        "t",
        "er"
      ],
      [
        "o",
        "re"
      ],
      [
        "Ġf",
        "un"
      ],
      [
        "g",
        "et"
      ],
      [
        "i",
        "nd"
      ],
      [
        "i",
        "ll"
      ],
      [
        "am",
        "e"
      ],
      [
        "Ġto",
        "y"
      ],
      [
        "Ġa",
        "s"
      ],
      [
        "r",
        "a"
      ],
      [
        "Ġ",
        "j"
      ],
      [
        "Ġa",
        "t"
      ],
      [
        "Ġd",
        "id"
      ],
      [
        "get",
        "her"
      ],
      [
        "Ġ",
        "re"
      ],
      [
        "u",
        "r"
      ],
      [
        "Ġ",
        "o"
      ],
      [
        "Ġs",
        "e"
      ],
      [
        "Ġto",
        "gether"
      ],
      [
        "a",
        "ck"
      ],
      [
        "Ġt",
        "re"
      ],
      [
        "Ġc",
        "at"
      ],
      [
        "l",
        "y"
      ],
      [
        "i",
        "c"
      ],
      [
        "oo",
        "d"
      ],
      [
        "Ġdo",
        "g"
      ],
      [
        "t",
        "ed"
      ],
      [
        "Ġc",
        "ould"
      ],
      [
        "Ġc",
        "an"
      ],
      [
        "Ġthe",
        "ir"
      ],
      [
        "ar",
        "k"
      ],
      [
        "ar",
        "d"
      ],
      [
        "e",
        "c"
      ],
      [
        "Ġb",
        "all"
      ],
      [
        "Ġplay",
        "ed"
      ],
      [
        "Ġr",
        "o"
      ],
      [
        "Ġh",
        "im"
      ],
      [
        "Ġg",
        "ir"
      ],
      [
        "w",
        "ay"
      ],
      [
        "?",
        "\""
      ],
      [
        "Ġg",
        "o"
      ],
      [
        "Ġgir",
        "l"
      ],
      [
        "he",
        "d"
      ],
      [
        "a",
        "in"
      ],
      [
        "m",
        "y"
      ],
      [
        "'",
        "t"
      ],
      [
        "Ġa",
        "re"
      ],
      [
        "Ġl",
        "e"
      ],
      [
        "Ġ",
        "out"
      ],
      [
        "Ġk",
        "n"
      ],
      [
        "a",
        "x"
      ],
      [
        "Ġthe",
        "m"
      ],
      [
        "u",
        "m"
      ],
      [
        "he",
        "n"
      ],
      [
        "Ġf",
        "r"
      ],
      [
        "Ġsa",
        "d"
      ],
      [
        "Ġtre",
        "e"
      ],
      [
        "u",
        "l"
      ],
      [
        "Ġbo",
        "y"
      ],
      [
        "Ġc",
        "l"
      ],
      [
        "Ġha",
        "ve"
      ],
      [
        "ot",
        "her"
      ],
      [
        "Ġm",
        "an"
      ],
      [
        "ou",
        "g"
      ],
      [
        "Ġlo",
        "ved"
      ],
      [
        "Ġloo",
        "ked"
      ],
      [
        "Ġf",
        "ound"
      ],
      [
        "Ġst",
        "ar"
      ],
      [
        "Ġs",
        "p"
      ],
      [
        "ĠS",
        "ue"
      ],
      [
        "h",
        "ing"
      ],
      [
        "on",
        "e"
      ],
      [
        "ĠM",
        "ax"
      ],
      [
        "Ġb",
        "ack"
      ],
      [
        "ow",
        "n"
      ],
      [
        "Ġs",
        "c"
      ],
      [
        "Ġli",
        "ke"
      ],
      [
        "a",
        "re"
      ],
      [
        "Ġm",
        "e"
      ],
      [
        "f",
        "ul"
      ],
      [
        "Ġbe",
        "c"
      ],
      [
        "Ġp",
        "ark"
      ],
      [
        "s",
        "ide"
      ],
      [
        "ig",
        "ht"
      ],
      [
        "Ġc",
        "ar"
      ],
      [
        "on",
        "g"
      ],
      [
        "el",
        "t"
      ],
      [
        "Ġ",
        "One"
      ],
      [
        "o",
        "p"
      ],
      [
        "Ġli",
        "ked"
      ],
      [
        "Ġw",
        "ould"
      ],
      [
        "r",
        "ound"
      ],
      [
        "Ġl",
        "a"
      ],
      [
        "Ġf",
        "elt"
      ],
      [
        "Ġf",
        "a"
      ],
      [
        "Ġse",
        "e"
      ],
      [
        "Y",
        "ou"
      ],
      [
        "Ġm",
        "ake"
      ],
      [
        "Ġ",
        "W"
      ],
      [
        "ĠB",
        "ut"
      ],
      [
        "om",
        "et"
      ],
      [
        "e",
        "ll"
      ],
      [
        "ou",
        "se"
      ],
      [
        "Ġn",
        "o"
      ],
      [
        "ĠB",
        "en"
      ],
      [
        "Ġstar",
        "ted"
      ],
      [
        "Ġas",
        "ked"
      ],
      [
        "Ġne",
        "w"
      ],
      [
        "Ġa",
        "l"
      ],
      [
        "a",
        "g"
      ],
      [
        "i",
        "ce"
      ],
      [
        "Ġc",
        "ame"
      ],
      [
        "ar",
        "ed"
      ],
      [
        "ĠS",
        "am"
      ],
      [
        "oug",
        "ht"
      ],
      [
        "Ġ",
        "other"
      ],
      [
        "il",
        "ed"
      ],
      [
        "Ġa",
        "g"
      ],
      [
        "Ġs",
        "omet"
      ],
      [
        "Ġg",
        "ood"
      ],
      [
        "Ġb",
        "r"
      ],
      [
        "s",
        "s"
      ],
      [
        "Ġs",
        "ay"
      ],
      [
        "Ġsm",
        "all"
      ],
      [
        "ing",
        "s"
      ],
      [
        "Ġsm",
        "iled"
      ],
      [
        "Ġ",
        "Ċ"
      ],
      [
        "ri",
        "ed"
      ],
      [
        "ad",
        "e"
      ],
      [
        "o",
        "b"
      ],
      [
        "p",
        "ot"
      ],
      [
        "Ġa",
        "way"
      ],
      [
        "Ġ",
        "ex"
      ],
      [
        "Ġf",
        "ind"
      ],
      [
        "Ġw",
        "or"
      ],
      [
        "Ġsomet",
        "hing"
      ],
      [
        "Ġp",
        "ut"
      ],
      [
        "Ġh",
        "ome"
      ],
      [
        "Ġwh",
        "at"
      ],
      [
        "Ġth",
        "ought"
      ],
      [
        "t",
        "y"
      ],
      [
        "en",
        "ed"
      ],
      [
        "i",
        "a"
      ],
      [
        "Ġm",
        "ade"
      ],
      [
        "Ġwa",
        "l"
      ],
      [
        "Ġplay",
        "ing"
      ],
      [
        "Ġfr",
        "om"
      ],
      [
        "oo",
        "k"
      ],
      [
        "Ġm",
        "u"
      ],
      [
        "Ġe",
        "very"
      ],
      [
        "Ġc",
        "o"
      ],
      [
        "Ġ",
        "J"
      ],
      [
        "Ġr",
        "an"
      ],
      [
        "a",
        "ch"
      ],
      [
        "ar",
        "n"
      ],
      [
        "Ġ",
        "F"
      ],
      [
        "ĠS",
        "pot"
      ],
      [
        "i",
        "le"
      ],
      [
        "Ġag",
        "ain"
      ],
      [
        "Ġd",
        "own"
      ],
      [
        "a",
        "ve"
      ],
      [
        "u",
        "c"
      ],
      [
        "i",
        "e"
      ],
      [
        "n",
        "y"
      ],
      [
        "Ġs",
        "ome"
      ],
      [
        "d",
        "d"
      ],
      [
        "Ġh",
        "ouse"
      ],
      [
        "k",
        "ing"
      ],
      [
        "Ġla",
        "ug"
      ],
      [
        "u",
        "re"
      ],
      [
        "e",
        "p"
      ],
      [
        "Ġf",
        "l"
      ],
      [
        "i",
        "ck"
      ],
      [
        "Ġsc",
        "ared"
      ],
      [
        "a",
        "b"
      ],
      [
        "Ġtoo",
        "k"
      ],
      [
        "Ġ",
        "You"
      ],
      [
        "Ġp",
        "r"
      ],
      [
        "Ġbo",
        "x"
      ],
      [
        "Ġle",
        "arn"
      ],
      [
        "Ġw",
        "ill"
      ],
      [
        "Ġth",
        "ings"
      ],
      [
        "i",
        "f"
      ],
      [
        "u",
        "ck"
      ],
      [
        "Ġm",
        "y"
      ],
      [
        "re",
        "t"
      ],
      [
        "Ġa",
        "round"
      ],
      [
        "Ġtoy",
        "s"
      ],
      [
        "Ġb",
        "l"
      ],
      [
        "is",
        "h"
      ],
      [
        "Ġs",
        "un"
      ],
      [
        "Ġs",
        "w"
      ],
      [
        "ou",
        "d"
      ],
      [
        "Ġthe",
        "n"
      ],
      [
        ",",
        "\""
      ],
      [
        "Ġyou",
        "r"
      ],
      [
        "Ġf",
        "e"
      ],
      [
        "Ġli",
        "ved"
      ],
      [
        "Ġw",
        "hen"
      ],
      [
        "pp",
        "ed"
      ],
      [
        "a",
        "s"
      ],
      [
        "u",
        "s"
      ],
      [
        "Ġa",
        "b"
      ],
      [
        "Ġc",
        "h"
      ],
      [
        "an",
        "k"
      ],
      [
        "ot",
        "h"
      ],
      [
        "ĠM",
        "ia"
      ],
      [
        "Ġg",
        "et"
      ],
      [
        "Ġl",
        "ot"
      ],
      [
        "T",
        "im"
      ],
      [
        "um",
        "p"
      ],
      [
        "a",
        "p"
      ],
      [
        "Ġg",
        "ot"
      ],
      [
        "T",
        "h"
      ],
      [
        "Ġsay",
        "s"
      ],
      [
        "is",
        "t"
      ],
      [
        "Ġkn",
        "ow"
      ],
      [
        "it",
        "ed"
      ],
      [
        "Ġwh",
        "o"
      ],
      [
        "u",
        "st"
      ],
      [
        "Ġt",
        "ried"
      ],
      [
        "Ġkn",
        "e"
      ],
      [
        "uc",
        "y"
      ],
      [
        "nd",
        "er"
      ],
      [
        "Ġman",
        "y"
      ],
      [
        "L",
        "ily"
      ],
      [
        "Ġin",
        "t"
      ],
      [
        "Ġp",
        "ret"
      ],
      [
        "Ġab",
        "out"
      ],
      [
        "Ġr",
        "ed"
      ],
      [
        "Ġan",
        "y"
      ],
      [
        "Ġd",
        "ec"
      ],
      [
        "q",
        "u"
      ],
      [
        "is",
        "e"
      ],
      [
        "i",
        "ve"
      ],
      [
        "Ġ",
        "D"
      ],
      [
        "Ġp",
        "ic"
      ],
      [
        "Ġ",
        "v"
      ],
      [
        "Ġm",
        "ore"
      ],
      [
        "Ġp",
        "o"
      ],
      [
        "all",
        "y"
      ],
      [
        "Ġkne",
        "w"
      ],
      [
        "a",
        "ce"
      ],
      [
        "Ġh",
        "ug"
      ],
      [
        "Ġc",
        "are"
      ],
      [
        "ou",
        "s"
      ],
      [
        "Ġbe",
        "st"
      ],
      [
        "Ġlearn",
        "ed"
      ],
      [
        "f",
        "ter"
      ],
      [
        "ur",
        "p"
      ],
      [
        "Ġbec",
        "ame"
      ],
      [
        "a",
        "u"
      ],
      [
        "Ġex",
        "c"
      ],
      [
        "way",
        "s"
      ],
      [
        "Ġo",
        "p"
      ],
      [
        "Ġwa",
        "ter"
      ],
      [
        "Ġh",
        "o"
      ],
      [
        "Ġal",
        "ways"
      ],
      [
        "Ġg",
        "re"
      ],
      [
        "au",
        "se"
      ],
      [
        "Ġloo",
        "k"
      ],
      [
        "Ġsh",
        "ow"
      ],
      [
        "Ġlaug",
        "hed"
      ],
      [
        "an",
        "t"
      ],
      [
        "Ġu",
        "n"
      ],
      [
        "â",
        "Ģ"
      ],
      [
        "Ġout",
        "side"
      ],
      [
        "ĠB",
        "ob"
      ],
      [
        "ĠL",
        "ucy"
      ],
      [
        "Ġdec",
        "id"
      ],
      [
        "Ġb",
        "oth"
      ],
      [
        "ĠM",
        "om"
      ],
      [
        "n",
        "n"
      ],
      [
        "Ġdecid",
        "ed"
      ],
      [
        "Ġro",
        "om"
      ],
      [
        "Ġe",
        "at"
      ],
      [
        "ĠS",
        "o"
      ],
      [
        "Ġint",
        "o"
      ],
      [
        "Ġbec",
        "ause"
      ],
      [
        "Ġj",
        "ump"
      ],
      [
        "er",
        "s"
      ],
      [
        "u",
        "dd"
      ],
      [
        "ĠA",
        "nd"
      ],
      [
        "it",
        "e"
      ],
      [
        "The",
        "y"
      ],
      [
        "f",
        "e"
      ],
      [
        "Ġth",
        "is"
      ],
      [
        "Ġp",
        "e"
      ],
      [
        "Ġ",
        "ke"
      ],
      [
        "Ġd",
        "ad"
      ],
      [
        "Ġexc",
        "ited"
      ],
      [
        "Ġ",
        "E"
      ],
      [
        "Ġon",
        "e"
      ],
      [
        "Ġfa",
        "st"
      ],
      [
        "Y",
        "es"
      ],
      [
        "Ġn",
        "ice"
      ],
      [
        "Ġr",
        "un"
      ],
      [
        "Ġfe",
        "el"
      ],
      [
        "T",
        "om"
      ],
      [
        "Ġt",
        "r"
      ],
      [
        "urp",
        "r"
      ],
      [
        "Ġl",
        "ong"
      ],
      [
        "nn",
        "a"
      ],
      [
        "Ġs",
        "urpr"
      ],
      [
        "Ġa",
        "m"
      ],
      [
        "Ġto",
        "ld"
      ],
      [
        "Ġs",
        "l"
      ],
      [
        "ou",
        "r"
      ],
      [
        "in",
        "y"
      ],
      [
        "Ġs",
        "or"
      ],
      [
        "in",
        "k"
      ],
      [
        "u",
        "ll"
      ],
      [
        "Ġs",
        "k"
      ],
      [
        "Ġt",
        "ake"
      ],
      [
        "Ġg",
        "ra"
      ],
      [
        "Ġpret",
        "ty"
      ],
      [
        "Ġm",
        "o"
      ],
      [
        "Ġro",
        "ck"
      ],
      [
        "Ġin",
        "side"
      ],
      [
        "W",
        "h"
      ],
      [
        "Ġe",
        "ach"
      ],
      [
        "Ġg",
        "ave"
      ],
      [
        "le",
        "w"
      ],
      [
        "Ġh",
        "ow"
      ],
      [
        "Ġne",
        "ed"
      ],
      [
        "Ġmu",
        "ch"
      ],
      [
        "Ġth",
        "an"
      ],
      [
        "g",
        "ed"
      ],
      [
        "Ġst",
        "r"
      ],
      [
        "Ġto",
        "w"
      ],
      [
        "im",
        "al"
      ],
      [
        "Ġan",
        "imal"
      ],
      [
        "o",
        "g"
      ],
      [
        "B",
        "ut"
      ],
      [
        "Ġl",
        "et"
      ],
      [
        "v",
        "en"
      ],
      [
        "Ġsor",
        "ry"
      ],
      [
        "Ġ",
        "C"
      ],
      [
        "Ġu",
        "nder"
      ],
      [
        "Ġ",
        "or"
      ],
      [
        "g",
        "e"
      ],
      [
        "es",
        "s"
      ],
      [
        "r",
        "o"
      ],
      [
        "ar",
        "a"
      ],
      [
        "Ġbe",
        "ar"
      ],
      [
        "is",
        "ed"
      ],
      [
        "Ġo",
        "ld"
      ],
      [
        "ur",
        "t"
      ],
      [
        "Ġcl",
        "o"
      ],
      [
        "Ġwal",
        "ked"
      ],
      [
        "a",
        "nd"
      ],
      [
        "Ġha",
        "nd"
      ],
      [
        "Ġc",
        "le"
      ],
      [
        "ur",
        "n"
      ],
      [
        "Ġf",
        "ish"
      ],
      [
        "a",
        "se"
      ],
      [
        "Ġdid",
        "n"
      ],
      [
        "a",
        "st"
      ],
      [
        "Ġk",
        "ind"
      ],
      [
        "f",
        "f"
      ],
      [
        "Ġhapp",
        "ened"
      ],
      [
        "Ġj",
        "ust"
      ],
      [
        "he",
        "re"
      ],
      [
        "ĠH",
        "is"
      ],
      [
        "Ġh",
        "ig"
      ],
      [
        "Ġwa",
        "t"
      ],
      [
        "Ġfl",
        "ow"
      ],
      [
        "p",
        "l"
      ],
      [
        "in",
        "e"
      ],
      [
        "Ġ",
        "ide"
      ],
      [
        "r",
        "om"
      ],
      [
        "c",
        "hed"
      ],
      [
        "ĠW",
        "e"
      ],
      [
        "Ġl",
        "ist"
      ],
      [
        "Ġf",
        "i"
      ],
      [
        "Ġf",
        "ood"
      ],
      [
        "Ġanimal",
        "s"
      ],
      [
        "Ġit",
        "s"
      ],
      [
        "Ġb",
        "et"
      ],
      [
        "Ġt",
        "ry"
      ],
      [
        "Ġsk",
        "y"
      ],
      [
        "Ġide",
        "a"
      ],
      [
        "Ġt",
        "e"
      ],
      [
        "v",
        "ing"
      ],
      [
        "Ġu",
        "s"
      ],
      [
        "Ġne",
        "ar"
      ],
      [
        "g",
        "ry"
      ],
      [
        "Ġt",
        "w"
      ],
      [
        "Ġhe",
        "ard"
      ],
      [
        "Ġbet",
        "ter"
      ],
      [
        "p",
        "ec"
      ],
      [
        "Ġb",
        "ug"
      ],
      [
        "ĠT",
        "h"
      ],
      [
        "Ġ",
        "en"
      ],
      [
        "ab",
        "le"
      ],
      [
        "Ġs",
        "n"
      ],
      [
        "at",
        "e"
      ],
      [
        "Ġsh",
        "are"
      ],
      [
        "Ġst",
        "or"
      ],
      [
        "Ġ",
        "if"
      ],
      [
        "Ġc",
        "om"
      ],
      [
        "Th",
        "ank"
      ],
      [
        "Ġcare",
        "ful"
      ],
      [
        "Ġf",
        "ly"
      ],
      [
        "Ġd",
        "an"
      ],
      [
        "i",
        "al"
      ],
      [
        "i",
        "on"
      ],
      [
        "ĠA",
        "my"
      ],
      [
        "M",
        "om"
      ],
      [
        "Ġlot",
        "s"
      ],
      [
        "l",
        "f"
      ],
      [
        "Ġsp",
        "ec"
      ],
      [
        "Ġspec",
        "ial"
      ],
      [
        "Ġne",
        "ver"
      ],
      [
        "Ġd",
        "on"
      ],
      [
        "Ġf",
        "lew"
      ],
      [
        "Ġsh",
        "iny"
      ],
      [
        "m",
        "ore"
      ],
      [
        "Ġany",
        "more"
      ],
      [
        "Ġb",
        "y"
      ],
      [
        "re",
        "am"
      ],
      [
        "Ġf",
        "o"
      ],
      [
        "Ġg",
        "r"
      ],
      [
        "Ġe",
        "ven"
      ],
      [
        "Ġf",
        "ore"
      ],
      [
        "ĠA",
        "nna"
      ],
      [
        "Ġ",
        "end"
      ],
      [
        "Ġlo",
        "ve"
      ],
      [
        "or",
        "t"
      ],
      [
        "a",
        "k"
      ],
      [
        "Ġw",
        "ind"
      ],
      [
        "Ġt",
        "al"
      ],
      [
        "Ġc",
        "ake"
      ],
      [
        "r",
        "m"
      ],
      [
        "Ġb",
        "u"
      ],
      [
        "b",
        "b"
      ],
      [
        "udd",
        "en"
      ],
      [
        "ĠThe",
        "n"
      ],
      [
        "Ġm",
        "ag"
      ],
      [
        "Ġb",
        "ook"
      ],
      [
        "im",
        "b"
      ],
      [
        "Ġt",
        "urn"
      ],
      [
        "Ġcle",
        "an"
      ],
      [
        "Ġb",
        "ad"
      ],
      [
        "Ġco",
        "l"
      ],
      [
        "op",
        "le"
      ],
      [
        "ĠE",
        "very"
      ],
      [
        "Ġcl",
        "imb"
      ],
      [
        "Ġo",
        "ver"
      ],
      [
        "Ġh",
        "ard"
      ],
      [
        "Ġhig",
        "h"
      ],
      [
        "L",
        "et"
      ],
      [
        "udden",
        "ly"
      ],
      [
        "pec",
        "ted"
      ],
      [
        "Ġc",
        "ome"
      ],
      [
        "Ġa",
        "fter"
      ],
      [
        "Ġsurpr",
        "ised"
      ],
      [
        "Ġpic",
        "ked"
      ],
      [
        "Ġwa",
        "y"
      ],
      [
        "Ġh",
        "urt"
      ],
      [
        "'",
        "m"
      ],
      [
        "b",
        "er"
      ],
      [
        "Ġc",
        "he"
      ],
      [
        "ex",
        "pected"
      ],
      [
        "Ġun",
        "expected"
      ],
      [
        "Ġf",
        "am"
      ],
      [
        "Ġpr",
        "oud"
      ],
      [
        "Ġc",
        "u"
      ],
      [
        "Ġg",
        "round"
      ],
      [
        "Ġg",
        "l"
      ],
      [
        "Ġop",
        "ened"
      ],
      [
        "Ġdo",
        "or"
      ],
      [
        "Ġ",
        "im"
      ],
      [
        "ad",
        "y"
      ],
      [
        "Ġpe",
        "ople"
      ],
      [
        "A",
        "s"
      ],
      [
        "Ġg",
        "ive"
      ],
      [
        "Ġthan",
        "ked"
      ],
      [
        "ard",
        "en"
      ],
      [
        "Ġg",
        "arden"
      ],
      [
        "ĠF",
        "rom"
      ],
      [
        "Ġsa",
        "fe"
      ],
      [
        "Ġst",
        "ill"
      ],
      [
        "Ġcol",
        "or"
      ],
      [
        "Ġl",
        "oud"
      ],
      [
        "Ġhug",
        "ged"
      ],
      [
        "Ġf",
        "ar"
      ],
      [
        "Ġe",
        "ver"
      ],
      [
        "N",
        "o"
      ],
      [
        "ĠW",
        "hen"
      ],
      [
        "Ġc",
        "all"
      ],
      [
        "Ġbl",
        "ue"
      ],
      [
        "a",
        "il"
      ],
      [
        "il",
        "d"
      ],
      [
        "oo",
        "l"
      ],
      [
        "le",
        "s"
      ],
      [
        "Ġwal",
        "k"
      ],
      [
        "um",
        "my"
      ],
      [
        "Ġ",
        "qu"
      ],
      [
        "Ġof",
        "f"
      ],
      [
        "Ġmag",
        "ic"
      ],
      [
        "oug",
        "h"
      ],
      [
        "u",
        "ff"
      ],
      [
        "i",
        "p"
      ],
      [
        "Ġjump",
        "ed"
      ],
      [
        "ĠH",
        "er"
      ],
      [
        "i",
        "z"
      ],
      [
        "k",
        "ay"
      ],
      [
        "Ġ",
        "K"
      ],
      [
        "Ġsh",
        "ould"
      ],
      [
        "Ġk",
        "id"
      ],
      [
        "Ġsm",
        "ile"
      ],
      [
        "Ġfam",
        "ily"
      ],
      [
        "ĠS",
        "ara"
      ],
      [
        "ag",
        "e"
      ],
      [
        "Ġst",
        "ay"
      ],
      [
        "Ġfore",
        "st"
      ],
      [
        "ĠI",
        "n"
      ],
      [
        "t",
        "ure"
      ],
      [
        "he",
        "s"
      ],
      [
        "Ġp",
        "ar"
      ],
      [
        "c",
        "t"
      ],
      [
        "a",
        "ut"
      ],
      [
        "Ġs",
        "qu"
      ],
      [
        "Ġst",
        "o"
      ],
      [
        "e",
        "m"
      ],
      [
        "Ġn",
        "ow"
      ],
      [
        "Ġgre",
        "at"
      ],
      [
        "Ġpl",
        "ace"
      ],
      [
        "n",
        "ing"
      ],
      [
        "Ġst",
        "ick"
      ],
      [
        "Ġ",
        "P"
      ],
      [
        "Ġbe",
        "aut"
      ],
      [
        "Ġu",
        "nt"
      ],
      [
        "Ġb",
        "ra"
      ],
      [
        "an",
        "e"
      ],
      [
        "o",
        "on"
      ],
      [
        "Ġstr",
        "ong"
      ],
      [
        "un",
        "ny"
      ],
      [
        "d",
        "y"
      ],
      [
        "re",
        "l"
      ],
      [
        "b",
        "e"
      ],
      [
        "Ġn",
        "ext"
      ],
      [
        "Ġunt",
        "il"
      ],
      [
        "le",
        "ase"
      ],
      [
        "Ġpic",
        "ture"
      ],
      [
        "Ġt",
        "ra"
      ],
      [
        "i",
        "ful"
      ],
      [
        "Ġbeaut",
        "iful"
      ],
      [
        "Ġr",
        "ain"
      ],
      [
        "a",
        "king"
      ],
      [
        "itt",
        "y"
      ],
      [
        "Ġstor",
        "y"
      ],
      [
        "Ġhapp",
        "ily"
      ],
      [
        "Ġkid",
        "s"
      ],
      [
        "o",
        "y"
      ],
      [
        "Ġbr",
        "o"
      ],
      [
        "Ġclo",
        "s"
      ],
      [
        "Ġim",
        "p"
      ],
      [
        "Ġlist",
        "en"
      ],
      [
        "Ġtow",
        "n"
      ],
      [
        "Ġshow",
        "ed"
      ],
      [
        "Ġa",
        "pp"
      ],
      [
        "Ġhelp",
        "ed"
      ],
      [
        "p",
        "t"
      ],
      [
        "Ġwh",
        "ile"
      ],
      [
        "Ġfr",
        "og"
      ],
      [
        "re",
        "ss"
      ],
      [
        "Ġtr",
        "uck"
      ],
      [
        "Ġevery",
        "one"
      ],
      [
        "I",
        "t"
      ],
      [
        "t",
        "h"
      ],
      [
        "i",
        "es"
      ],
      [
        "Ġm",
        "et"
      ],
      [
        "N",
        "ow"
      ],
      [
        "Ġm",
        "or"
      ],
      [
        "Ġg",
        "ame"
      ],
      [
        "Ġm",
        "ouse"
      ],
      [
        "Ġbe",
        "ing"
      ],
      [
        "uff",
        "y"
      ],
      [
        "re",
        "e"
      ],
      [
        "Ġw",
        "o"
      ],
      [
        "Ġcall",
        "ed"
      ],
      [
        "Ġsto",
        "pped"
      ],
      [
        "b",
        "y"
      ],
      [
        "Ġs",
        "oft"
      ],
      [
        "Ġre",
        "m"
      ],
      [
        "Ġc",
        "ry"
      ],
      [
        "Ġha",
        "t"
      ],
      [
        "Ġa",
        "d"
      ],
      [
        "W",
        "hen"
      ],
      [
        "ĠS",
        "ally"
      ],
      [
        "Ġop",
        "en"
      ],
      [
        "Ġd",
        "ra"
      ],
      [
        "C",
        "an"
      ],
      [
        "H",
        "e"
      ],
      [
        "ĠL",
        "et"
      ],
      [
        "Ġwat",
        "ch"
      ],
      [
        "Ġdo",
        "ll"
      ],
      [
        "Ġb",
        "ed"
      ],
      [
        "Ġan",
        "gry"
      ],
      [
        "Ġke",
        "ep"
      ],
      [
        "Ġy",
        "ummy"
      ],
      [
        "Ġsl",
        "ide"
      ],
      [
        "b",
        "it"
      ],
      [
        "Ġbo",
        "at"
      ],
      [
        "is",
        "hed"
      ],
      [
        "ab",
        "bit"
      ],
      [
        "Ġcould",
        "n"
      ],
      [
        "s",
        "o"
      ],
      [
        "ĠW",
        "h"
      ],
      [
        "v",
        "ent"
      ],
      [
        "g",
        "er"
      ],
      [
        "Ġbra",
        "ve"
      ],
      [
        "Ġal",
        "so"
      ],
      [
        "Ġlo",
        "st"
      ],
      [
        "f",
        "ore"
      ],
      [
        "Ġle",
        "ave"
      ],
      [
        "is",
        "s"
      ],
      [
        "Ġr",
        "abbit"
      ],
      [
        "g",
        "an"
      ],
      [
        "dd",
        "ed"
      ],
      [
        "ar",
        "y"
      ],
      [
        "Ġflow",
        "ers"
      ],
      [
        "Ġd",
        "e"
      ],
      [
        "Ġgre",
        "en"
      ],
      [
        "Ġf",
        "ell"
      ],
      [
        "Ġat",
        "e"
      ],
      [
        "Ġ",
        "R"
      ],
      [
        "ir",
        "rel"
      ],
      [
        "Ġwa",
        "rm"
      ],
      [
        "ir",
        "st"
      ],
      [
        "Ġw",
        "here"
      ],
      [
        "Ġso",
        "on"
      ],
      [
        "l",
        "uffy"
      ],
      [
        "Ġp",
        "ain"
      ],
      [
        "Ġsqu",
        "irrel"
      ],
      [
        "se",
        "lf"
      ],
      [
        "a",
        "z"
      ],
      [
        "Ġno",
        "ise"
      ],
      [
        "b",
        "le"
      ],
      [
        "o",
        "ck"
      ],
      [
        "Wh",
        "at"
      ],
      [
        "ĠK",
        "itty"
      ],
      [
        "Ġp",
        "us"
      ],
      [
        "Ġfa",
        "ce"
      ],
      [
        "m",
        "a"
      ],
      [
        "Ġtw",
        "o"
      ],
      [
        "Ġho",
        "le"
      ],
      [
        "le",
        "ep"
      ],
      [
        "ir",
        "ed"
      ],
      [
        "Ġbe",
        "fore"
      ],
      [
        "ow",
        "l"
      ],
      [
        "Ġhand",
        "s"
      ],
      [
        "Ġhe",
        "ar"
      ],
      [
        "B",
        "en"
      ],
      [
        "H",
        "i"
      ],
      [
        "ill",
        "y"
      ],
      [
        "L",
        "ook"
      ],
      [
        "Ġke",
        "pt"
      ],
      [
        "Ġex",
        "pl"
      ],
      [
        "e",
        "ar"
      ],
      [
        "The",
        "n"
      ],
      [
        "Ġno",
        "dded"
      ],
      [
        "Ġsa",
        "t"
      ],
      [
        "Ġf",
        "in"
      ],
      [
        "Th",
        "at"
      ],
      [
        "Ġp",
        "a"
      ],
      [
        "ay",
        "be"
      ],
      [
        "Ġe",
        "y"
      ],
      [
        "ĠF",
        "luffy"
      ],
      [
        "d",
        "ay"
      ],
      [
        "Ġb",
        "re"
      ],
      [
        "âĢ",
        "ľ"
      ],
      [
        "Ġbird",
        "s"
      ],
      [
        "Ġu",
        "se"
      ],
      [
        "âĢ",
        "Ŀ"
      ],
      [
        "Ġcat",
        "ch"
      ],
      [
        "t",
        "hing"
      ],
      [
        "Ġth",
        "ink"
      ],
      [
        "Ġfun",
        "ny"
      ],
      [
        "Ġsun",
        "ny"
      ],
      [
        "Ġ",
        "Now"
      ],
      [
        "Ġt",
        "ired"
      ],
      [
        "Ġgo",
        "ing"
      ],
      [
        "Ġha",
        "ving"
      ],
      [
        "Ġha",
        "s"
      ],
      [
        "Ġc",
        "ook"
      ],
      [
        "Ġst",
        "ore"
      ],
      [
        "Ġb",
        "unny"
      ],
      [
        "an",
        "ge"
      ],
      [
        "Ġpo",
        "nd"
      ],
      [
        "Ġloo",
        "king"
      ],
      [
        "Ġw",
        "r"
      ],
      [
        "Ġfi",
        "x"
      ],
      [
        "t",
        "ing"
      ],
      [
        "Ġth",
        "r"
      ],
      [
        "Ġus",
        "ed"
      ],
      [
        "Ġother",
        "s"
      ],
      [
        "Ġ",
        "our"
      ],
      [
        "Ġmom",
        "my"
      ],
      [
        "u",
        "ch"
      ],
      [
        "Ġc",
        "ra"
      ],
      [
        "Ġs",
        "ing"
      ],
      [
        "Ġme",
        "an"
      ],
      [
        "Ġhe",
        "ad"
      ],
      [
        "Ġbe",
        "h"
      ],
      [
        "Ġwor",
        "k"
      ],
      [
        "ĠC",
        "an"
      ],
      [
        "u",
        "it"
      ],
      [
        "Ġwa",
        "it"
      ],
      [
        "Ġy",
        "ell"
      ],
      [
        "Ġs",
        "ound"
      ],
      [
        "em",
        "ber"
      ],
      [
        "Ġas",
        "k"
      ],
      [
        "Ġp",
        "ull"
      ],
      [
        "j",
        "oy"
      ],
      [
        "W",
        "e"
      ],
      [
        "re",
        "w"
      ],
      [
        "Ġj",
        "o"
      ],
      [
        "Ġey",
        "es"
      ],
      [
        "Ġb",
        "us"
      ],
      [
        "ĠJ",
        "ack"
      ],
      [
        "Ġfa",
        "v"
      ],
      [
        "Ġf",
        "irst"
      ],
      [
        "Ġt",
        "ri"
      ],
      [
        "Ġ",
        "G"
      ],
      [
        "a",
        "ir"
      ],
      [
        "Ġfl",
        "o"
      ],
      [
        "a",
        "ug"
      ],
      [
        "Ġd",
        "r"
      ],
      [
        "aug",
        "ht"
      ],
      [
        "Ġs",
        "leep"
      ],
      [
        "Ġr",
        "ight"
      ],
      [
        "Ġtal",
        "k"
      ],
      [
        "Ġh",
        "ill"
      ],
      [
        "Ġv",
        "o"
      ],
      [
        "l",
        "ed"
      ],
      [
        "n",
        "g"
      ],
      [
        "H",
        "ell"
      ],
      [
        "Hell",
        "o"
      ],
      [
        "ĠJ",
        "o"
      ],
      [
        "Ġimp",
        "ort"
      ],
      [
        "Ġp",
        "ie"
      ],
      [
        "Ġbr",
        "ight"
      ],
      [
        "i",
        "ous"
      ],
      [
        "Ġen",
        "joy"
      ],
      [
        "Ġrem",
        "ember"
      ],
      [
        "it",
        "c"
      ],
      [
        "ĠD",
        "o"
      ],
      [
        "Ġm",
        "ess"
      ],
      [
        "Ġd",
        "if"
      ],
      [
        "Ġr",
        "ace"
      ],
      [
        "Ġre",
        "al"
      ],
      [
        "z",
        "y"
      ],
      [
        "Ġk",
        "itc"
      ],
      [
        "Ġkitc",
        "hen"
      ],
      [
        "a",
        "c"
      ],
      [
        "Ġmor",
        "al"
      ],
      [
        "Ġsa",
        "nd"
      ],
      [
        "Ġcu",
        "ri"
      ],
      [
        "Ġd",
        "uck"
      ],
      [
        "Ġb",
        "ag"
      ],
      [
        "Ġflow",
        "er"
      ],
      [
        "ll",
        "ow"
      ],
      [
        "Ġc",
        "on"
      ],
      [
        "Ġo",
        "kay"
      ],
      [
        "Ġh",
        "op"
      ],
      [
        "Ġimport",
        "ant"
      ],
      [
        "Ġad",
        "vent"
      ],
      [
        "e",
        "et"
      ],
      [
        "f",
        "t"
      ],
      [
        "Ġsh",
        "ared"
      ],
      [
        "or",
        "n"
      ],
      [
        "Ġpar",
        "ty"
      ],
      [
        "at",
        "h"
      ],
      [
        "Ġd",
        "ir"
      ],
      [
        "ĠF",
        "in"
      ],
      [
        "im",
        "es"
      ],
      [
        "re",
        "ed"
      ],
      [
        "Ġbe",
        "gan"
      ],
      [
        "Ġco",
        "ld"
      ],
      [
        "Ġcuri",
        "ous"
      ],
      [
        "Ġfav",
        "or"
      ],
      [
        "Ġgra",
        "ss"
      ],
      [
        "Ġ",
        "z"
      ],
      [
        "Ġfavor",
        "ite"
      ],
      [
        "Ġh",
        "id"
      ],
      [
        "ou",
        "nt"
      ],
      [
        "Ġm",
        "on"
      ],
      [
        "Ġhe",
        "re"
      ],
      [
        "Ġcl",
        "a"
      ],
      [
        "A",
        "t"
      ],
      [
        "Ġm",
        "aking"
      ],
      [
        "q",
        "ue"
      ],
      [
        "Ġ",
        "âĢľ"
      ],
      [
        "ec",
        "t"
      ],
      [
        "ll",
        "y"
      ],
      [
        "Ġwor",
        "ked"
      ],
      [
        "Ġth",
        "ing"
      ],
      [
        "Ġy",
        "ard"
      ],
      [
        "h",
        "n"
      ],
      [
        "Ġd",
        "ress"
      ],
      [
        "D",
        "on"
      ],
      [
        "Ġt",
        "all"
      ],
      [
        "Ġd",
        "is"
      ],
      [
        "Ġre",
        "st"
      ],
      [
        "ap",
        "er"
      ],
      [
        "Ġsurpr",
        "ise"
      ],
      [
        "W",
        "ow"
      ],
      [
        "st",
        "er"
      ],
      [
        "Ġfo",
        "llow"
      ],
      [
        "Ġ",
        "own"
      ],
      [
        "Ġto",
        "p"
      ],
      [
        "Ġag",
        "reed"
      ],
      [
        "Ġwal",
        "king"
      ],
      [
        "Ġsh",
        "o"
      ],
      [
        "ĠTh",
        "is"
      ],
      [
        "Ġbl",
        "ock"
      ],
      [
        "Ġn",
        "ight"
      ],
      [
        "Ġtre",
        "es"
      ],
      [
        "Ġbeh",
        "ind"
      ],
      [
        "Ġbe",
        "l"
      ],
      [
        "Ġwat",
        "ched"
      ],
      [
        "Ġp",
        "ick"
      ],
      [
        "Ġcar",
        "s"
      ],
      [
        "Ġc",
        "ut"
      ],
      [
        "Ġvo",
        "ice"
      ],
      [
        "Ġ",
        "ri"
      ],
      [
        "Ġh",
        "ot"
      ],
      [
        "Ġ",
        "ice"
      ],
      [
        "Ġh",
        "un"
      ],
      [
        "Ġst",
        "op"
      ],
      [
        "i",
        "ed"
      ],
      [
        "Ġs",
        "ong"
      ],
      [
        "Ġr",
        "u"
      ],
      [
        "Ġwor",
        "ry"
      ],
      [
        "Ġmo",
        "ve"
      ],
      [
        "Ġd",
        "ark"
      ],
      [
        "Ġleave",
        "s"
      ],
      [
        "Ġfor",
        "g"
      ],
      [
        "Ġfar",
        "m"
      ],
      [
        "Ġt",
        "able"
      ],
      [
        "is",
        "y"
      ],
      [
        "A",
        "nna"
      ],
      [
        "Ġt",
        "ell"
      ],
      [
        "ĠD",
        "ad"
      ],
      [
        "A",
        "fter"
      ],
      [
        "Ġneed",
        "ed"
      ],
      [
        "Ġturn",
        "ed"
      ],
      [
        "M",
        "ax"
      ],
      [
        "Ġdra",
        "w"
      ],
      [
        "Ġflo",
        "or"
      ],
      [
        "Ġsh",
        "out"
      ],
      [
        "i",
        "ke"
      ],
      [
        "Ġcolor",
        "s"
      ],
      [
        "Ġdo",
        "es"
      ],
      [
        "ar",
        "ing"
      ],
      [
        "Ġre",
        "ad"
      ],
      [
        "ig",
        "n"
      ],
      [
        "Ġt",
        "ail"
      ],
      [
        "Wh",
        "y"
      ],
      [
        "Ġfi",
        "re"
      ],
      [
        "Ġp",
        "lease"
      ],
      [
        "âĢ",
        "Ļ"
      ],
      [
        "fe",
        "re"
      ],
      [
        "Ġdif",
        "fere"
      ],
      [
        "Ġc",
        "ried"
      ],
      [
        "Ġli",
        "on"
      ],
      [
        "ĠM",
        "r"
      ],
      [
        "ĠS",
        "uddenly"
      ],
      [
        "Ġadvent",
        "ure"
      ],
      [
        "Ġfeel",
        "ing"
      ],
      [
        "Ġclos",
        "er"
      ],
      [
        "Ġp",
        "aper"
      ],
      [
        "Ġsw",
        "eet"
      ],
      [
        "c",
        "o"
      ],
      [
        "Ġsw",
        "ing"
      ],
      [
        "Ġd",
        "el"
      ],
      [
        "er",
        "ed"
      ],
      [
        "Ġhun",
        "gry"
      ],
      [
        "Ġw",
        "et"
      ],
      [
        "Ġdan",
        "ce"
      ],
      [
        "S",
        "ue"
      ],
      [
        "Ġpl",
        "an"
      ],
      [
        "Ġfriend",
        "ly"
      ],
      [
        "Ġlaug",
        "h"
      ],
      [
        "b",
        "o"
      ],
      [
        "ĠBob",
        "o"
      ],
      [
        "ĠA",
        "s"
      ],
      [
        "Ġro",
        "ll"
      ],
      [
        "a",
        "ched"
      ],
      [
        "Ġf",
        "ull"
      ],
      [
        "Ġclimb",
        "ed"
      ],
      [
        "Ġpie",
        "ce"
      ],
      [
        "ĠTh",
        "at"
      ],
      [
        "Ġdiffere",
        "nt"
      ],
      [
        "Ġt",
        "ast"
      ],
      [
        "by",
        "e"
      ],
      [
        "S",
        "am"
      ],
      [
        "k",
        "en"
      ],
      [
        "Ġsw",
        "im"
      ],
      [
        "Ġdan",
        "c"
      ],
      [
        "Ġa",
        "nt"
      ],
      [
        "Ġl",
        "ady"
      ],
      [
        "Ġyell",
        "ow"
      ],
      [
        "Ġp",
        "er"
      ],
      [
        "at",
        "er"
      ],
      [
        "Ġtra",
        "in"
      ],
      [
        "Ġw",
        "ood"
      ],
      [
        "Ġho",
        "ld"
      ],
      [
        "Ġc",
        "r"
      ],
      [
        "o",
        "om"
      ],
      [
        "Ġre",
        "ady"
      ],
      [
        "Ġbro",
        "ken"
      ],
      [
        "w",
        "here"
      ],
      [
        "i",
        "ent"
      ],
      [
        "Ġpr",
        "in"
      ],
      [
        "Ġrun",
        "ning"
      ],
      [
        "S",
        "he"
      ],
      [
        "Ġwo",
        "nder"
      ],
      [
        "Ġto",
        "uch"
      ],
      [
        "ĠTim",
        "my"
      ],
      [
        "Ġfr",
        "uit"
      ],
      [
        "c",
        "ked"
      ],
      [
        "Ġpret",
        "end"
      ],
      [
        "Ġpr",
        "om"
      ],
      [
        "ĠJ",
        "ane"
      ],
      [
        "nd",
        "ma"
      ],
      [
        "Ġl",
        "ight"
      ],
      [
        "Ġgl",
        "ad"
      ],
      [
        "Ġlist",
        "ened"
      ],
      [
        "Ġclo",
        "se"
      ],
      [
        "s",
        "h"
      ],
      [
        "Ġg",
        "one"
      ],
      [
        "Ġon",
        "ly"
      ],
      [
        "pp",
        "y"
      ],
      [
        "Ġc",
        "ool"
      ],
      [
        "bb",
        "ed"
      ],
      [
        "Ġre",
        "ached"
      ],
      [
        "Ġse",
        "es"
      ],
      [
        "ab",
        "y"
      ],
      [
        "Ġan",
        "other"
      ],
      [
        "Ġblock",
        "s"
      ],
      [
        "S",
        "o"
      ],
      [
        "Ġhelp",
        "ing"
      ],
      [
        "one",
        "y"
      ],
      [
        "Ġbut",
        "ter"
      ],
      [
        "S",
        "uddenly"
      ],
      [
        "Ġ",
        "O"
      ],
      [
        "Ġha",
        "ir"
      ],
      [
        "Ġgood",
        "bye"
      ],
      [
        "Ġst",
        "uck"
      ],
      [
        "Ġre",
        "pl"
      ],
      [
        "Ġam",
        "az"
      ],
      [
        "Ġbe",
        "en"
      ],
      [
        "at",
        "her"
      ],
      [
        "Ġsm",
        "ell"
      ],
      [
        "Ġd",
        "ri"
      ],
      [
        "a",
        "f"
      ],
      [
        "ic",
        "ed"
      ],
      [
        "ĠA",
        "ll"
      ],
      [
        "Ġwa",
        "ll"
      ],
      [
        "Ġp",
        "u"
      ],
      [
        "ĠEvery",
        "one"
      ],
      [
        "a",
        "v"
      ],
      [
        "Ġl",
        "ess"
      ],
      [
        "Ġsl",
        "ow"
      ],
      [
        "il",
        "a"
      ],
      [
        "Ġqu",
        "ick"
      ],
      [
        "Ġpus",
        "hed"
      ],
      [
        "Ġa",
        "r"
      ],
      [
        "Ġa",
        "c"
      ],
      [
        "Ġs",
        "it"
      ],
      [
        "Ġhe",
        "ld"
      ],
      [
        "Ġc",
        "ream"
      ],
      [
        "Ġmu",
        "st"
      ],
      [
        "Ġw",
        "ished"
      ],
      [
        "Ġm",
        "ight"
      ],
      [
        "Ġst",
        "e"
      ],
      [
        "Ġb",
        "aby"
      ],
      [
        "S",
        "ara"
      ],
      [
        "Ġd",
        "in"
      ],
      [
        "Ġb",
        "it"
      ],
      [
        "Ġmom",
        "ent"
      ],
      [
        "Ġcl",
        "oud"
      ],
      [
        "Ġball",
        "oon"
      ],
      [
        "Ġfa",
        "ir"
      ],
      [
        "a",
        "isy"
      ],
      [
        "Ġcom",
        "ing"
      ],
      [
        "Ġnam",
        "e"
      ],
      [
        "Ġdo",
        "ing"
      ],
      [
        "Ġper",
        "f"
      ],
      [
        "M",
        "ia"
      ],
      [
        "Ġw",
        "in"
      ],
      [
        "Ġf",
        "ight"
      ],
      [
        "Ġwa",
        "g"
      ],
      [
        "Ġwind",
        "ow"
      ],
      [
        "Ġunder",
        "st"
      ],
      [
        "Ġlook",
        "s"
      ],
      [
        "Ġbu",
        "y"
      ],
      [
        "Ġth",
        "ank"
      ],
      [
        "Ġd",
        "one"
      ],
      [
        "Ġd",
        "ream"
      ],
      [
        "Ġexpl",
        "ore"
      ],
      [
        "am",
        "es"
      ],
      [
        "Ġb",
        "ar"
      ],
      [
        "Ġre",
        "ach"
      ],
      [
        "Ġwh",
        "y"
      ],
      [
        "Ġbook",
        "s"
      ],
      [
        "Ġgr",
        "ow"
      ],
      [
        "Ġbr",
        "other"
      ],
      [
        "Ġtry",
        "ing"
      ],
      [
        "Ġdir",
        "ty"
      ],
      [
        "iz",
        "ed"
      ],
      [
        "Ġd",
        "ro"
      ],
      [
        "ic",
        "y"
      ],
      [
        "r",
        "ed"
      ],
      [
        "ke",
        "y"
      ],
      [
        "Ġthr",
        "ough"
      ],
      [
        "'",
        "re"
      ],
      [
        "udd",
        "y"
      ],
      [
        "Ġm",
        "at"
      ],
      [
        "Ġshout",
        "ed"
      ],
      [
        "Ġle",
        "ft"
      ],
      [
        "ot",
        "t"
      ],
      [
        "Ġcla",
        "pped"
      ],
      [
        "O",
        "kay"
      ],
      [
        "Ġf",
        "all"
      ],
      [
        "and",
        "y"
      ],
      [
        "Ġp",
        "ink"
      ],
      [
        "Ġrepl",
        "ied"
      ],
      [
        "in",
        "s"
      ],
      [
        "Ġapp",
        "le"
      ],
      [
        "Ġch",
        "ild"
      ],
      [
        "Ġsn",
        "ow"
      ],
      [
        "Ġpain",
        "t"
      ],
      [
        "at",
        "ion"
      ],
      [
        "el",
        "y"
      ],
      [
        "Ġc",
        "ount"
      ],
      [
        "Ġw",
        "ise"
      ],
      [
        "Ġh",
        "ide"
      ],
      [
        "i",
        "x"
      ],
      [
        "Ġt",
        "iny"
      ],
      [
        "I",
        "n"
      ],
      [
        "Ġse",
        "en"
      ],
      [
        "Ġ",
        "owl"
      ],
      [
        "Ġth",
        "ree"
      ],
      [
        "as",
        "h"
      ],
      [
        "Ġs",
        "ure"
      ],
      [
        "Ġsw",
        "am"
      ],
      [
        "Ġbu",
        "ild"
      ],
      [
        "p",
        "e"
      ],
      [
        "Ġpl",
        "ant"
      ],
      [
        "ĠMom",
        "my"
      ],
      [
        "Ġa",
        "ir"
      ],
      [
        "ar",
        "t"
      ],
      [
        "Ġsc",
        "ary"
      ],
      [
        "Ġjo",
        "in"
      ],
      [
        "Ġpull",
        "ed"
      ],
      [
        "Ġbutter",
        "f"
      ],
      [
        "Ġwa",
        "ved"
      ],
      [
        "ro",
        "om"
      ],
      [
        "Ġbig",
        "ger"
      ],
      [
        "Ġsp",
        "l"
      ],
      [
        "Ġquick",
        "ly"
      ],
      [
        "ie",
        "ld"
      ],
      [
        "Ġbr",
        "an"
      ],
      [
        "Ġsomet",
        "imes"
      ],
      [
        "ĠA",
        "fter"
      ],
      [
        "Ġp",
        "ot"
      ],
      [
        "Ġwa",
        "ited"
      ],
      [
        "Ġcu",
        "p"
      ],
      [
        "Ġremember",
        "ed"
      ],
      [
        "out",
        "h"
      ],
      [
        "Ġless",
        "on"
      ],
      [
        "Ġb",
        "lew"
      ],
      [
        "Ġany",
        "thing"
      ],
      [
        "as",
        "k"
      ],
      [
        "Ġm",
        "outh"
      ],
      [
        "Ġgra",
        "bbed"
      ],
      [
        "Ġcolor",
        "ful"
      ],
      [
        "Ġg",
        "ames"
      ],
      [
        "d",
        "er"
      ],
      [
        "Ġstay",
        "ed"
      ],
      [
        "Ġpicture",
        "s"
      ],
      [
        "Ġal",
        "one"
      ],
      [
        "Ġenjoy",
        "ed"
      ],
      [
        "Ġla",
        "nd"
      ],
      [
        "O",
        "h"
      ],
      [
        "Ġcon",
        "t"
      ],
      [
        "av",
        "y"
      ],
      [
        "Ġnot",
        "iced"
      ],
      [
        "Ġf",
        "ill"
      ],
      [
        "p",
        "h"
      ],
      [
        "Ġp",
        "en"
      ],
      [
        "Ġwood",
        "s"
      ],
      [
        "ĠThe",
        "re"
      ],
      [
        "Ġtre",
        "at"
      ],
      [
        "Ġt",
        "ight"
      ],
      [
        "Ġb",
        "ike"
      ],
      [
        "Ġne",
        "st"
      ],
      [
        "Ġm",
        "iss"
      ],
      [
        "ri",
        "es"
      ],
      [
        "Ġc",
        "ast"
      ],
      [
        "d",
        "s"
      ],
      [
        "Ġm",
        "ar"
      ],
      [
        "as",
        "ure"
      ],
      [
        "Ġch",
        "air"
      ],
      [
        "Ġs",
        "et"
      ],
      [
        "ow",
        "er"
      ],
      [
        "Ġj",
        "ob"
      ],
      [
        "J",
        "o"
      ],
      [
        "d",
        "e"
      ],
      [
        "Th",
        "is"
      ],
      [
        "Ġa",
        "rm"
      ],
      [
        "ou",
        "p"
      ],
      [
        "uck",
        "y"
      ],
      [
        "Ġsp",
        "ot"
      ],
      [
        "ĠB",
        "uddy"
      ],
      [
        "c",
        "le"
      ],
      [
        "Ġc",
        "re"
      ],
      [
        "Ġcom",
        "p"
      ],
      [
        "Ġwor",
        "ld"
      ],
      [
        "Ġg",
        "ent"
      ],
      [
        "Ġturn",
        "s"
      ],
      [
        "Ġho",
        "pped"
      ],
      [
        "r",
        "ow"
      ],
      [
        "Ġth",
        "rew"
      ],
      [
        "ct",
        "or"
      ],
      [
        "Ġm",
        "ix"
      ],
      [
        "Ġcl",
        "ot"
      ],
      [
        "Ġmu",
        "s"
      ],
      [
        "Ġclot",
        "hes"
      ],
      [
        "Ġlike",
        "s"
      ],
      [
        "Ġp",
        "at"
      ],
      [
        "Ġb",
        "ott"
      ],
      [
        "m",
        "an"
      ],
      [
        "Ġy",
        "ear"
      ],
      [
        "ap",
        "e"
      ],
      [
        "l",
        "c"
      ],
      [
        "Ġse",
        "a"
      ],
      [
        "Ġj",
        "e"
      ],
      [
        "Ġhim",
        "self"
      ],
      [
        "t",
        "on"
      ],
      [
        "Ġhe",
        "avy"
      ],
      [
        "Ġbro",
        "ke"
      ],
      [
        "Ġg",
        "if"
      ],
      [
        "Ġfollow",
        "ed"
      ],
      [
        "ĠD",
        "aisy"
      ],
      [
        "Ġbre",
        "ak"
      ],
      [
        "Ġtow",
        "er"
      ],
      [
        "Ġmake",
        "s"
      ],
      [
        "Ġbl",
        "ack"
      ],
      [
        "D",
        "o"
      ],
      [
        "Ġw",
        "on"
      ],
      [
        "Ġevery",
        "where"
      ],
      [
        "Ġbutterf",
        "ly"
      ],
      [
        "Ġpo",
        "l"
      ],
      [
        "ĠWh",
        "at"
      ],
      [
        "am",
        "p"
      ],
      [
        "o",
        "s"
      ],
      [
        "Ġdel",
        "ic"
      ],
      [
        "H",
        "er"
      ],
      [
        "Ġwr",
        "ong"
      ],
      [
        "le",
        "ss"
      ],
      [
        "o",
        "lly"
      ],
      [
        "S",
        "pot"
      ],
      [
        "Ġforg",
        "ot"
      ],
      [
        "Ġke",
        "y"
      ],
      [
        "Ġcast",
        "le"
      ],
      [
        "z",
        "z"
      ],
      [
        "Ġbe",
        "e"
      ],
      [
        "Ġj",
        "u"
      ],
      [
        "i",
        "et"
      ],
      [
        "Ġwh",
        "ite"
      ],
      [
        "Ġv",
        "is"
      ],
      [
        "\"",
        "."
      ],
      [
        "u",
        "ed"
      ],
      [
        "Ġm",
        "um"
      ],
      [
        "Ġmus",
        "ic"
      ],
      [
        "Ġbr",
        "ought"
      ],
      [
        "L",
        "ucy"
      ],
      [
        "Ġd",
        "ry"
      ],
      [
        "Ġqu",
        "iet"
      ],
      [
        "e",
        "e"
      ],
      [
        "Ġr",
        "ide"
      ],
      [
        "Ġdanc",
        "ed"
      ],
      [
        "Ġr",
        "ound"
      ],
      [
        "Ġwe",
        "ar"
      ],
      [
        "Ġh",
        "it"
      ],
      [
        "th",
        "y"
      ],
      [
        "n",
        "er"
      ],
      [
        "ull",
        "y"
      ],
      [
        "or",
        "m"
      ],
      [
        "B",
        "ob"
      ],
      [
        "Ġre",
        "l"
      ],
      [
        "Ġde",
        "ep"
      ],
      [
        "Ġunderst",
        "and"
      ],
      [
        "u",
        "p"
      ],
      [
        "Ġ",
        "ve"
      ],
      [
        "Ġb",
        "or"
      ],
      [
        "Ġrock",
        "s"
      ],
      [
        "Ġmon",
        "ster"
      ],
      [
        "Ġ",
        "que"
      ],
      [
        "ve",
        "s"
      ],
      [
        "ĠJo",
        "hn"
      ],
      [
        "Ġn",
        "ap"
      ],
      [
        "f",
        "ully"
      ],
      [
        "Ġwant",
        "s"
      ],
      [
        "Ġtal",
        "ked"
      ],
      [
        "Ġfast",
        "er"
      ],
      [
        "ro",
        "ss"
      ],
      [
        "Ġs",
        "ign"
      ],
      [
        "Ġle",
        "af"
      ],
      [
        "is",
        "ter"
      ],
      [
        "c",
        "y"
      ],
      [
        "Ġle",
        "g"
      ],
      [
        "Ġsm",
        "art"
      ],
      [
        "are",
        "nt"
      ],
      [
        "ce",
        "ss"
      ],
      [
        "an",
        "ce"
      ],
      [
        "Ġre",
        "s"
      ],
      [
        "Ġe",
        "le"
      ],
      [
        "ou",
        "n"
      ],
      [
        "Ġsh",
        "aring"
      ],
      [
        "t",
        "s"
      ],
      [
        "Ġvis",
        "it"
      ],
      [
        "Ġg",
        "i"
      ],
      [
        "Ġp",
        "arent"
      ],
      [
        "Ġe",
        "m"
      ],
      [
        "Ġs",
        "illy"
      ],
      [
        "ard",
        "s"
      ],
      [
        "Ġpo",
        "in"
      ],
      [
        "re",
        "n"
      ],
      [
        "F",
        "rom"
      ],
      [
        "ĠIn",
        "side"
      ],
      [
        "Ġs",
        "ide"
      ],
      [
        "Ġcook",
        "ies"
      ],
      [
        "Ġcont",
        "in"
      ],
      [
        "Ġfly",
        "ing"
      ],
      [
        "Ġsome",
        "one"
      ],
      [
        "Ġse",
        "c"
      ],
      [
        "Ġfo",
        "x"
      ],
      [
        "ed",
        "dy"
      ],
      [
        "Ġbl",
        "ank"
      ],
      [
        "ĠSara",
        "h"
      ],
      [
        "Ġfin",
        "ished"
      ],
      [
        "Ġbut",
        "ton"
      ],
      [
        "Ġre",
        "ally"
      ],
      [
        "Ġwor",
        "ried"
      ],
      [
        "ĠE",
        "m"
      ],
      [
        "ĠT",
        "o"
      ],
      [
        "itt",
        "en"
      ],
      [
        "Ġblank",
        "et"
      ],
      [
        "r",
        "ot"
      ],
      [
        "e",
        "y"
      ],
      [
        "M",
        "aybe"
      ],
      [
        "Ġevery",
        "thing"
      ],
      [
        "Ġs",
        "ister"
      ],
      [
        "Ġk",
        "ing"
      ],
      [
        "Ġsec",
        "ret"
      ],
      [
        "Ġmu",
        "d"
      ],
      [
        "Ġperf",
        "ect"
      ],
      [
        "Ġe",
        "l"
      ],
      [
        "im",
        "i"
      ],
      [
        "Ġhapp",
        "en"
      ],
      [
        "Ġj",
        "ar"
      ],
      [
        "ĠM",
        "aybe"
      ],
      [
        "Ġb",
        "owl"
      ],
      [
        "an",
        "g"
      ],
      [
        "Ġwe",
        "ll"
      ],
      [
        "en",
        "ce"
      ],
      [
        "Ġsmile",
        "s"
      ],
      [
        "Ġdin",
        "ner"
      ],
      [
        "Ġp",
        "ig"
      ],
      [
        "Ġp",
        "udd"
      ],
      [
        "Ġg",
        "u"
      ],
      [
        "Ġel",
        "se"
      ],
      [
        "Ġbe",
        "ach"
      ],
      [
        "ĠSo",
        "on"
      ],
      [
        "Ġcry",
        "ing"
      ],
      [
        "Ġw",
        "ish"
      ],
      [
        "Ġcare",
        "fully"
      ],
      [
        "Ġgra",
        "ndma"
      ],
      [
        "Ġf",
        "ield"
      ],
      [
        "Ġwe",
        "lc"
      ],
      [
        "ĠA",
        "t"
      ],
      [
        "Ġto",
        "day"
      ],
      [
        "Ġsa",
        "ng"
      ],
      [
        "Jo",
        "hn"
      ],
      [
        "at",
        "ed"
      ],
      [
        "se",
        "s"
      ],
      [
        "Ġcontin",
        "ued"
      ],
      [
        "Ġeat",
        "ing"
      ],
      [
        "Wh",
        "ile"
      ],
      [
        "Ġri",
        "ver"
      ],
      [
        "Ġfill",
        "ed"
      ],
      [
        "z",
        "e"
      ],
      [
        "Ġsh",
        "in"
      ],
      [
        "H",
        "is"
      ],
      [
        "F",
        "in"
      ],
      [
        "Ġprom",
        "ised"
      ],
      [
        "Ġbr",
        "own"
      ],
      [
        "Ġe",
        "ar"
      ],
      [
        "Ġbran",
        "ch"
      ],
      [
        "ĠL",
        "ila"
      ],
      [
        "Ġor",
        "ange"
      ],
      [
        "Ġask",
        "s"
      ],
      [
        "Ġsp",
        "r"
      ],
      [
        "ck",
        "et"
      ],
      [
        "Ġf",
        "ur"
      ],
      [
        "Ġapp",
        "les"
      ],
      [
        "e",
        "ad"
      ],
      [
        "J",
        "ust"
      ],
      [
        "Ġdan",
        "ger"
      ],
      [
        "Ġdo",
        "ctor"
      ],
      [
        "Ġclos",
        "ed"
      ],
      [
        "Ġreal",
        "ized"
      ],
      [
        "Ġp",
        "urp"
      ],
      [
        "Ġpiece",
        "s"
      ],
      [
        "Ġroll",
        "ed"
      ],
      [
        "st",
        "ead"
      ],
      [
        "Ġthr",
        "ow"
      ],
      [
        "Ġcra",
        "b"
      ],
      [
        "Ġf",
        "ree"
      ],
      [
        "Ġchild",
        "ren"
      ],
      [
        "Ġb",
        "ite"
      ],
      [
        "Ġl",
        "on"
      ],
      [
        "Ġp",
        "ast"
      ],
      [
        "ch",
        "ool"
      ],
      [
        "itt",
        "ing"
      ],
      [
        "Ġlaug",
        "hing"
      ],
      [
        "Ġdr",
        "ink"
      ],
      [
        "Ġlon",
        "ely"
      ],
      [
        "i",
        "pp"
      ],
      [
        "ĠJ",
        "en"
      ],
      [
        "f",
        "ish"
      ],
      [
        "Ġpurp",
        "le"
      ],
      [
        "Ġamaz",
        "ing"
      ],
      [
        "Ġstr",
        "ange"
      ],
      [
        "Ġc",
        "ow"
      ],
      [
        "i",
        "re"
      ],
      [
        "Ġs",
        "chool"
      ],
      [
        "Ġwag",
        "ged"
      ],
      [
        "Ġbar",
        "ked"
      ],
      [
        "Ġsn",
        "ack"
      ],
      [
        "bo",
        "ard"
      ],
      [
        "Ġsho",
        "es"
      ],
      [
        "A",
        "my"
      ],
      [
        "ĠC",
        "h"
      ],
      [
        "Ġfair",
        "y"
      ],
      [
        "on",
        "s"
      ],
      [
        "Ġwith",
        "out"
      ],
      [
        "Ġb",
        "ath"
      ],
      [
        "Ġy",
        "es"
      ],
      [
        "Ġsn",
        "ake"
      ],
      [
        "Ġparent",
        "s"
      ],
      [
        "Ġp",
        "et"
      ],
      [
        "Ġmon",
        "key"
      ],
      [
        "us",
        "ed"
      ],
      [
        "Ġmor",
        "ning"
      ],
      [
        "Ġc",
        "e"
      ],
      [
        "or",
        "d"
      ],
      [
        "Ġche",
        "e"
      ],
      [
        "Ġli",
        "ving"
      ],
      [
        "ĠM",
        "imi"
      ],
      [
        "is",
        "es"
      ],
      [
        "Ġwor",
        "ds"
      ],
      [
        "Mom",
        "my"
      ],
      [
        "Ġc",
        "andy"
      ],
      [
        "Ġ",
        "-"
      ],
      [
        "Ġat",
        "t"
      ],
      [
        "ĠJo",
        "e"
      ],
      [
        "Ġrun",
        "s"
      ],
      [
        "Ġen",
        "ough"
      ],
      [
        "Ġmo",
        "ved"
      ],
      [
        "Ġlet",
        "ter"
      ],
      [
        "Ġgif",
        "t"
      ],
      [
        "f",
        "ort"
      ],
      [
        "Ġm",
        "ad"
      ],
      [
        "Ġwelc",
        "ome"
      ],
      [
        "ĠB",
        "illy"
      ],
      [
        "Ġ",
        "Z"
      ],
      [
        "Ġs",
        "oup"
      ],
      [
        "Ġm",
        "oney"
      ],
      [
        "ĠG",
        "ra"
      ],
      [
        "Ġget",
        "ting"
      ],
      [
        "Ġthink",
        "s"
      ],
      [
        ".",
        "âĢĿ"
      ],
      [
        "Ġs",
        "itting"
      ],
      [
        "ig",
        "h"
      ],
      [
        "Ġco",
        "at"
      ],
      [
        "Ġsh",
        "op"
      ],
      [
        "i",
        "ch"
      ],
      [
        "ell",
        "a"
      ],
      [
        "i",
        "ble"
      ],
      [
        "Ġw",
        "he"
      ],
      [
        "as",
        "ed"
      ],
      [
        "e",
        "my"
      ],
      [
        "Ġro",
        "ad"
      ],
      [
        "Ġtre",
        "asure"
      ],
      [
        "Ġbott",
        "le"
      ],
      [
        "Ġpus",
        "h"
      ],
      [
        "Ġl",
        "ake"
      ],
      [
        "Ġfin",
        "ally"
      ],
      [
        "i",
        "ver"
      ],
      [
        "Ġw",
        "ings"
      ],
      [
        "in",
        "ed"
      ],
      [
        "ar",
        "m"
      ],
      [
        "g",
        "y"
      ],
      [
        "Ġhig",
        "her"
      ],
      [
        "Ġf",
        "an"
      ],
      [
        "Ġco",
        "ll"
      ],
      [
        "us",
        "h"
      ],
      [
        "Ġdra",
        "g"
      ],
      [
        "Ġb",
        "ask"
      ],
      [
        "Ġst",
        "re"
      ],
      [
        "Ġpa",
        "ss"
      ],
      [
        "Ġbask",
        "et"
      ],
      [
        "Ġb",
        "oun"
      ],
      [
        "it",
        "ch"
      ],
      [
        "e",
        "b"
      ],
      [
        "b",
        "ow"
      ],
      [
        "Ġdelic",
        "ious"
      ],
      [
        "s",
        "et"
      ],
      [
        "Ġpudd",
        "le"
      ],
      [
        "Ġshin",
        "ing"
      ],
      [
        "u",
        "bb"
      ],
      [
        "Ġbel",
        "ie"
      ],
      [
        "a",
        "le"
      ],
      [
        "a",
        "ss"
      ],
      [
        "un",
        "ch"
      ],
      [
        "Ġsm",
        "o"
      ],
      [
        "Ġp",
        "h"
      ],
      [
        "Ġh",
        "or"
      ],
      [
        "al",
        "thy"
      ],
      [
        "Ġse",
        "ed"
      ],
      [
        "Ġp",
        "re"
      ],
      [
        "Ġm",
        "other"
      ],
      [
        "Ġsw",
        "ings"
      ],
      [
        "ve",
        "l"
      ],
      [
        "'",
        "ll"
      ],
      [
        "Ġdanger",
        "ous"
      ],
      [
        "Ġstar",
        "t"
      ],
      [
        "Ġst",
        "and"
      ],
      [
        "Ġcre",
        "at"
      ],
      [
        "i",
        "er"
      ],
      [
        "Ġsa",
        "il"
      ],
      [
        "Ġsa",
        "ck"
      ],
      [
        "Ġp",
        "ill"
      ],
      [
        "Ġrain",
        "bow"
      ],
      [
        "!",
        "âĢĿ"
      ],
      [
        "Ġst",
        "one"
      ],
      [
        "m",
        "e"
      ],
      [
        "Ġm",
        "ail"
      ],
      [
        "Ġpa",
        "w"
      ],
      [
        "ll",
        "ie"
      ],
      [
        "Ġno",
        "se"
      ],
      [
        "a",
        "pp"
      ],
      [
        "Ġday",
        "s"
      ],
      [
        "Ġfarm",
        "er"
      ],
      [
        "ph",
        "ant"
      ],
      [
        "Ġt",
        "eddy"
      ],
      [
        "Ġsc",
        "ream"
      ],
      [
        "Ġbr",
        "ing"
      ],
      [
        "Ġshe",
        "ll"
      ],
      [
        "ig",
        "g"
      ],
      [
        "ĠB",
        "l"
      ],
      [
        "Ġc",
        "aught"
      ],
      [
        "P",
        "lease"
      ],
      [
        "Ġn",
        "ut"
      ],
      [
        "Ġdro",
        "pped"
      ],
      [
        "g",
        "g"
      ],
      [
        "Ġb",
        "ow"
      ],
      [
        "is",
        "k"
      ],
      [
        "Ġher",
        "self"
      ],
      [
        "Ġar",
        "ri"
      ],
      [
        "Ġele",
        "phant"
      ],
      [
        "Ġsa",
        "me"
      ],
      [
        "c",
        "hes"
      ],
      [
        "Ġtal",
        "king"
      ],
      [
        "Ġdoll",
        "s"
      ],
      [
        "Ġb",
        "uck"
      ],
      [
        "Ġwo",
        "ke"
      ],
      [
        "Ġbel",
        "ong"
      ],
      [
        "ck",
        "s"
      ],
      [
        "u",
        "b"
      ],
      [
        "Ġb",
        "en"
      ],
      [
        "un",
        "a"
      ],
      [
        "Ġchee",
        "se"
      ],
      [
        "Ġw",
        "ore"
      ],
      [
        "Ġyear",
        "s"
      ],
      [
        "Ġwh",
        "ist"
      ],
      [
        "Ġown",
        "er"
      ],
      [
        "Ġc",
        "orn"
      ],
      [
        "s",
        "c"
      ],
      [
        "Ġche",
        "ered"
      ],
      [
        "s",
        "w"
      ],
      [
        "Ġto",
        "m"
      ],
      [
        "J",
        "ack"
      ],
      [
        "O",
        "K"
      ],
      [
        "Ġtw",
        "ins"
      ],
      [
        "Ġcut",
        "e"
      ],
      [
        "Ġm",
        "in"
      ],
      [
        "Ġr",
        "a"
      ],
      [
        "Ġm",
        "ine"
      ],
      [
        "Ġe",
        "gg"
      ],
      [
        "Ġse",
        "ar"
      ],
      [
        "ĠEm",
        "ma"
      ],
      [
        "Ġan",
        "sw"
      ],
      [
        "Ġv",
        "ill"
      ],
      [
        "ĠTom",
        "my"
      ],
      [
        "Ġsee",
        "m"
      ],
      [
        "Ġhop",
        "ed"
      ],
      [
        "Ġtast",
        "y"
      ],
      [
        "isk",
        "ers"
      ],
      [
        "Ġb",
        "at"
      ],
      [
        "Ġf",
        "it"
      ],
      [
        "Ġro",
        "pe"
      ],
      [
        "Ġte",
        "ach"
      ],
      [
        "ĠR",
        "emy"
      ],
      [
        "Ġpu",
        "ppy"
      ],
      [
        "i",
        "pped"
      ],
      [
        "Ġcr",
        "ay"
      ],
      [
        "Ġp",
        "ile"
      ],
      [
        "Ġsing",
        "ing"
      ],
      [
        "Ġgre",
        "w"
      ],
      [
        "Ġfore",
        "ver"
      ],
      [
        "er",
        "ry"
      ],
      [
        "Ġp",
        "ers"
      ],
      [
        "Ġte",
        "ac"
      ],
      [
        "s",
        "y"
      ],
      [
        "Ġab",
        "le"
      ],
      [
        "Ġgent",
        "le"
      ],
      [
        "Ġto",
        "uc"
      ],
      [
        "Ġsp",
        "in"
      ],
      [
        "Ġch",
        "o"
      ],
      [
        "Ġtr",
        "ou"
      ],
      [
        "Ġmo",
        "st"
      ],
      [
        "Ġcar",
        "rot"
      ],
      [
        "Ġstre",
        "et"
      ],
      [
        "Ġpl",
        "ane"
      ],
      [
        "Ġbre",
        "ad"
      ],
      [
        "id",
        "ge"
      ],
      [
        "ra",
        "ct"
      ],
      [
        "Ġh",
        "oney"
      ],
      [
        "Fin",
        "ally"
      ],
      [
        "Ġhear",
        "t"
      ],
      [
        "Ġb",
        "and"
      ],
      [
        "Ġbus",
        "h"
      ],
      [
        "Ġarri",
        "ved"
      ],
      [
        "G",
        "ood"
      ],
      [
        "Ġj",
        "oy"
      ],
      [
        "urt",
        "le"
      ],
      [
        "am",
        "a"
      ],
      [
        "Ġben",
        "ch"
      ],
      [
        "Ġvill",
        "age"
      ],
      [
        "is",
        "a"
      ],
      [
        "Ġwonder",
        "ful"
      ],
      [
        "Ġc",
        "our"
      ],
      [
        "Ġdrag",
        "on"
      ],
      [
        "ĠTh",
        "ank"
      ],
      [
        "Ġhid",
        "ing"
      ],
      [
        "Ġhold",
        "ing"
      ],
      [
        "Ġpr",
        "ob"
      ],
      [
        "ad",
        "ow"
      ],
      [
        "Ġju",
        "ice"
      ],
      [
        "Ġin",
        "c"
      ],
      [
        "ĠB",
        "ella"
      ],
      [
        "a",
        "ur"
      ],
      [
        "b",
        "r"
      ],
      [
        "at",
        "or"
      ],
      [
        "ir",
        "th"
      ],
      [
        "Ġsh",
        "ook"
      ],
      [
        "Ġcar",
        "ry"
      ],
      [
        "Ġtouc",
        "hed"
      ],
      [
        "Ġsh",
        "ap"
      ],
      [
        "ir",
        "p"
      ],
      [
        "f",
        "used"
      ],
      [
        "irth",
        "day"
      ],
      [
        "le",
        "m"
      ],
      [
        "i",
        "an"
      ],
      [
        "Ġcl",
        "oth"
      ],
      [
        "Ġfe",
        "w"
      ],
      [
        "our",
        "n"
      ],
      [
        "ĠWh",
        "iskers"
      ],
      [
        "Ġprob",
        "lem"
      ],
      [
        "Ġdir",
        "t"
      ],
      [
        "Ġcour",
        "se"
      ],
      [
        "um",
        "b"
      ],
      [
        "Ġk",
        "iss"
      ],
      [
        "Ġj",
        "ourn"
      ],
      [
        "ep",
        "end"
      ],
      [
        "Ġc",
        "ave"
      ],
      [
        "Ġp",
        "op"
      ],
      [
        "Ġbug",
        "s"
      ],
      [
        "Ġe",
        "as"
      ],
      [
        "Ġsound",
        "s"
      ],
      [
        "Ġsh",
        "ake"
      ],
      [
        "Ġsp",
        "o"
      ],
      [
        "Ġteac",
        "her"
      ],
      [
        "Ġwa",
        "r"
      ],
      [
        "Ġbus",
        "y"
      ],
      [
        "aught",
        "y"
      ],
      [
        "Ġf",
        "ence"
      ],
      [
        "Ġd",
        "es"
      ],
      [
        "Ġp",
        "ower"
      ],
      [
        "Ġtow",
        "ards"
      ],
      [
        "Ġprom",
        "ise"
      ],
      [
        "Ġgi",
        "ant"
      ],
      [
        "Ġn",
        "aughty"
      ],
      [
        "e",
        "ared"
      ],
      [
        "Ġl",
        "ate"
      ],
      [
        "Ġme",
        "et"
      ],
      [
        "Ġbelie",
        "ve"
      ],
      [
        "Ġpo",
        "cket"
      ],
      [
        "ĠBl",
        "ue"
      ],
      [
        "Ġb",
        "irthday"
      ],
      [
        "Ġtri",
        "p"
      ],
      [
        "Ġshap",
        "es"
      ],
      [
        "Ġt",
        "urtle"
      ],
      [
        "Ġfeel",
        "s"
      ],
      [
        "at",
        "o"
      ],
      [
        "Ġsh",
        "ar"
      ],
      [
        "Ġl",
        "unch"
      ],
      [
        "Ġw",
        "ra"
      ],
      [
        "Ġshar",
        "p"
      ],
      [
        "Ġl",
        "ucky"
      ],
      [
        "Ġo",
        "b"
      ],
      [
        "et",
        "er"
      ],
      [
        "l",
        "ing"
      ],
      [
        "Ġpat",
        "ient"
      ],
      [
        "ll",
        "a"
      ],
      [
        "Ġhor",
        "se"
      ],
      [
        "Ġbe",
        "ll"
      ],
      [
        "Ġsp",
        "ark"
      ],
      [
        "b",
        "all"
      ],
      [
        "u",
        "nt"
      ],
      [
        "Ġm",
        "ist"
      ],
      [
        "Ġup",
        "set"
      ],
      [
        "ĠL",
        "e"
      ],
      [
        "Ġw",
        "ild"
      ],
      [
        "ount",
        "ain"
      ],
      [
        "Ġsp",
        "oon"
      ],
      [
        "Ġstar",
        "s"
      ],
      [
        "Ġdri",
        "ver"
      ],
      [
        "g",
        "ly"
      ],
      [
        "Ġno",
        "ises"
      ],
      [
        "Ġfo",
        "ld"
      ],
      [
        "o",
        "l"
      ],
      [
        "Ġt",
        "aking"
      ],
      [
        "Ġstor",
        "m"
      ],
      [
        "o",
        "st"
      ],
      [
        "Ġm",
        "ark"
      ],
      [
        "il",
        "ing"
      ],
      [
        "Ġstor",
        "ies"
      ],
      [
        "Ġgr",
        "ay"
      ],
      [
        "Ġduck",
        "s"
      ],
      [
        "Ġre",
        "c"
      ],
      [
        "Ġsp",
        "id"
      ],
      [
        "Ġhug",
        "s"
      ],
      [
        "Ġne",
        "ck"
      ],
      [
        "Ġor",
        "gan"
      ],
      [
        "co",
        "l"
      ],
      [
        "Ġhelp",
        "ful"
      ],
      [
        "Ġsh",
        "r"
      ],
      [
        "ump",
        "y"
      ],
      [
        "Ġtreat",
        "s"
      ],
      [
        "Ġu",
        "gly"
      ],
      [
        "al",
        "m"
      ],
      [
        "Ġle",
        "m"
      ],
      [
        "ĠF",
        "red"
      ],
      [
        "Ġslow",
        "ly"
      ],
      [
        "Ġse",
        "at"
      ],
      [
        "fort",
        "able"
      ],
      [
        "Ġpu",
        "zz"
      ],
      [
        "Ġli",
        "ve"
      ],
      [
        "Ġamaz",
        "ed"
      ],
      [
        "Ġball",
        "s"
      ],
      [
        "ul",
        "ar"
      ],
      [
        "ĠM",
        "ark"
      ],
      [
        "um",
        "ber"
      ],
      [
        "Ġsh",
        "y"
      ],
      [
        "Ġro",
        "b"
      ],
      [
        "Ġdis",
        "app"
      ],
      [
        "Ġdro",
        "ve"
      ],
      [
        "ell",
        "y"
      ],
      [
        "Ġspl",
        "as"
      ],
      [
        "Ġs",
        "el"
      ],
      [
        "Ġwas",
        "n"
      ],
      [
        "Ġin",
        "v"
      ],
      [
        "Ġru",
        "de"
      ],
      [
        "Ġs",
        "ug"
      ],
      [
        "Ġz",
        "oom"
      ],
      [
        "Ġw",
        "ide"
      ],
      [
        "Ġmagic",
        "al"
      ],
      [
        "Ġc",
        "ard"
      ],
      [
        "ir",
        "t"
      ],
      [
        "il",
        "k"
      ],
      [
        "Ġph",
        "one"
      ],
      [
        "Ġpill",
        "ow"
      ],
      [
        "Ġ",
        "On"
      ],
      [
        "re",
        "ad"
      ],
      [
        "iz",
        "e"
      ],
      [
        "Ġrob",
        "ot"
      ],
      [
        "Ġd",
        "ist"
      ],
      [
        "ĠFin",
        "ally"
      ],
      [
        "ĠJ",
        "im"
      ],
      [
        "Ġs",
        "uc"
      ],
      [
        "Ġm",
        "ilk"
      ],
      [
        "Ġyou",
        "ng"
      ],
      [
        "Ġco",
        "ver"
      ],
      [
        "Ġsel",
        "fish"
      ],
      [
        "Ġpar",
        "t"
      ],
      [
        "Ġin",
        "stead"
      ],
      [
        "Ġbuck",
        "et"
      ],
      [
        "Ġk",
        "itten"
      ],
      [
        "Ġwhist",
        "le"
      ],
      [
        "S",
        "ure"
      ],
      [
        "Ġn",
        "et"
      ],
      [
        "Ġco",
        "in"
      ],
      [
        "Ġmo",
        "on"
      ],
      [
        "He",
        "y"
      ],
      [
        "Ġk",
        "ite"
      ],
      [
        "Ġgra",
        "b"
      ],
      [
        "Ġc",
        "ir"
      ],
      [
        "pp",
        "ing"
      ],
      [
        "Ġsl",
        "id"
      ],
      [
        "Ġstr",
        "ing"
      ],
      [
        "Ġsee",
        "k"
      ],
      [
        "L",
        "ila"
      ],
      [
        "Ġsand",
        "w"
      ],
      [
        "en",
        "s"
      ],
      [
        "Ġgl",
        "ow"
      ],
      [
        "Ġbu",
        "bb"
      ],
      [
        "Ġdad",
        "dy"
      ],
      [
        "un",
        "g"
      ],
      [
        "Ġdri",
        "ve"
      ],
      [
        "n",
        "ot"
      ],
      [
        "Ġs",
        "er"
      ],
      [
        "ĠJ",
        "ust"
      ],
      [
        "B",
        "e"
      ],
      [
        "L",
        "ater"
      ],
      [
        "o",
        "ve"
      ],
      [
        "Ġwr",
        "ite"
      ],
      [
        "Ġm",
        "ach"
      ],
      [
        "Ġsp",
        "icy"
      ],
      [
        "Ġfix",
        "ed"
      ],
      [
        "Ġwhe",
        "el"
      ],
      [
        "Ġl",
        "ad"
      ],
      [
        "Ġcan",
        "not"
      ],
      [
        "Ġs",
        "ick"
      ],
      [
        "Ġd",
        "i"
      ],
      [
        "Ġbo",
        "ss"
      ],
      [
        "ĠC",
        "at"
      ],
      [
        "Ġp",
        "an"
      ],
      [
        "le",
        "t"
      ],
      [
        "Ġste",
        "pped"
      ],
      [
        "Ġhug",
        "e"
      ],
      [
        "Ġsleep",
        "y"
      ],
      [
        "ĠLe",
        "o"
      ],
      [
        "Ġth",
        "in"
      ],
      [
        "ĠC",
        "ome"
      ],
      [
        "e",
        "re"
      ],
      [
        "ĠL",
        "isa"
      ],
      [
        "Ġshe",
        "lf"
      ],
      [
        "Ġv",
        "al"
      ],
      [
        "Ġfight",
        "ing"
      ],
      [
        "Ġspid",
        "er"
      ],
      [
        "Ġt",
        "ie"
      ],
      [
        "Ġcle",
        "ver"
      ],
      [
        "Ġs",
        "uddenly"
      ],
      [
        "O",
        "f"
      ],
      [
        "Ġb",
        "one"
      ],
      [
        "Ġm",
        "ot"
      ],
      [
        "ĠB",
        "unny"
      ],
      [
        "Ġc",
        "a"
      ],
      [
        "Ġp",
        "ath"
      ],
      [
        "Ġlad",
        "der"
      ],
      [
        "or",
        "s"
      ],
      [
        "Ġfor",
        "get"
      ],
      [
        "Ġsa",
        "l"
      ],
      [
        "Ġas",
        "h"
      ],
      [
        "Ġwatch",
        "ing"
      ],
      [
        "Ġsp",
        "e"
      ],
      [
        "Ġcom",
        "es"
      ],
      [
        "Ġche",
        "w"
      ],
      [
        "Ġmiss",
        "ed"
      ],
      [
        "Ġla",
        "st"
      ],
      [
        "Ġch",
        "ick"
      ],
      [
        "irp",
        "y"
      ],
      [
        "Ġgr",
        "ate"
      ],
      [
        "Ġprin",
        "cess"
      ],
      [
        "Ġt",
        "id"
      ],
      [
        "ĠMom",
        "o"
      ],
      [
        "Ġadventure",
        "s"
      ],
      [
        "Ġbe",
        "ak"
      ],
      [
        "d",
        "en"
      ],
      [
        "Ġstick",
        "s"
      ],
      [
        "Ġl",
        "ater"
      ],
      [
        "Ġfin",
        "ish"
      ],
      [
        "Ġb",
        "ark"
      ],
      [
        "Ġf",
        "le"
      ],
      [
        "Ġch",
        "ased"
      ],
      [
        "Ġj",
        "elly"
      ],
      [
        "ere",
        "st"
      ],
      [
        "Ġgrate",
        "ful"
      ],
      [
        "l",
        "ower"
      ],
      [
        "Ġmess",
        "y"
      ],
      [
        "Ġhid",
        "den"
      ],
      [
        "d",
        "ge"
      ],
      [
        "ĠO",
        "llie"
      ],
      [
        "e",
        "st"
      ],
      [
        "Ġsmo",
        "oth"
      ],
      [
        "er",
        "t"
      ],
      [
        "o",
        "se"
      ],
      [
        "Ġcra",
        "w"
      ],
      [
        "ĠGra",
        "ndma"
      ],
      [
        "Ġwa",
        "ve"
      ],
      [
        "ĠA",
        "nn"
      ],
      [
        "Ġpe",
        "ace"
      ],
      [
        "Ġsong",
        "s"
      ],
      [
        "e",
        "ver"
      ],
      [
        "Ġst",
        "ep"
      ],
      [
        "Ġrock",
        "et"
      ],
      [
        "og",
        "gy"
      ],
      [
        "am",
        "ed"
      ],
      [
        "Ġth",
        "ough"
      ],
      [
        "Ġint",
        "erest"
      ],
      [
        "Ġque",
        "en"
      ],
      [
        "Ġcar",
        "t"
      ],
      [
        "Ġac",
        "ross"
      ],
      [
        "Ġch",
        "ange"
      ],
      [
        "Ġgr",
        "umpy"
      ],
      [
        "Ġcon",
        "fused"
      ],
      [
        "oo",
        "se"
      ],
      [
        "Ġexpl",
        "ain"
      ],
      [
        "ri",
        "ll"
      ],
      [
        "Ġli",
        "fe"
      ],
      [
        "Ġ",
        "ent"
      ],
      [
        "S",
        "t"
      ],
      [
        "t",
        "o"
      ],
      [
        "Ġr",
        "ad"
      ],
      [
        "Ġmy",
        "ster"
      ],
      [
        "ion",
        "s"
      ],
      [
        "pp",
        "er"
      ],
      [
        "Ġy",
        "og"
      ],
      [
        "Ġtid",
        "y"
      ],
      [
        "Ġcook",
        "ie"
      ],
      [
        "w",
        "ard"
      ],
      [
        "Ġwor",
        "m"
      ],
      [
        "ĠDad",
        "dy"
      ],
      [
        "ig",
        "er"
      ],
      [
        "Ġex",
        "p"
      ],
      [
        "er",
        "y"
      ],
      [
        "op",
        "h"
      ],
      [
        "et",
        "h"
      ],
      [
        "y",
        "ard"
      ],
      [
        "Ġdog",
        "s"
      ],
      [
        "Ġim",
        "ag"
      ],
      [
        "Ġb",
        "an"
      ],
      [
        "Ġm",
        "ed"
      ],
      [
        "Ġwas",
        "h"
      ],
      [
        "Ġnot",
        "hing"
      ],
      [
        "os",
        "aur"
      ],
      [
        "S",
        "oon"
      ],
      [
        "m",
        "er"
      ],
      [
        "Ġleg",
        "s"
      ],
      [
        "m",
        "ing"
      ],
      [
        "Ġtast",
        "e"
      ],
      [
        "on",
        "es"
      ],
      [
        "Ġal",
        "ong"
      ],
      [
        "Ġcloud",
        "s"
      ],
      [
        "Ġback",
        "yard"
      ],
      [
        "it",
        "y"
      ],
      [
        "Ġwonder",
        "ed"
      ],
      [
        "Ġd",
        "ish"
      ],
      [
        "Ġo",
        "ven"
      ],
      [
        "Ġz",
        "oo"
      ],
      [
        "Ġb",
        "ought"
      ],
      [
        "Ġte",
        "a"
      ],
      [
        "ĠJ",
        "ill"
      ],
      [
        "if",
        "e"
      ],
      [
        "Ġland",
        "ed"
      ],
      [
        "Ġj",
        "og"
      ],
      [
        "Ġne",
        "igh"
      ],
      [
        "Ġsc",
        "ar"
      ],
      [
        "Ġseem",
        "ed"
      ],
      [
        "Ġs",
        "u"
      ],
      [
        "Ġmach",
        "ine"
      ],
      [
        "ĠL",
        "una"
      ],
      [
        "Ġla",
        "w"
      ],
      [
        "Ġjo",
        "ke"
      ],
      [
        "w",
        "el"
      ],
      [
        "Ġl",
        "ay"
      ],
      [
        "Ġwho",
        "le"
      ],
      [
        "Ġfruit",
        "s"
      ],
      [
        "Ġque",
        "st"
      ],
      [
        "Ġd",
        "rew"
      ],
      [
        "Ġc",
        "ou"
      ],
      [
        "Ġp",
        "ack"
      ],
      [
        "Ġlem",
        "on"
      ],
      [
        "Ġsnow",
        "man"
      ],
      [
        "Ġsmell",
        "y"
      ],
      [
        "Ġneigh",
        "b"
      ],
      [
        "Ġs",
        "our"
      ],
      [
        "Ġc",
        "alm"
      ],
      [
        "ĠB",
        "u"
      ],
      [
        "ug",
        "g"
      ],
      [
        "Ġexpl",
        "or"
      ],
      [
        "Ġdin",
        "osaur"
      ],
      [
        "ĠCh",
        "irpy"
      ],
      [
        "Ġ",
        "N"
      ],
      [
        "un",
        "k"
      ],
      [
        "ip",
        "e"
      ],
      [
        "Ġgent",
        "ly"
      ],
      [
        "Ġhop",
        "e"
      ],
      [
        "Ġf",
        "ing"
      ],
      [
        "Ġforg",
        "ive"
      ],
      [
        "Ġban",
        "an"
      ],
      [
        "Ġpuzz",
        "le"
      ],
      [
        "Ġsu",
        "pp"
      ],
      [
        "ar",
        "s"
      ],
      [
        "Ġtake",
        "s"
      ],
      [
        "Ġje",
        "wel"
      ],
      [
        "Ġinterest",
        "ing"
      ],
      [
        "er",
        "ly"
      ],
      [
        "Ġspr",
        "ay"
      ],
      [
        "Ġarm",
        "s"
      ],
      [
        "?",
        "âĢĿ"
      ],
      [
        "T",
        "o"
      ],
      [
        "ĠW",
        "ith"
      ],
      [
        "e",
        "k"
      ],
      [
        "Ġb",
        "a"
      ],
      [
        "pec",
        "t"
      ],
      [
        "Ġfo",
        "ot"
      ],
      [
        "Ġmot",
        "or"
      ],
      [
        "o",
        "cked"
      ],
      [
        "iz",
        "z"
      ],
      [
        "Ġc",
        "ross"
      ],
      [
        "Ġplace",
        "s"
      ],
      [
        "Ġsa",
        "ve"
      ],
      [
        "Ġshe",
        "ep"
      ],
      [
        "Ġdr",
        "um"
      ],
      [
        "op",
        "e"
      ],
      [
        "Ġwor",
        "king"
      ],
      [
        "Ġeas",
        "y"
      ],
      [
        "Ġwe",
        "ak"
      ],
      [
        "Ġfe",
        "ather"
      ],
      [
        "Ġ",
        "ign"
      ],
      [
        "Ġp",
        "ract"
      ],
      [
        "Ġk",
        "ick"
      ],
      [
        "iz",
        "zy"
      ],
      [
        "on",
        "t"
      ],
      [
        "Ġli",
        "ft"
      ],
      [
        "ĠJ",
        "erry"
      ],
      [
        "Ġp",
        "in"
      ],
      [
        "Ġswim",
        "ming"
      ],
      [
        "p",
        "ty"
      ],
      [
        "ĠB",
        "e"
      ],
      [
        "Ġem",
        "pty"
      ],
      [
        "ĠThe",
        "ir"
      ],
      [
        "Ġr",
        "ing"
      ],
      [
        "Ġde",
        "er"
      ],
      [
        "bo",
        "x"
      ],
      [
        "Ġant",
        "s"
      ],
      [
        "m",
        "ent"
      ],
      [
        "Ġm",
        "aybe"
      ],
      [
        "Ġany",
        "one"
      ],
      [
        "Ġjump",
        "ing"
      ],
      [
        "Ġface",
        "s"
      ],
      [
        "n",
        "ed"
      ],
      [
        "or",
        "row"
      ],
      [
        "ir",
        "r"
      ],
      [
        "Ġre",
        "t"
      ],
      [
        "Ġmat",
        "ch"
      ],
      [
        "Ġbor",
        "ing"
      ],
      [
        "C",
        "ome"
      ],
      [
        "ĠT",
        "V"
      ],
      [
        "Ġa",
        "ct"
      ],
      [
        "Ġs",
        "uch"
      ],
      [
        "Ġon",
        "to"
      ],
      [
        "Ġlong",
        "er"
      ],
      [
        "or",
        "k"
      ],
      [
        "ĠM",
        "olly"
      ],
      [
        "Ġboss",
        "y"
      ],
      [
        "ll",
        "o"
      ],
      [
        "ul",
        "t"
      ],
      [
        "Ġso",
        "ld"
      ],
      [
        "Ġgive",
        "s"
      ],
      [
        "Ġhe",
        "althy"
      ],
      [
        "ar",
        "ge"
      ],
      [
        "Ġret",
        "urn"
      ],
      [
        "Ġsmell",
        "ed"
      ],
      [
        "Ġjourn",
        "ey"
      ],
      [
        "Ġscar",
        "f"
      ],
      [
        "b",
        "ar"
      ],
      [
        "Ġf",
        "il"
      ],
      [
        "Ġtr",
        "ue"
      ],
      [
        "Ġtrou",
        "ble"
      ],
      [
        "Ġp",
        "our"
      ],
      [
        "Ġa",
        "v"
      ],
      [
        "in",
        "a"
      ],
      [
        "Ġmist",
        "ake"
      ],
      [
        "Ġf",
        "ake"
      ],
      [
        "Ġsa",
        "ved"
      ],
      [
        "Ġfr",
        "ont"
      ],
      [
        "Ġpr",
        "ot"
      ],
      [
        "Ġpers",
        "on"
      ],
      [
        "a",
        "w"
      ],
      [
        "Ġw",
        "ing"
      ],
      [
        "u",
        "ally"
      ],
      [
        "Ġspl",
        "ash"
      ],
      [
        "ur",
        "se"
      ],
      [
        "S",
        "ally"
      ],
      [
        "one",
        "st"
      ],
      [
        "Ġwait",
        "ing"
      ],
      [
        "Ġso",
        "l"
      ],
      [
        "Ġlove",
        "ly"
      ],
      [
        "s",
        "p"
      ],
      [
        "Ġm",
        "ind"
      ],
      [
        "Ġbo",
        "ot"
      ],
      [
        "oom",
        "y"
      ],
      [
        "Ġtom",
        "orrow"
      ],
      [
        "Ġh",
        "onest"
      ],
      [
        "Ġl",
        "ine"
      ],
      [
        "ra",
        "ss"
      ],
      [
        "oo",
        "p"
      ],
      [
        "Ġfan",
        "cy"
      ],
      [
        "Ġl",
        "arge"
      ],
      [
        "om",
        "an"
      ],
      [
        "Ġche",
        "er"
      ],
      [
        "Ġem",
        "bar"
      ],
      [
        "Ġembar",
        "rass"
      ],
      [
        "Ġwa",
        "ff"
      ],
      [
        "Ġm",
        "ap"
      ],
      [
        "Ġg",
        "ather"
      ],
      [
        "ac",
        "ed"
      ],
      [
        "Ġst",
        "ret"
      ],
      [
        "Ġwo",
        "lf"
      ],
      [
        "it",
        "ing"
      ],
      [
        "Ġimp",
        "ress"
      ],
      [
        "ĠWh",
        "y"
      ],
      [
        "ĠTo",
        "gether"
      ],
      [
        "k",
        "in"
      ],
      [
        "Ġla",
        "zy"
      ],
      [
        "M",
        "y"
      ],
      [
        "Ġgo",
        "es"
      ],
      [
        "Ġcray",
        "ons"
      ],
      [
        "Ġsplas",
        "hed"
      ],
      [
        "Ġw",
        "oman"
      ],
      [
        "Ġpl",
        "ate"
      ],
      [
        "Ġput",
        "s"
      ],
      [
        "A",
        "nd"
      ],
      [
        "Ġash",
        "amed"
      ],
      [
        "Ġp",
        "ool"
      ],
      [
        "Ġgo",
        "ld"
      ],
      [
        "Ġnear",
        "by"
      ],
      [
        "Ġnot",
        "e"
      ],
      [
        "Ġapp",
        "eared"
      ],
      [
        "Ġpretend",
        "ed"
      ],
      [
        "Ġpoin",
        "ted"
      ],
      [
        "Ġpower",
        "ful"
      ],
      [
        "K",
        "itty"
      ],
      [
        "Ġso",
        "ap"
      ],
      [
        "Ġcar",
        "ried"
      ],
      [
        "Ġh",
        "um"
      ],
      [
        "el",
        "p"
      ],
      [
        "Ġscream",
        "ed"
      ],
      [
        "Ġs",
        "ur"
      ],
      [
        "Ġg",
        "ate"
      ],
      [
        "ge",
        "st"
      ],
      [
        "Ġd",
        "ig"
      ],
      [
        "Ġprin",
        "ce"
      ],
      [
        "Ġplant",
        "s"
      ],
      [
        "Ġa",
        "f"
      ],
      [
        "Ġsh",
        "adow"
      ],
      [
        "Ġlove",
        "s"
      ],
      [
        "Ġri",
        "ch"
      ],
      [
        "o",
        "c"
      ],
      [
        "Ġst",
        "ood"
      ],
      [
        "Ġw",
        "is"
      ],
      [
        "Ġtr",
        "ust"
      ],
      [
        "s",
        "er"
      ],
      [
        "ĠI",
        "f"
      ],
      [
        "itt",
        "er"
      ],
      [
        "Ġte",
        "eth"
      ],
      [
        "Ġpain",
        "ted"
      ],
      [
        "Ġt",
        "ape"
      ],
      [
        "Ġsh",
        "irt"
      ],
      [
        "er",
        "a"
      ],
      [
        "Ġwe",
        "aring"
      ],
      [
        "Ġno",
        "isy"
      ],
      [
        "Ġ",
        "icy"
      ],
      [
        "ĠM",
        "y"
      ],
      [
        "Ġre",
        "g"
      ],
      [
        "ĠBob",
        "by"
      ],
      [
        "Ġn",
        "umber"
      ],
      [
        "Ġg",
        "un"
      ],
      [
        "Ġco",
        "zy"
      ],
      [
        "ĠG",
        "o"
      ],
      [
        "ra",
        "id"
      ],
      [
        "Ġdanc",
        "ing"
      ],
      [
        "Ġansw",
        "er"
      ],
      [
        "Ġsuc",
        "cess"
      ],
      [
        "l",
        "ive"
      ],
      [
        "Ġfe",
        "ar"
      ],
      [
        "Ġaf",
        "raid"
      ],
      [
        "Ġr",
        "are"
      ],
      [
        "p",
        "a"
      ],
      [
        "ar",
        "l"
      ],
      [
        "ĠS",
        "omet"
      ],
      [
        "Ġe",
        "ag"
      ],
      [
        "ic",
        "ked"
      ],
      [
        "Ġv",
        "an"
      ],
      [
        "Ġclean",
        "ed"
      ],
      [
        "Ġboun",
        "ce"
      ],
      [
        "Ġs",
        "que"
      ],
      [
        "izz",
        "a"
      ],
      [
        "Ġha",
        "ng"
      ],
      [
        "ĠP",
        "lease"
      ],
      [
        "H",
        "elp"
      ],
      [
        "m",
        "b"
      ],
      [
        "v",
        "ous"
      ],
      [
        "Ġsm",
        "iling"
      ],
      [
        "Ġbuild",
        "ing"
      ],
      [
        "sc",
        "ape"
      ],
      [
        "Ġsandw",
        "ich"
      ],
      [
        "Ġc",
        "age"
      ],
      [
        "ut",
        "e"
      ],
      [
        "Ġp",
        "ri"
      ],
      [
        "Ġm",
        "irr"
      ],
      [
        "ĠB",
        "ird"
      ],
      [
        "Ġch",
        "ase"
      ],
      [
        "Ġcreat",
        "ive"
      ],
      [
        "Ġsh",
        "ark"
      ],
      [
        "Ġbr",
        "idge"
      ],
      [
        "Ġtri",
        "es"
      ],
      [
        "Ġmirr",
        "or"
      ],
      [
        "Ġballoon",
        "s"
      ],
      [
        "Ġmat",
        "ter"
      ],
      [
        "Ġrel",
        "ie"
      ],
      [
        "Ġsa",
        "f"
      ],
      [
        "Ġfe",
        "et"
      ],
      [
        "ĠD",
        "on"
      ],
      [
        "er",
        "ries"
      ],
      [
        "Ġsh",
        "ip"
      ],
      [
        "Ġsear",
        "ch"
      ],
      [
        "Ġb",
        "erries"
      ],
      [
        "Ġp",
        "izza"
      ],
      [
        "Ġst",
        "ra"
      ],
      [
        "D",
        "ad"
      ],
      [
        "Ġb",
        "ake"
      ],
      [
        "Ġwa",
        "nd"
      ],
      [
        "ĠD",
        "oggy"
      ],
      [
        "Ġcho",
        "col"
      ],
      [
        "Ġsn",
        "ee"
      ],
      [
        "Ġclos",
        "et"
      ],
      [
        "Ġkne",
        "e"
      ],
      [
        "ĠT",
        "r"
      ],
      [
        "St",
        "op"
      ],
      [
        "Ġc",
        "ap"
      ],
      [
        "Ġcorn",
        "er"
      ],
      [
        "u",
        "ce"
      ],
      [
        "Ġn",
        "er"
      ],
      [
        "ĠM",
        "ary"
      ],
      [
        "Ġj",
        "et"
      ],
      [
        "Ġner",
        "vous"
      ],
      [
        "Ġhe",
        "llo"
      ],
      [
        "ĠS",
        "t"
      ],
      [
        "ĠH",
        "ow"
      ],
      [
        "if",
        "f"
      ],
      [
        "Ġfe",
        "ed"
      ],
      [
        "Ġth",
        "ick"
      ],
      [
        "Ġlo",
        "ck"
      ],
      [
        "Ġme",
        "asure"
      ],
      [
        "Ġcla",
        "ss"
      ],
      [
        "Ġmar",
        "ch"
      ],
      [
        "Ġthe",
        "se"
      ],
      [
        "Ġcl",
        "own"
      ],
      [
        "Ġcr",
        "own"
      ],
      [
        "Ġb",
        "arn"
      ],
      [
        "Ġher",
        "o"
      ],
      [
        "Ġmom",
        "s"
      ],
      [
        "Ġdec",
        "or"
      ],
      [
        "aught",
        "er"
      ],
      [
        "Ġpol",
        "ite"
      ],
      [
        "ra",
        "g"
      ],
      [
        "n",
        "ess"
      ],
      [
        "nd",
        "pa"
      ],
      [
        "Ġprin",
        "t"
      ],
      [
        "Ġfur",
        "ry"
      ],
      [
        "Ġpo",
        "or"
      ],
      [
        "u",
        "al"
      ],
      [
        "Ġb",
        "al"
      ],
      [
        "Ġc",
        "ri"
      ],
      [
        "Ġtow",
        "el"
      ],
      [
        "Ġclo",
        "ck"
      ],
      [
        "Ġkn",
        "ocked"
      ],
      [
        "Ġa",
        "p"
      ],
      [
        "Ġv",
        "ase"
      ],
      [
        "Ġbran",
        "ches"
      ],
      [
        "Ġsug",
        "ar"
      ],
      [
        "Ġcl",
        "ap"
      ],
      [
        "Ġchocol",
        "ate"
      ],
      [
        "ĠS",
        "ome"
      ],
      [
        "Ġr",
        "at"
      ],
      [
        "ad",
        "o"
      ],
      [
        "Ġsp",
        "ace"
      ],
      [
        "n",
        "ic"
      ],
      [
        "Ġst",
        "u"
      ],
      [
        "Ġpic",
        "nic"
      ],
      [
        "Ġst",
        "ir"
      ],
      [
        "ĠB",
        "ear"
      ],
      [
        "Ġt",
        "ent"
      ],
      [
        "Ġf",
        "at"
      ],
      [
        "le",
        "br"
      ],
      [
        "Ġmyster",
        "ious"
      ],
      [
        "Ġprot",
        "ect"
      ],
      [
        "Ġd",
        "aughter"
      ],
      [
        "ot",
        "e"
      ],
      [
        "Ġho",
        "se"
      ],
      [
        "Ġh",
        "ur"
      ],
      [
        "is",
        "p"
      ],
      [
        "Ġte",
        "le"
      ],
      [
        "Ġce",
        "lebr"
      ],
      [
        "Ġcou",
        "ch"
      ],
      [
        "Ġorgan",
        "ized"
      ],
      [
        "Ġt",
        "ick"
      ],
      [
        "ld",
        "erly"
      ],
      [
        "Ġl",
        "amp"
      ],
      [
        "Ġk",
        "icked"
      ],
      [
        "Ġdr",
        "ank"
      ],
      [
        "Ġres",
        "pect"
      ],
      [
        "Ġmu",
        "ff"
      ],
      [
        "ens",
        "ive"
      ],
      [
        "Ġembarrass",
        "ed"
      ],
      [
        "Ġwa",
        "ke"
      ],
      [
        "Ġdis",
        "co"
      ],
      [
        "Ġba",
        "ld"
      ],
      [
        "Ġrelie",
        "ved"
      ],
      [
        "Ġh",
        "ar"
      ],
      [
        "Ġd",
        "ull"
      ],
      [
        "an",
        "y"
      ],
      [
        "Ġy",
        "arn"
      ],
      [
        "ob",
        "e"
      ],
      [
        "vent",
        "ually"
      ],
      [
        "Ġpol",
        "ice"
      ],
      [
        "Ġwh",
        "isp"
      ],
      [
        "Ġexp",
        "ensive"
      ],
      [
        "Ġcoll",
        "ect"
      ],
      [
        "Ġexplor",
        "ing"
      ],
      [
        "Ġlo",
        "se"
      ],
      [
        "Ġcir",
        "cle"
      ],
      [
        "Ġpeace",
        "ful"
      ],
      [
        "Ġg",
        "as"
      ],
      [
        "Ġe",
        "lderly"
      ],
      [
        "Ġwor",
        "d"
      ],
      [
        "Ġp",
        "ay"
      ],
      [
        "Ġso",
        "ck"
      ],
      [
        "Ġtw",
        "ist"
      ],
      [
        "Ġchick",
        "en"
      ],
      [
        "Ġst",
        "at"
      ],
      [
        "Ġm",
        "is"
      ],
      [
        "Ġg",
        "igg"
      ],
      [
        "Ġyell",
        "ed"
      ],
      [
        "Ġ",
        "ind"
      ],
      [
        "Ġgr",
        "oup"
      ],
      [
        "iss",
        "ors"
      ],
      [
        "Ġtast",
        "ed"
      ],
      [
        "Ġinc",
        "red"
      ],
      [
        "Ġf",
        "ool"
      ],
      [
        "o",
        "ppy"
      ],
      [
        "y",
        "m"
      ],
      [
        "Ġr",
        "ough"
      ],
      [
        "Ġbec",
        "ome"
      ],
      [
        "Ġmix",
        "ed"
      ],
      [
        "l",
        "ves"
      ],
      [
        "Ġtoo",
        "l"
      ],
      [
        "Ġro",
        "se"
      ],
      [
        "Ġwould",
        "n"
      ],
      [
        "r",
        "ated"
      ],
      [
        "Ġle",
        "ad"
      ],
      [
        "Ġfi",
        "er"
      ],
      [
        "Ġgl",
        "ass"
      ],
      [
        "Ġincred",
        "ible"
      ],
      [
        "Ġ",
        "'"
      ],
      [
        "Ġwas",
        "hed"
      ],
      [
        "rag",
        "ile"
      ],
      [
        "o",
        "nd"
      ],
      [
        "Ġt",
        "er"
      ],
      [
        "Ġg",
        "en"
      ],
      [
        "Ġbe",
        "an"
      ],
      [
        "Ġwe",
        "ird"
      ],
      [
        "Ġwh",
        "ale"
      ],
      [
        "Ġex",
        "am"
      ],
      [
        "Ġsw",
        "ord"
      ],
      [
        "Ġunderst",
        "ood"
      ],
      [
        "Ġfier",
        "ce"
      ],
      [
        "Ġst",
        "ones"
      ],
      [
        "Ġbr",
        "ush"
      ],
      [
        "Ġpot",
        "ato"
      ],
      [
        "ĠSomet",
        "imes"
      ],
      [
        "Ġf",
        "ragile"
      ],
      [
        "Ġc",
        "and"
      ],
      [
        "ĠS",
        "p"
      ],
      [
        "ĠA",
        "l"
      ],
      [
        "Ġsc",
        "issors"
      ],
      [
        "Ġla",
        "b"
      ],
      [
        "Ġfl",
        "ag"
      ],
      [
        "k",
        "n"
      ],
      [
        "r",
        "obe"
      ],
      [
        "Ġpr",
        "ay"
      ],
      [
        "Ġcle",
        "ar"
      ],
      [
        "Ġpre",
        "s"
      ],
      [
        "im",
        "p"
      ],
      [
        "Ġgl",
        "ue"
      ],
      [
        "Ġad",
        "m"
      ],
      [
        "Ġfool",
        "ish"
      ],
      [
        "ig",
        "hed"
      ],
      [
        "Ġsp",
        "read"
      ],
      [
        "Ġfind",
        "ing"
      ],
      [
        "Ġter",
        "ri"
      ],
      [
        "Ġm",
        "ountain"
      ],
      [
        "Ġnut",
        "s"
      ],
      [
        "g",
        "u"
      ],
      [
        "Ġd",
        "izzy"
      ],
      [
        "Ġcom",
        "fortable"
      ],
      [
        "Ġbre",
        "ath"
      ],
      [
        "Ġfr",
        "ust"
      ],
      [
        "us",
        "ual"
      ],
      [
        "Ġhear",
        "s"
      ],
      [
        "Ġmight",
        "y"
      ],
      [
        "Ġt",
        "aught"
      ],
      [
        "Ġun",
        "usual"
      ],
      [
        "Ġstat",
        "ue"
      ],
      [
        "kn",
        "own"
      ],
      [
        "Ġsc",
        "are"
      ],
      [
        "Ġgu",
        "ess"
      ],
      [
        "Ġbubb",
        "les"
      ],
      [
        "al",
        "k"
      ],
      [
        "air",
        "s"
      ],
      [
        "Ġb",
        "itter"
      ],
      [
        "ĠBen",
        "ny"
      ],
      [
        "Ġfing",
        "er"
      ],
      [
        "Tom",
        "my"
      ],
      [
        "Ġsho",
        "e"
      ],
      [
        "Ġseed",
        "s"
      ],
      [
        "d",
        "le"
      ],
      [
        "Ġje",
        "ep"
      ],
      [
        "Ġm",
        "ic"
      ],
      [
        "Ġfrust",
        "rated"
      ],
      [
        "c",
        "ed"
      ],
      [
        "Ġte",
        "st"
      ],
      [
        "Ġfam",
        "ous"
      ],
      [
        "Ġt",
        "iger"
      ],
      [
        "Ġun",
        "known"
      ],
      [
        "p",
        "ort"
      ],
      [
        "Ġ",
        "3"
      ],
      [
        "Ġb",
        "urn"
      ],
      [
        "an",
        "ged"
      ],
      [
        "Ġse",
        "ll"
      ],
      [
        "Ġbl",
[...]
