{
  "version": "1.0",
  "truncation": null,
  "padding": null,
  "added_tokens": [
    {
      "id": 0,
      "content": "<|endoftext|>",
      "single_word": false,
      "lstrip": false,
      "rstrip": false,
      "normalized": false,
      "special": true
    }
  ],
  "normalizer": null,
  "pre_tokenizer": {
    "type": "ByteLevel",
    "add_prefix_space": false,
    "trim_offsets": true,
    "use_regex": true
  },
  "post_processor": null,
  "decoder": {
    "type": "ByteLevel",
    "add_prefix_space": true,
    "trim_offsets": true,
    "use_regex": true
  },
  "model": {
    "type": "BPE",
    "dropout": null,
    "unk_token": null,
    "continuing_subword_prefix": null,
    "end_of_word_suffix": null,
    "fuse_unk": false,
    "byte_fallback": false,
    "ignore_merges": false,
    "vocab": {
      "<|endoftext|>": 0,
      "!": 1,
      "\"": 2,
      "#": 3,
      "$": 4,
      "%": 5,
      "&": 6,
      "'": 7,
      "(": 8,
      ")": 9,
      "*": 10,
      "+": 11,
      ",": 12,
      "-": 13,
      ".": 14,
      "/": 15,
      "0": 16,
      "1": 17,
      "2": 18,
      "3": 19,
      "4": 20,
      "5": 21,
      "6": 22,
      "7": 23,
      "8": 24,
      "9": 25,
      ":": 26,
      ";": 27,
      "<": 28,
      "=": 29,
      ">": 30,
      "?": 31,
      "@": 32,
      "A": 33,
      "B": 34,
      "C": 35,
      "D": 36,
      "E": 37,
      "F": 38,
      "G": 39,
      "H": 40,
      "I": 41,
      "J": 42,
      "K": 43,
      "L": 44,
      "M": 45,
      "N": 46,
      "O": 47,
      "P": 48,
      "Q": 49,
      "R": 50,
      "S": 51,
      "T": 52,
      "U": 53,
      "V": 54,
      "W": 55,
      "X": 56,
      "Y": 57,
      "Z": 58,
      "[": 59,
      "\\": 60,
      "]": 61,
      "^": 62,
      "_": 63,
      "`": 64,
      "a": 65,
      "b": 66,
      "c": 67,
      "d": 68,
      "e": 69,
      "f": 70,
      "g": 71,
      "h": 72,
      "i": 73,
      "j": 74,
      "k": 75,
      "l": 76,
      "m": 77,
      "n": 78,
      "o": 79,
      "p": 80,
      "q": 81,
      "r": 82,
      "s": 83,
      "t": 84,
      "u": 85,
      "v": 86,
      "w": 87,
      "x": 88,
      "y": 89,
      "z": 90,
      "{": 91,
      "|": 92,
      "}": 93,
      "~": 94,
      "¡": 95,
      "¢": 96,
      "£": 97,
      "¤": 98,
      "¥": 99,
      "¦": 100,
      "§": 101,
      "¨": 102,
      "©": 103,
      "ª": 104,
      "«": 105,
      "¬": 106,
      "®": 107,
      "¯": 108,
      "°": 109,
      "±": 110,
      "²": 111,
      "³": 112,
      "´": 113,
      "µ": 114,
      "¶": 115,
      "·": 116,
      "¸": 117,
      "¹": 118,
      "º": 119,
      "»": 120,
      "¼": 121,
      "½": 122,
      "¾": 123,
      "¿": 124,
      "À": 125,
      "Á": 126,
      "Â": 127,
      "Ã": 128,
      "Ä": 129,
      "Å": 130,
      "Æ": 131,
      "Ç": 132,
      "È": 133,
      "É": 134,
      "Ê": 135,
      "Ë": 136,
      "Ì": 137,
      "Í": 138,
      "Î": 139,
      "Ï": 140,
      "Ð": 141,
      "Ñ": 142,
      "Ò": 143,
      "Ó": 144,
      "Ô": 145,
      "Õ": 146,
      "Ö": 147,
      "×": 148,
      "Ø": 149,
      "Ù": 150,
      "Ú": 151,
      "Û": 152,
      "Ü": 153,
      "Ý": 154,
      "Þ": 155,
      "ß": 156,
      "à": 157,
      "á": 158,
      "â": 159,
      "ã": 160,
      "ä": 161,
      "å": 162,
      "æ": 163,
      "ç": 164,
      "è": 165,
      "é": 166,
      "ê": 167,
      "ë": 168,
      "ì": 169,
      "í": 170,
      "î": 171,
      "ï": 172,
      "ð": 173,
      "ñ": 174,
      "ò": 175,
      "ó": 176,
      "ô": 177,
      "õ": 178,
      "ö": 179,
      "÷": 180,
      "ø": 181,
      "ù": 182,
      "ú": 183,
      "û": 184,
      "ü": 185,
      "ý": 186,
      "þ": 187,
      "ÿ": 188,
      "Ā": 189,
      "ā": 190,
      "Ă": 191,
      "ă": 192,
      "Ą": 193,
      "ą": 194,
      "Ć": 195,
      "ć": 196,
      "Ĉ": 197,
      "ĉ": 198,
      "Ċ": 199,
      "ċ": 200,
      "Č": 201,
      "č": 202,
      "Ď": 203,
      "ď": 204,
      "Đ": 205,
      "đ": 206,
      "Ē": 207,
      "ē": 208,
      "Ĕ": 209,
      "ĕ": 210,
      "Ė": 211,
      "ė": 212,
      "Ę": 213,
      "ę": 214,
      "Ě": 215,
      "ě": 216,
      "Ĝ": 217,
      "ĝ": 218,
      "Ğ": 219,
      "ğ": 220,
      "Ġ": 221,
      "ġ": 222,
      "Ģ": 223,
      "ģ": 224,
      "Ĥ": 225,
      "ĥ": 226,
      "Ħ": 227,
      "ħ": 228,
      "Ĩ": 229,
      "ĩ": 230,
      "Ī": 231,
      "ī": 232,
      "Ĭ": 233,
      "ĭ": 234,
      "Į": 235,
      "į": 236,
      "İ": 237,
      "ı": 238,
      "Ĳ": 239,
      "ĳ": 240,
      "Ĵ": 241,
      "ĵ": 242,
      "Ķ": 243,
      "ķ": 244,
      "ĸ": 245,
      "Ĺ": 246,
      "ĺ": 247,
      "Ļ": 248,
      "ļ": 249,
      "Ľ": 250,
      "ľ": 251,
      "Ŀ": 252,
      "ŀ": 253,
      "Ł": 254,
      "ł": 255,
      "Ń": 256,
      "Ġt": 257,
      "he": 258,
      "Ġa": 259,
      "Ġs": 260,
      "nd": 261,
      "Ġw": 262,
      "Ġthe": 263,
      "ed": 264,
      "Ġb": 265,
      "Ġto": 266,
      "Ġand": 267,
      "Ġh": 268,
      "Ġf": 269,
      "in": 270,
      "ĠT": 271,
      "Ġwa": 272,
      "re": 273,
      "it": 274,
      "ou": 275,
      "Ġl": 276,
      "Ġd": 277,
      "Ġc": 278,
      "Ġp": 279,
      "ay": 280,
      "Ġm": 281,
      "er": 282,
      "Ġwas": 283,
      "om": 284,
      "ĠThe": 285,
      "Ġhe": 286,
      "is": 287,
      "Ġn": 288,
      "ar": 289,
      "im": 290,
      "on": 291,
      "Ġsa": 292,
      "id": 293,
      "ll": 294,
      "Ġha": 295,
      "Ġg": 296,
      "at": 297,
      "ĠS": 298,
      "ing": 299,
      "ot": 300,
      "en": 301,
      "an": 302,
      "le": 303,
      "or": 304,
      "end": 305,
      "ir": 306,
      "of": 307,
      "am": 308,
      "et": 309,
      "ĠH": 310,
      "Ġit": 311,
      "Ġth": 312,
      "ig": 313,
      "ĠThey": 314,
      "Ġin": 315,
      "il": 316,
      "Ġpl": 317,
      "ĠHe": 318,
      "Ġ\"": 319,
      "ow": 320,
      "ver": 321,
      "ri": 322,
      "ut": 323,
      "Ġbe": 324,
      "Ġu": 325,
      "Ġplay": 326,
      "Ġsaid": 327,
      "ith": 328,
      "Ġday": 329,
      "pp": 330,
      "Ġwith": 331,
      "On": 332,
      "Ġy": 333,
      "oo": 334,
      "ked": 335,
      "Ġr": 336,
      "ex": 337,
      "Ġher": 338,
      "ce": 339,
      "ĠI": 340,
      "ĠShe": 341,
      "ld": 342,
      "ĠTim": 343,
      "Ġhis": 344,
      "Ġst": 345,
      "ke": 346,
      "Ġbig": 347,
      "nt": 348,
      "ck": 349,
      "Ġyou": 350,
      "very": 351,
      "st": 352,
      "ve": 353,
      "Ġon": 354,
      "un": 355,
      "Ġhapp": 356,
      "riend": 357,
      "Ġfriend": 358,
      "all": 359,
      "ily": 360,
      "ext": 361,
      "ĠL": 362,
      "Ġthey": 363,
      "oft": 364,
      "Ġwe": 365,
      "Ġhad": 366,
      "Ġnot": 367,
      "Ġli": 368,
      "Ġup": 369,
      "her": 370,
      "Ġwant": 371,
      "Ġof": 372,
      "ad": 373,
      "itt": 374,
      "<|": 375,
      "|>": 376,
      "endoft": 377,
      "endoftext": 378,
      "se": 379,
      "ĠB": 380,
      "Ġdo": 381,
      "Ġe": 382,
      "Ġhappy": 383,
      "ent": 384,
      "ĠM": 385,
      "Ġvery": 386,
      "es": 387,
      "Ġthat": 388,
      "Ġsaw": 389,
      "One": 390,
      "'s": 391,
      "ould": 392,
      "Ġmom": 393,
      "Ġfor": 394,
      "Ġsh": 395,
      "ittle": 396,
      "Ġlittle": 397,
      "Ġshe": 398,
      "ime": 399,
      "ch": 400,
      "Ġnam": 401,
      ".\"": 402,
      "Ġtime": 403,
      "Ġso": 404,
      "Ġk": 405,
      "ound": 406,
      "Ġthere": 407,
      "Ġnamed": 408,
      "Ġsm": 409,
      "Ġbo": 410,
      "ĠLily": 411,
      "Ġwere": 412,
      "Ġne": 413,
      "Ġwanted": 414,
      "out": 415,
      "Ġbut": 416,
      "Ġfriends": 417,
      "The": 418,
      "ved": 419,
      "!\"": 420,
      "ht": 421,
      "ĠTom": 422,
      "ird": 423,
      "el": 424,
      "Ġbird": 425,
      "al": 426,
      "Ġan": 427,
      "ake": 428,
      "Ġtoo": 429,
      "ome": 430,
      "ĠIt": 431,
      "ug": 432,
      "ide": 433,
      "Ġwent": 434,
      "Ġwh": 435,
      "Ġhel": 436,
      "Once": 437,
      "Ġis": 438,
      "Ġall": 439,
      "ue": 440,
      "Ġhelp": 441,
      "Ġloo": 442,
      "Ġlo": 443,
      "ter": 444,
      "ĠA": 445,
      "Ġupon": 446,
      "ry": 447,
      "ore": 448,
      "Ġfun": 449,
      "ind": 450,
      "get": 451,
      "ill": 452,
      "Ġtoy": 453,
      "ame": 454,
      "Ġas": 455,
      "Ġat": 456,
      "Ġj": 457,
      "ra": 458,
      "Ġdid": 459,
      "gether": 460,
      "Ġre": 461,
      "Ġo": 462,
      "ur": 463,
      "Ġtogether": 464,
      "Ġse": 465,
      "Ġcat": 466,
      "ack": 467,
      "Ġtre": 468,
      "ly": 469,
      "ood": 470,
      "ic": 471,
      "Ġdog": 472,
      "ted": 473,
      "Ġcould": 474,
      "Ġcan": 475,
      "Ġtheir": 476,
      "ard": 477,
      "ark": 478,
      "ec": 479,
      "Ġgir": 480,
      "Ġplayed": 481,
      "Ġhim": 482,
      "Ġball": 483,
      "Ġgirl": 484,
      "?\"": 485,
      "Ġro": 486,
      "way": 487,
      "Ġgo": 488,
      "Ġout": 489,
      "my": 490,
      "Ġare": 491,
      "hed": 492,
      "ain": 493,
      "Ġfr": 494,
      "Ġle": 495,
      "Ġkn": 496,
      "hen": 497,
      "'t": 498,
      "um": 499,
      "Ġthem": 500,
      "ax": 501,
      "Ġsad": 502,
      "ul": 503,
      "Ġtree": 504,
      "Ġboy": 505,
      "other": 506,
      "Ġhave": 507,
      "Ġman": 508,
      "Ġcl": 509,
      "Ġloved": 510,
      "Ġlooked": 511,
      "oug": 512,
      "Ġfound": 513,
      "Ġsp": 514,
      "Ġstar": 515,
      "ĠSue": 516,
      "hing": 517,
      "one": 518,
      "Ġsc": 519,
      "Ġback": 520,
      "ĠMax": 521,
      "own": 522,
      "Ġlike": 523,
      "are": 524,
      "side": 525,
      "ful": 526,
      "Ġme": 527,
      "Ġbec": 528,
      "ight": 529,
      "ong": 530,
      "Ġpark": 531,
      "Ġcar": 532,
      "op": 533,
      "elt": 534,
      "ĠOne": 535,
      "Ġliked": 536,
      "Ġwould": 537,
      "round": 538,
      "Ġmake": 539,
      "Ġla": 540,
      "Ġfa": 541,
      "Ġfelt": 542,
      "You": 543,
      "Ġsee": 544,
      "ĠW": 545,
      "ell": 546,
      "ĠBut": 547,
      "omet": 548,
      "ouse": 549,
      "Ġasked": 550,
      "ag": 551,
      "Ġno": 552,
      "Ġnew": 553,
      "ĠSam": 554,
      "Ġstarted": 555,
      "ared": 556,
      "ice": 557,
      "Ġcame": 558,
      "ĠBen": 559,
      "Ġal": 560,
      "Ġother": 561,
      "ought": 562,
      "iled": 563,
      "Ġag": 564,
      "Ġsomet": 565,
      "Ġgood": 566,
      "Ġsmall": 567,
      "Ġbr": 568,
      "ss": 569,
      "Ġsay": 570,
      "Ġsmiled": 571,
      "ried": 572,
      "ade": 573,
      "ings": 574,
      "ĠĊ": 575,
      "ob": 576,
      "pot": 577,
      "Ġfind": 578,
      "Ġwor": 579,
      "Ġaway": 580,
      "Ġex": 581,
      "Ġput": 582,
      "ia": 583,
      "Ġwhat": 584,
      "Ġsomething": 585,
      "ty": 586,
      "Ġfrom": 587,
      "Ġmade": 588,
      "Ġthought": 589,
      "ened": 590,
      "Ġhome": 591,
      "Ġco": 592,
      "Ġplaying": 593,
      "Ġevery": 594,
      "Ġwal": 595,
      "ook": 596,
      "Ġmu": 597,
      "ach": 598,
      "uc": 599,
      "ĠSpot": 600,
      "Ġran": 601,
      "arn": 602,
      "ĠF": 603,
      "ĠJ": 604,
      "ile": 605,
      "ie": 606,
      "Ġhouse": 607,
      "Ġagain": 608,
      "dd": 609,
      "Ġsome": 610,
      "ave": 611,
      "Ġlaug": 612,
      "Ġdown": 613,
      "Ġfl": 614,
      "king": 615,
      "Ġscared": 616,
      "ny": 617,
      "Ġtook": 618,
      "ure": 619,
      "Ġpr": 620,
      "ick": 621,
      "Ġwill": 622,
      "Ġtoys": 623,
      "Ġbox": 624,
      "if": 625,
      "Ġlearn": 626,
      "ĠYou": 627,
      "Ġaround": 628,
      "ab": 629,
      "ret": 630,
      "ep": 631,
      "Ġthings": 632,
      "Ġmy": 633,
      "Ġyour": 634,
      "uck": 635,
      "Ġbl": 636,
      "oud": 637,
      "Ġwhen": 638,
      "Ġsun": 639,
      "Ġfe": 640,
      "ish": 641,
      "Ġlived": 642,
      "Ġsw": 643,
      "Ġthen": 644,
      "as": 645,
      "us": 646,
      "pped": 647,
      ",\"": 648,
      "Ġch": 649,
      "Ġab": 650,
      "ĠMia": 651,
      "ank": 652,
      "Ġget": 653,
      "Tim": 654,
      "ump": 655,
      "Ġlot": 656,
      "ucy": 657,
      "Th": 658,
      "oth": 659,
      "ap": 660,
      "ist": 661,
      "Ġtried": 662,
      "Ġsays": 663,
      "Ġgot": 664,
      "Ġknow": 665,
      "ited": 666,
      "ust": 667,
      "Ġwho": 668,
      "Ġkne": 669,
      "Ġmany": 670,
      "nder": 671,
      "Ġabout": 672,
      "Ġint": 673,
      "Lily": 674,
      "Ġpret": 675,
      "Ġany": 676,
      "Ġdec": 677,
      "Ġred": 678,
      "ĠD": 679,
      "ive": 680,
      "Ġknew": 681,
      "ise": 682,
      "ous": 683,
      "ace": 684,
      "Ġmore": 685,
      "Ġpic": 686,
      "Ġv": 687,
      "Ġhug": 688,
      "Ġcare": 689,
      "ally": 690,
      "qu": 691,
      "au": 692,
      "Ġwater": 693,
      "Ġbest": 694,
      "fter": 695,
      "ĠLucy": 696,
      "Ġbecame": 697,
      "Ġpo": 698,
      "Ġlearned": 699,
      "Ġexc": 700,
      "Ġop": 701,
      "ause": 702,
      "Ġoutside": 703,
      "urp": 704,
      "Ġgre": 705,
      "âĢ": 706,
      "ways": 707,
      "Ġlaughed": 708,
      "Ġlook": 709,
      "Ġalways": 710,
      "Ġshow": 711,
      "Ġdecid": 712,
      "ĠBob": 713,
      "Ġun": 714,
      "Ġroom": 715,
      "ĠSo": 716,
      "Ġho": 717,
      "Ġbecause": 718,
      "Ġdecided": 719,
      "ite": 720,
      "fe": 721,
      "Ġeat": 722,
      "Ġboth": 723,
      "Ġinto": 724,
      "ĠAnd": 725,
      "Ġjump": 726,
      "ant": 727,
      "ĠMom": 728,
      "ers": 729,
      "Ġpe": 730,
      "udd": 731,
      "They": 732,
      "Ġdad": 733,
      "Ġone": 734,
      "Ġke": 735,
      "nn": 736,
      "Ġexcited": 737,
      "Ġfeel": 738,
      "Ġnice": 739,
      "Ġthis": 740,
      "Ġfast": 741,
      "Ġlong": 742,
      "Yes": 743,
      "Tom": 744,
      "ĠE": 745,
      "Ġrun": 746,
      "Ġsk": 747,
      "Ġtold": 748,
      "urpr": 749,
      "Ġtr": 750,
      "Ġam": 751,
      "Ġinside": 752,
      "ull": 753,
      "our": 754,
      "Ġsurpr": 755,
      "Ġmo": 756,
      "ink": 757,
      "Ġpretty": 758,
      "iny": 759,
      "Ġtake": 760,
      "Ġsor": 761,
      "Wh": 762,
      "Ġgra": 763,
      "nna": 764,
      "og": 765,
      "Ġeach": 766,
      "Ġsl": 767,
      "lew": 768,
      "Ġgave": 769,
      "Ġmuch": 770,
      "Ġstr": 771,
      "Ġrock": 772,
      "ged": 773,
      "Ġhow": 774,
      "imal": 775,
      "Ġanimal": 776,
      "Ġneed": 777,
      "ara": 778,
      "etter": 779,
      "Ġthan": 780,
      "Ġor": 781,
      "But": 782,
      "Ġtow": 783,
      "ven": 784,
      "Ġold": 785,
      "ĠC": 786,
      "Ġunder": 787,
      "ess": 788,
      "Ġsorry": 789,
      "ge": 790,
      "ised": 791,
      "ro": 792,
      "urt": 793,
      "and": 794,
      "Ġfish": 795,
      "Ġcle": 796,
      "Ġwalked": 797,
      "Ġclo": 798,
      "Ġhand": 799,
      "Ġbear": 800,
      "Ġta": 801,
      "ase": 802,
      "urn": 803,
      "ĠHis": 804,
      "ĠWe": 805,
      "Ġkind": 806,
      "Ġjust": 807,
      "here": 808,
      "Ġflow": 809,
      "Ġdidn": 810,
      "Ġhappened": 811,
      "Ġfood": 812,
      "Ġte": 813,
      "pl": 814,
      "Ġide": 815,
      "Ġtry": 816,
      "Ġwat": 817,
      "ine": 818,
      "Ġhig": 819,
      "Ġanimals": 820,
      "Ġnear": 821,
      "Ġlist": 822,
      "Ġsky": 823,
      "ched": 824,
      "ving": 825,
      "Ġidea": 826,
      "rom": 827,
      "Ġsn": 828,
      "Ġfi": 829,
      "Ġus": 830,
      "Ġbetter": 831,
      "Ġheard": 832,
      "Ġits": 833,
      "ĠAmy": 834,
      "Ġbug": 835,
      "Ġtw": 836,
      "ff": 837,
      "gry": 838,
      "Ġlet": 839,
      "pec": 840,
      "Ġen": 841,
      "able": 842,
      "Ġshare": 843,
      "ate": 844,
      "Ġcareful": 845,
      "Ġif": 846,
      "Thank": 847,
      "Mom": 848,
      "Ġstor": 849,
      "ĠTh": 850,
      "Ġfly": 851,
      "ial": 852,
      "Ġflew": 853,
      "more": 854,
      "Ġanymore": 855,
      "Ġspec": 856,
      "Ġspecial": 857,
      "Ġcom": 858,
      "ion": 859,
      "Ġnever": 860,
      "Ġlots": 861,
      "lf": 862,
      "Ġby": 863,
      "Ġdan": 864,
      "Ġwind": 865,
      "Ġfo": 866,
      "Ġdon": 867,
      "Ġtal": 868,
      "Ġbu": 869,
      "Ġgr": 870,
      "Ġlove": 871,
      "Ġclean": 872,
      "Ġend": 873,
      "rm": 874,
      "ream": 875,
      "ĠThen": 876,
      "Ġeven": 877,
      "Ġfore": 878,
      "ort": 879,
      "ber": 880,
      "ople": 881,
      "Ġshiny": 882,
      "udden": 883,
      "Ġhard": 884,
      "Ġover": 885,
      "Ġcake": 886,
      "Ġmag": 887,
      "Ġturn": 888,
      "Ġcol": 889,
      "ĠAnna": 890,
      "uddenly": 891,
      "Ġafter": 892,
      "Ġbad": 893,
      "Ġsafe": 894,
      "Ġbook": 895,
      "Let": 896,
      "Ġfam": 897,
      "ady": 898,
      "imb": 899,
      "ĠEvery": 900,
      "Ġhurt": 901,
      "Ġsurprised": 902,
      "pected": 903,
      "Ġproud": 904,
      "Ġhigh": 905,
      "bb": 906,
      "Ġdoor": 907,
      "Ġclimb": 908,
      "Ġpeople": 909,
      "Ġcome": 910,
      "Ġground": 911,
      "Ġcu": 912,
      "arden": 913,
      "Ġgarden": 914,
      "Ġgl": 915,
      "Ġopened": 916,
      "Ġpicked": 917,
      "Ġbea": 918,
      "Ġloud": 919,
      "expected": 920,
      "Ġunexpected": 921,
      "Ġche": 922,
      "As": 923,
      "Ġgive": 924,
      "ild": 925,
      "Ġblue": 926,
      "Ġway": 927,
      "Ġim": 928,
      "'m": 929,
      "Ġthanked": 930,
      "Ġstill": 931,
      "Ġhugged": 932,
      "Ġcolor": 933,
      "Ġever": 934,
      "ĠFrom": 935,
      "ĠHer": 936,
      "Ġfar": 937,
      "Ġcall": 938,
      "Ġoff": 939,
      "No": 940,
      "ip": 941,
      "ĠWhen": 942,
      "ummy": 943,
      "ĠK": 944,
      "age": 945,
      "iz": 946,
      "ĠSara": 947,
      "ough": 948,
      "Ġmagic": 949,
      "Ġjumped": 950,
      "uff": 951,
      "ool": 952,
      "Ġkid": 953,
      "Ġshould": 954,
      "Ġfamily": 955,
      "Ġsmile": 956,
      "Ġpar": 957,
      "kay": 958,
      "Ġwalk": 959,
      "hes": 960,
      "Ġplace": 961,
      "ĠIn": 962,
      "Ġqu": 963,
      "les": 964,
      "ct": 965,
      "Ġnow": 966,
      "em": 967,
      "Ġstay": 968,
      "Ġgreat": 969,
      "Ġma": 970,
      "Ġpa": 971,
      "Ġforest": 972,
      "ture": 973,
      "Ġstrong": 974,
      "Ġsto": 975,
      "Ġunt": 976,
      "ane": 977,
      "itty": 978,
      "ĠP": 979,
      "Ġstick": 980,
      "Ġbra": 981,
      "Ġbeaut": 982,
      "Ġuntil": 983,
      "Ġbro": 984,
      "dy": 985,
      "ning": 986,
      "Ġfrog": 987,
      "Ġsqu": 988,
      "Ġnext": 989,
      "Ġboat": 990,
      "oon": 991,
      "ak": 992,
      "lease": 993,
      "Ġhappily": 994,
      "Ġkids": 995,
      "iful": 996,
      "unny": 997,
      "Ġbeautiful": 998,
      "ies": 999,
      "oy": 1000,
      "Ġapp": 1001,
      "th": 1002,
      "Ġlisten": 1003,
      "Ġwhile": 1004,
      "Ġclos": 1005,
      "Ġshowed": 1006,
      "Ġdra": 1007,
      "Ġhelped": 1008,
      "Ġstory": 1009,
      "Ġrain": 1010,
      "Ġpicture": 1011,
      "Ġtra": 1012,
      "be": 1013,
      "rel": 1014,
      "Ġbeing": 1015,
      "Ġtown": 1016,
      "Ġimp": 1017,
      "pt": 1018,
      "ress": 1019,
      "Ġeveryone": 1020,
      "ree": 1021,
      "ary": 1022,
      "It": 1023,
      "Ġmor": 1024,
      "Ġhat": 1025,
      "Ġrem": 1026,
      "Ġad": 1027,
      "Ġstopped": 1028,
      "Ġgame": 1029,
      "Ġcalled": 1030,
      "Ġmet": 1031,
      "Ġwo": 1032,
      "Now": 1033,
      "uffy": 1034,
      "Can": 1035,
      "He": 1036,
      "Ġca": 1037,
      "Ġtruck": 1038,
      "Ġsoft": 1039,
      "Ġopen": 1040,
      "Ġcry": 1041,
      "When": 1042,
      "by": 1043,
      "Ġangry": 1044,
      "Ġyummy": 1045,
      "Ġbed": 1046,
      "ger": 1047,
      "ĠLet": 1048,
      "Ġkeep": 1049,
      "vent": 1050,
      "Ġwarm": 1051,
      "ĠSally": 1052,
      "ĠKitty": 1053,
      "ĠWh": 1054,
      "Ġlost": 1055,
      "Ġmouse": 1056,
      "Ġcouldn": 1057,
      "Ġbrave": 1058,
      "Ġate": 1059,
      "Ġwatch": 1060,
      "fore": 1061,
      "Ġde": 1062,
      "so": 1063,
      "dded": 1064,
      "Ġalso": 1065,
      "ĠR": 1066,
      "Ġfell": 1067,
      "Ġdoll": 1068,
      "Ġtwo": 1069,
      "Ġgreen": 1070,
      "Ġleave": 1071,
      "Ġface": 1072,
      "ished": 1073,
      "Ġnoise": 1074,
      "bit": 1075,
      "gan": 1076,
      "Ġflowers": 1077,
      "What": 1078,
      "iss": 1079,
      "abbit": 1080,
      "ble": 1081,
      "Ġwhere": 1082,
      "irst": 1083,
      "owl": 1084,
      "luffy": 1085,
      "Ġsoon": 1086,
      "ock": 1087,
      "self": 1088,
      "Ġrabbit": 1089,
      "Ġpus": 1090,
      "Ġhear": 1091,
      "Ġslide": 1092,
      "Ġsat": 1093,
      "Ġbefore": 1094,
      "illy": 1095,
      "irrel": 1096,
      "Ġhole": 1097,
      "Ġhands": 1098,
      "ma": 1099,
      "ired": 1100,
      "Then": 1101,
      "ear": 1102,
      "Hi": 1103,
      "Ġnodded": 1104,
      "Ġuse": 1105,
      "âĢĿ": 1106,
      "Ġexpl": 1107,
      "âĢľ": 1108,
      "Ġsquirrel": 1109,
      "Ġkept": 1110,
      "Ġpain": 1111,
      "That": 1112,
      "Look": 1113,
      "Ġgoing": 1114,
      "Ġstore": 1115,
      "Ġbirds": 1116,
      "Ġcook": 1117,
      "ĠFluffy": 1118,
      "Ġhaving": 1119,
      "Ġey": 1120,
      "day": 1121,
      "Ġsing": 1122,
      "Ġfunny": 1123,
      "Ġcatch": 1124,
      "az": 1125,
      "leep": 1126,
      "aybe": 1127,
      "uit": 1128,
      "Ġbre": 1129,
      "ught": 1130,
      "Ben": 1131,
      "Ġbunny": 1132,
      "Ġthink": 1133,
      "Ġfin": 1134,
      "Ġfix": 1135,
      "Ġwr": 1136,
      "ange": 1137,
      "ĠCan": 1138,
      "Ġyell": 1139,
      "Ġbus": 1140,
      "Ġlooking": 1141,
      "Ġour": 1142,
      "Ġtired": 1143,
      "Ġused": 1144,
      "thing": 1145,
      "Ġpull": 1146,
      "uch": 1147,
      "We": 1148,
      "Ġcra": 1149,
      "ting": 1150,
      "Ġkit": 1151,
      "air": 1152,
      "ĠNow": 1153,
      "Ġwork": 1154,
      "Ġhas": 1155,
      "Ġjo": 1156,
      "Ġwait": 1157,
      "Ġsound": 1158,
      "Ġsunny": 1159,
      "Ġthr": 1160,
      "Ġpond": 1161,
      "Ġothers": 1162,
      "Ġmean": 1163,
      "Ġbeh": 1164,
      "Ġask": 1165,
      "chen": 1166,
      "Ġkitchen": 1167,
      "ĠG": 1168,
      "Ġdr": 1169,
      "ng": 1170,
      "ember": 1171,
      "Ġflo": 1172,
      "Ġtalk": 1173,
      "led": 1174,
      "rew": 1175,
      "ĠJo": 1176,
      "Ġhead": 1177,
      "Ġeyes": 1178,
      "joy": 1179,
      "Ġpie": 1180,
      "Ġdif": 1181,
      "Ġfav": 1182,
      "Ġfirst": 1183,
      "Ġreal": 1184,
      "ello": 1185,
      "Ġtri": 1186,
      "Hello": 1187,
      "Ġflower": 1188,
      "Ġmommy": 1189,
      "Ġmess": 1190,
      "Ġright": 1191,
      "Ġcon": 1192,
      "Ġz": 1193,
      "orn": 1194,
      "ious": 1195,
      "ĠJack": 1196,
      "ath": 1197,
      "Ġremember": 1198,
      "Ġvo": 1199,
      "ĠâĢľ": 1200,
      "Ġswe": 1201,
      "Ġcold": 1202,
      "ft": 1203,
      "Ġcuri": 1204,
      "Ġduck": 1205,
      "Ġrace": 1206,
      "ĠDo": 1207,
      "Ġimport": 1208,
      "imes": 1209,
      "Ġenjoy": 1210,
      "zy": 1211,
      "Ġparty": 1212,
      "Ġadvent": 1213,
      "Ġmoral": 1214,
      "Ġsand": 1215,
      "llow": 1216,
      "Ġshared": 1217,
      "Ġbright": 1218,
      "ac": 1219,
      "Ġokay": 1220,
      "reed": 1221,
      "Ġcurious": 1222,
      "Ġhop": 1223,
      "Ġmaking": 1224,
      "Ġworked": 1225,
      "At": 1226,
      "ster": 1227,
      "Ġhid": 1228,
      "Ġown": 1229,
      "Ġdress": 1230,
      "ount": 1231,
      "Ġimportant": 1232,
      "Ġyard": 1233,
      "Ġcla": 1234,
      "Ġhill": 1235,
      "Ġfavor": 1236,
      "Ġsleep": 1237,
      "Ġfavorite": 1238,
      "Ġtall": 1239,
      "Ġdir": 1240,
      "Ġmon": 1241,
      "Ġhere": 1242,
      "Ġbegan": 1243,
      "Ġthing": 1244,
      "Ġrest": 1245,
      "Wow": 1246,
      "Ġdis": 1247,
      "Ġri": 1248,
      "Ġdraw": 1249,
      "Don": 1250,
      "ĠFin": 1251,
      "Ġbag": 1252,
      "hn": 1253,
      "Ġtell": 1254,
      "ken": 1255,
      "Ġfollow": 1256,
      "Ġice": 1257,
      "que": 1258,
      "Ġwatched": 1259,
      "Ġagreed": 1260,
      "Ġmove": 1261,
      "lly": 1262,
      "Ġnight": 1263,
      "ect": 1264,
      "co": 1265,
      "Ġpick": 1266,
      "Ġsurprise": 1267,
      "aper": 1268,
      "Ġblock": 1269,
      "Ġbel": 1270,
      "Ġstop": 1271,
      "Ġhun": 1272,
      "Ġtrees": 1273,
      "Ġhot": 1274,
      "Ġcut": 1275,
      "ĠThis": 1276,
      "Ġsho": 1277,
      "Ġdark": 1278,
      "Ġgrass": 1279,
      "After": 1280,
      "Ġbehind": 1281,
      "ied": 1282,
      "Ġvoice": 1283,
      "Ġfloor": 1284,
      "Ġworry": 1285,
      "Ġtop": 1286,
      "Ġtable": 1287,
      "Ġsong": 1288,
      "Ġwalking": 1289,
      "Ġru": 1290,
      "Ġtail": 1291,
      "ĠDad": 1292,
      "Ġlion": 1293,
      "Ġforg": 1294,
      "Ġcolors": 1295,
      "Ġfarm": 1296,
      "fere": 1297,
      "Max": 1298,
      "Ġplease": 1299,
      "Ġsweet": 1300,
      "Ġdiffere": 1301,
      "Ġshout": 1302,
      "Ġlady": 1303,
      "Ġread": 1304,
      "Ġleaves": 1305,
      "aring": 1306,
      "Ġcloser": 1307,
      "Ġturned": 1308,
      "ign": 1309,
      "Ġneeded": 1310,
      "isy": 1311,
      "âĢĻ": 1312,
      "Ġtast": 1313,
      "Ġwood": 1314,
      "Why": 1315,
      "Ġbutter": 1316,
      "ĠSuddenly": 1317,
      "Ġpiece": 1318,
      "Ġfeeling": 1319,
      "Ġadventure": 1320,
      "Ġdoes": 1321,
      "Ġdel": 1322,
      "ered": 1323,
      "Ġdifferent": 1324,
      "Ġcars": 1325,
      "ĠMr": 1326,
      "Ġcried": 1327,
      "Ġlaugh": 1328,
      "Ġroll": 1329,
      "Ġhungry": 1330,
      "Ġcr": 1331,
      "Anna": 1332,
      "Ġpaper": 1333,
      "Ġprin": 1334,
      "Sue": 1335,
      "Ġfull": 1336,
      "Ġswing": 1337,
      "Ġfire": 1338,
      "Ġyellow": 1339,
      "bo": 1340,
      "ĠAs": 1341,
      "Ġfriendly": 1342,
      "Ġhair": 1343,
      "Ġwet": 1344,
      "Ġper": 1345,
      "ike": 1346,
      "oom": 1347,
      "ient": 1348,
      "ĠThat": 1349,
      "cked": 1350,
      "Ġfruit": 1351,
      "ater": 1352,
      "Ġtouch": 1353,
      "Ġbroken": 1354,
      "Sam": 1355,
      "ached": 1356,
      "Ġanother": 1357,
      "ppy": 1358,
      "bye": 1359,
      "Ġclimbed": 1360,
      "Ġlight": 1361,
      "Ġready": 1362,
      "Ġprom": 1363,
      "Ġdance": 1364,
      "Ġrunning": 1365,
      "Ġplan": 1366,
      "ĠBobo": 1367,
      "Ġlistened": 1368,
      "Ġpretend": 1369,
      "Ġswim": 1370,
      "where": 1371,
      "Ġdanc": 1372,
      "ĠJane": 1373,
      "Ġsmell": 1374,
      "bbed": 1375,
      "Ġonly": 1376,
      "Ġgone": 1377,
      "She": 1378,
      "Ġclose": 1379,
      "sh": 1380,
      "Suddenly": 1381,
      "ndma": 1382,
      "av": 1383,
      "Ġwonder": 1384,
      "Ġamaz": 1385,
      "Ġhold": 1386,
      "Ġblocks": 1387,
      "ins": 1388,
      "Ġwall": 1389,
      "So": 1390,
      "Sara": 1391,
      "ĠAll": 1392,
      "Ġglad": 1393,
      "Ġrepl": 1394,
      "aby": 1395,
      "ila": 1396,
      "Ġant": 1397,
      "Ġsees": 1398,
      "ĠTimmy": 1399,
      "Ġhelping": 1400,
      "Ġdri": 1401,
      "oney": 1402,
      "Ġslow": 1403,
      "Ġpu": 1404,
      "Ġreached": 1405,
      "Ġfight": 1406,
      "Ġcool": 1407,
      "Ġgoodbye": 1408,
      "red": 1409,
      "Ġbeen": 1410,
      "Ġpushed": 1411,
      "iced": 1412,
      "Ġac": 1413,
      "Ġwindow": 1414,
      "Ġmoment": 1415,
      "Ġexplore": 1416,
      "Mia": 1417,
      "Ġhide": 1418,
      "Ġfair": 1419,
      "Ġless": 1420,
      "ather": 1421,
      "Ġar": 1422,
      "af": 1423,
      "ĠEveryone": 1424,
      "Ġstuck": 1425,
      "Ġcream": 1426,
      "Ġtrying": 1427,
      "icy": 1428,
      "Ġmust": 1429,
      "ĠO": 1430,
      "Ġsit": 1431,
      "Ġbutterf": 1432,
      "Ġperf": 1433,
      "Ġwag": 1434,
      "Ġname": 1435,
      "Ġmight": 1436,
      "Ġste": 1437,
      "Ġapple": 1438,
      "Ġcoming": 1439,
      "Ġbaby": 1440,
      "Ġdone": 1441,
      "Ġthank": 1442,
      "Ġbit": 1443,
      "ized": 1444,
      "Ġsnow": 1445,
      "Ġquick": 1446,
      "Ġfall": 1447,
      "Ġlooks": 1448,
      "Ġbuy": 1449,
      "Ġheld": 1450,
      "Ġchild": 1451,
      "Ġdoing": 1452,
      "Ġscary": 1453,
      "Ġunderst": 1454,
      "Ġballoon": 1455,
      "ott": 1456,
      "Ġbar": 1457,
      "Ġdirty": 1458,
      "ash": 1459,
      "Ġbuild": 1460,
      "Ġwished": 1461,
      "Ġdin": 1462,
      "Ġtrain": 1463,
      "In": 1464,
      "key": 1465,
      "aisy": 1466,
      "Ġdream": 1467,
      "ames": 1468,
      "Ġleft": 1469,
      "Ġmar": 1470,
      "Ġreplied": 1471,
      "Ġreach": 1472,
      "Ġtiny": 1473,
      "Ġbran": 1474,
      "Ġair": 1475,
      "Ġcloud": 1476,
      "avy": 1477,
      "Ġwin": 1478,
      "Ġdro": 1479,
      "Ġshouted": 1480,
      "Ġclapped": 1481,
      "Ġpulled": 1482,
      "Ġwise": 1483,
      "Ġbrother": 1484,
      "Ġthree": 1485,
      "ely": 1486,
      "Ġbooks": 1487,
      "andy": 1488,
      "Ġspl": 1489,
      "Ġcount": 1490,
      "Ġgrow": 1491,
      "Ġchair": 1492,
      "Ġowl": 1493,
      "Ġthrough": 1494,
      "Ġwhy": 1495,
      "Ġwoods": 1496,
      "Ġmat": 1497,
      "'re": 1498,
      "Ġsure": 1499,
      "Ġswam": 1500,
      "Ġtreat": 1501,
      "Ġland": 1502,
      "ix": 1503,
      "Ġseen": 1504,
      "Ġcup": 1505,
      "Ġpink": 1506,
      "outh": 1507,
      "Ġnest": 1508,
      "Ġsometimes": 1509,
      "Ġmouth": 1510,
      "Okay": 1511,
      "Ġfill": 1512,
      "ask": 1513,
      "Ġcre": 1514,
      "Ġjoin": 1515,
      "oup": 1516,
      "ield": 1517,
      "Ġpaint": 1518,
      "Ġgrabbed": 1519,
      "uddy": 1520,
      "Ġjob": 1521,
      "ower": 1522,
      "art": 1523,
      "Ġcolorful": 1524,
      "pe": 1525,
      "Ġbutterfly": 1526,
      "ph": 1527,
      "Ġstayed": 1528,
      "Ġremembered": 1529,
      "Ġcont": 1530,
      "Ġbigger": 1531,
      "ĠAfter": 1532,
      "ĠThere": 1533,
      "Ġwaited": 1534,
      "ĠMommy": 1535,
      "This": 1536,
      "Ġplant": 1537,
      "Ġwaved": 1538,
      "Oh": 1539,
      "Ġlesson": 1540,
      "room": 1541,
      "ds": 1542,
      "Ġblew": 1543,
      "Ġset": 1544,
      "Ġenjoyed": 1545,
      "Ġlikes": 1546,
      "cle": 1547,
      "Ġclot": 1548,
      "Ġnoticed": 1549,
      "Ġquickly": 1550,
      "Ġcast": 1551,
      "Ġclothes": 1552,
      "ucky": 1553,
      "Ġanything": 1554,
      "Ġbott": 1555,
      "Ġpictures": 1556,
      "Ġbroke": 1557,
      "ation": 1558,
      "Ġmiss": 1559,
      "Ġgent": 1560,
      "Ġgames": 1561,
      "der": 1562,
      "Jo": 1563,
      "Ġgif": 1564,
      "Ġpen": 1565,
      "Ġtight": 1566,
      "Ġsea": 1567,
      "de": 1568,
      "Ġheavy": 1569,
      "Ġalone": 1570,
      "ries": 1571,
      "Ġmus": 1572,
      "Ġpot": 1573,
      "Ġhopped": 1574,
      "Ġyear": 1575,
      "Ġpat": 1576,
      "Ġspot": 1577,
      "Ġturns": 1578,
      "ton": 1579,
      "Ġworld": 1580,
      "Her": 1581,
      "orm": 1582,
      "aught": 1583,
      "Ġmix": 1584,
      "asure": 1585,
      "Ġarm": 1586,
      "lc": 1587,
      "Ġthrew": 1588,
      "Ġhimself": 1589,
      "Ġwon": 1590,
      "ĠBuddy": 1591,
      "Ġtower": 1592,
      "Lucy": 1593,
      "less": 1594,
      "amp": 1595,
      "Ġfollowed": 1596,
      "ctor": 1597,
      "Ġeverywhere": 1598,
      "olly": 1599,
      "Ġcomp": 1600,
      "Ġwhite": 1601,
      "row": 1602,
      "ape": 1603,
      "Ġbike": 1604,
      "Ġmakes": 1605,
      "Bob": 1606,
      "arent": 1607,
      "Ġkey": 1608,
      "ĠWhat": 1609,
      "Ġje": 1610,
      "man": 1611,
      "Ġwrong": 1612,
      "Ġride": 1613,
      "Ġju": 1614,
      "Ġblack": 1615,
      "Spot": 1616,
      "Ġve": 1617,
      "thy": 1618,
      "Ġbreak": 1619,
      "ze": 1620,
      "Ġdeep": 1621,
      "ee": 1622,
      "Ġparent": 1623,
      "Ġmusic": 1624,
      "Ġforgot": 1625,
      "cess": 1626,
      "ued": 1627,
      "Ġdelic": 1628,
      "Ġpol": 1629,
      "\".": 1630,
      "Ġcastle": 1631,
      "Ġwear": 1632,
      "iet": 1633,
      "ĠDaisy": 1634,
      "Do": 1635,
      "ner": 1636,
      "Ġbee": 1637,
      "Ġquiet": 1638,
      "ves": 1639,
      "ister": 1640,
      "oun": 1641,
      "ang": 1642,
      "Ġround": 1643,
      "Ġnap": 1644,
      "Ġem": 1645,
      "ance": 1646,
      "Ġhit": 1647,
      "Ġmonster": 1648,
      "Ġvis": 1649,
      "Ġdanced": 1650,
      "ully": 1651,
      "Ġwants": 1652,
      "up": 1653,
      "Ġdry": 1654,
      "Ġunderstand": 1655,
      "rot": 1656,
      "os": 1657,
      "Ġtalked": 1658,
      "ĠJohn": 1659,
      "zz": 1660,
      "Ġbor": 1661,
      "fully": 1662,
      "ross": 1663,
      "Ġbowl": 1664,
      "Ġleaf": 1665,
      "ts": 1666,
      "itten": 1667,
      "Ġfaster": 1668,
      "Ġcookies": 1669,
      "Ġleg": 1670,
      "From": 1671,
      "Ġbrought": 1672,
      "ren": 1673,
      "Ġsmart": 1674,
      "Ġrel": 1675,
      "Ġres": 1676,
      "Ġsec": 1677,
      "Ġmum": 1678,
      "ĠInside": 1679,
      "Ġside": 1680,
      "Ġsharing": 1681,
      "Ġrocks": 1682,
      "ards": 1683,
      "Ġpoin": 1684,
      "Ġhappen": 1685,
      "Ġsister": 1686,
      "Ġbranch": 1687,
      "Ġsign": 1688,
      "Ġbutton": 1689,
      "Ġra": 1690,
      "Ġwell": 1691,
      "cy": 1692,
      "Ġcontin": 1693,
      "Ġreally": 1694,
      "His": 1695,
      "Ġfox": 1696,
      "Ġflying": 1697,
      "ence": 1698,
      "Ġsomeone": 1699,
      "Ġworried": 1700,
      "eddy": 1701,
      "Ġque": 1702,
      "Ġfinished": 1703,
      "Ġsecret": 1704,
      "ĠMaybe": 1705,
      "Ġvisit": 1706,
      "gy": 1707,
      "Ġsilly": 1708,
      "ast": 1709,
      "Ġdinner": 1710,
      "Ġtoday": 1711,
      "ĠTo": 1712,
      "ĠJoe": 1713,
      "Ġgu": 1714,
      "ipp": 1715,
      "Ġwish": 1716,
      "Ġele": 1717,
      "Ġbeach": 1718,
      "ĠSoon": 1719,
      "Ġdanger": 1720,
      "Ġpig": 1721,
      "Ġsmiles": 1722,
      "Ġeverything": 1723,
      "ĠLila": 1724,
      "Ġperfect": 1725,
      "Ġfilled": 1726,
      "Ġshin": 1727,
      "Ġriver": 1728,
      "Ġel": 1729,
      "Ġpudd": 1730,
      "Ġbite": 1731,
      "Ġwelc": 1732,
      "Ġparents": 1733,
      "Ġsang": 1734,
      "Ġcontinued": 1735,
      "Ġpieces": 1736,
      "John": 1737,
      "Ġking": 1738,
      "ĠAt": 1739,
      "Ġgi": 1740,
      "ĠSarah": 1741,
      "Ġfield": 1742,
      "Ġeating": 1743,
      "Ġfree": 1744,
      "Ġfur": 1745,
      "While": 1746,
      "ated": 1747,
      "ĠEm": 1748,
      "Ġorange": 1749,
      "Ġpromised": 1750,
      "Ġear": 1751,
      "Ġsnack": 1752,
      "ead": 1753,
      "Ġchildren": 1754,
      "Ġelse": 1755,
      "Ġrealized": 1756,
      "Ġjar": 1757,
      "Ġcarefully": 1758,
      "Ġdrink": 1759,
      "ses": 1760,
      "stead": 1761,
      "imi": 1762,
      "itting": 1763,
      "Just": 1764,
      "Ġmud": 1765,
      "Maybe": 1766,
      "Ġrolled": 1767,
      "Ġspr": 1768,
      "Ġyes": 1769,
      "Ġcrying": 1770,
      "Ġdrag": 1771,
      "Ġpurp": 1772,
      "Ġlaughing": 1773,
      "Ġsoup": 1774,
      "Ġbottle": 1775,
      "Ġblank": 1776,
      "Ġsail": 1777,
      "Amy": 1778,
      "Ġcow": 1779,
      "Ġbath": 1780,
      "Ġgrandma": 1781,
      "Ġboun": 1782,
      "ĠBilly": 1783,
      "Ġbrown": 1784,
      "Ġblanket": 1785,
      "ĠZ": 1786,
      "Ġsnake": 1787,
      "Ġdoctor": 1788,
      "Ġpurple": 1789,
      "Ġwords": 1790,
      "Ġenough": 1791,
      "Ġgift": 1792,
      "Ġamazing": 1793,
      "Ġfairy": 1794,
      "ons": 1795,
      "cket": 1796,
      "Fin": 1797,
      "Ġasks": 1798,
      "Ġpet": 1799,
      "Ġlon": 1800,
      "ord": 1801,
      "Ġthrow": 1802,
      "Ġmoved": 1803,
      "Ġwithout": 1804,
      "used": 1805,
      "Ġbarked": 1806,
      "Ġlonely": 1807,
      "fort": 1808,
      "Ġcandy": 1809,
      "Ġmonkey": 1810,
      "Ġwagged": 1811,
      "chool": 1812,
      "Ġclosed": 1813,
      "Ġcrab": 1814,
      "Ġwhe": 1815,
      "Ġmorning": 1816,
      "ire": 1817,
      "Ġlake": 1818,
      "ich": 1819,
      "ey": 1820,
      "Ġdangerous": 1821,
      ".âĢĿ": 1822,
      "ises": 1823,
      "Ġschool": 1824,
      "ased": 1825,
      "iver": 1826,
      "Ġatt": 1827,
      "Ġshop": 1828,
      "Ġwelcome": 1829,
      "ub": 1830,
      "Ġowner": 1831,
      "Ġgetting": 1832,
      "Ġmoney": 1833,
      "Ġsitting": 1834,
      "ĠGra": 1835,
      "ere": 1836,
      "Ġstrange": 1837,
      "Ġpaw": 1838,
      "Ġhigher": 1839,
      "Ġcreat": 1840,
      "ush": 1841,
      "!âĢĿ": 1842,
      "Ġmail": 1843,
      "unch": 1844,
      "Ġshoes": 1845,
      "Ġapples": 1846,
      "Ġ-": 1847,
      "Ġliving": 1848,
      "Ġpast": 1849,
      "Ġshining": 1850,
      "Ġtalking": 1851,
      "ible": 1852,
      "Ġstre": 1853,
      "vel": 1854,
      "althy": 1855,
      "gg": 1856,
      "Ġtreasure": 1857,
      "Ġchee": 1858,
      "Mommy": 1859,
      "Ġpre": 1860,
      "ĠBl": 1861,
      "Ġruns": 1862,
      "Ġmother": 1863,
      "Ġcoat": 1864,
      "Ġroad": 1865,
      "Ġsmo": 1866,
      "me": 1867,
      "Ġbuck": 1868,
      "ĠCh": 1869,
      "fish": 1870,
      "ĠTommy": 1871,
      "ĠMimi": 1872,
      "ail": 1873,
      "Ġwings": 1874,
      "cks": 1875,
      "una": 1876,
      "Ġmad": 1877,
      "app": 1878,
      "Ġletter": 1879,
      "Ġcaught": 1880,
      "Ġbring": 1881,
      "Ġpass": 1882,
      "Ġegg": 1883,
      "Ġnose": 1884,
      "Ġbat": 1885,
      "Ġthinks": 1886,
      "asket": 1887,
      "Ġdelicious": 1888,
      "Ġbasket": 1889,
      "Ġyears": 1890,
      "arm": 1891,
      "Ġteddy": 1892,
      "Ġdragon": 1893,
      "Ġstand": 1894,
      "board": 1895,
      "ubb": 1896,
      "Ġcoll": 1897,
      "Ġbelie": 1898,
      "Ġpill": 1899,
      "Ġsear": 1900,
      "Ġstart": 1901,
      "set": 1902,
      "Ġpuddle": 1903,
      "ella": 1904,
      "ches": 1905,
      "Ġfan": 1906,
      "Ġsame": 1907,
      "itch": 1908,
      "isk": 1909,
      "Ġph": 1910,
      "ol": 1911,
      "Ġfarmer": 1912,
      "Ġdays": 1913,
      "igh": 1914,
      "Ġswings": 1915,
      "Ġfinally": 1916,
      "bow": 1917,
      "igg": 1918,
      "sw": 1919,
      "Ġpush": 1920,
      "Ġtom": 1921,
      "Ġscream": 1922,
      "Ġfit": 1923,
      "Ġkite": 1924,
      "Ġwhist": 1925,
      "Ġansw": 1926,
      "Ġgentle": 1927,
      "Ġwore": 1928,
      "Ġtasty": 1929,
      "Ġcray": 1930,
      "Ġhor": 1931,
      "emy": 1932,
      "Ġherself": 1933,
      "ined": 1934,
      "Ġmine": 1935,
      "Ġhoped": 1936,
      "Ġtrou": 1937,
      "Ġsinging": 1938,
      "Ġarri": 1939,
      "Ġcarrot": 1940,
      "ĠJen": 1941,
      "Ġvill": 1942,
      "Ġdropped": 1943,
      "iskers": 1944,
      "Ġwoke": 1945,
      "Ġteach": 1946,
      "Ġbush": 1947,
      "Please": 1948,
      "Ġhiding": 1949,
      "Ġshap": 1950,
      "ier": 1951,
      "Ġteac": 1952,
      "Ġrainbow": 1953,
      "OK": 1954,
      "Ġstone": 1955,
      "llie": 1956,
      "phant": 1957,
      "aughty": 1958,
      "Ġnaughty": 1959,
      "sy": 1960,
      "Ġtwins": 1961,
      "sc": 1962,
      "ract": 1963,
      "Ġcour": 1964,
      "Ġbelong": 1965,
      "Ġcho": 1966,
      "Ġben": 1967,
      "ama": 1968,
      "Ġbell": 1969,
      "'ll": 1970,
      "Ġspin": 1971,
      "Ġpile": 1972,
      "Ġpers": 1973,
      "Ġpuppy": 1974,
      "Ġseem": 1975,
      "Ġbow": 1976,
      "Ġcheered": 1977,
      "erry": 1978,
      "Ġsack": 1979,
      "Ġshook": 1980,
      "Ġtouc": 1981,
      "Jack": 1982,
      "Ġgrew": 1983,
      "Ġcourse": 1984,
      "Ġshapes": 1985,
      "fused": 1986,
      "Ġcheese": 1987,
      "Ġstreet": 1988,
      "Ġmin": 1989,
      "eb": 1990,
      "Ġplane": 1991,
      "ipped": 1992,
      "Ġjoy": 1993,
      "Ġelephant": 1994,
      "irth": 1995,
      "ĠBlue": 1996,
      "irthday": 1997,
      "Ġforever": 1998,
      "Ġspoon": 1999,
      "isa": 2000,
      "Ġcute": 2001,
      "Ġshell": 2002,
      "Ġjuice": 2003,
      "Ġseed": 2004,
      "Ġarrived": 2005,
      "Ġvillage": 2006,
      "Ġwonderful": 2007,
      "Ġlunch": 2008,
      "Ġable": 2009,
      "ale": 2010,
      "Good": 2011,
      "Ġfence": 2012,
      "ball": 2013,
      "Ġprob": 2014,
      "Ġrope": 2015,
      "Ġbread": 2016,
      "Ġnut": 2017,
      "Ġspo": 2018,
      "Ġfew": 2019,
      "Ġtouched": 2020,
      "ĠWhiskers": 2021,
      "idge": 2022,
      "Ġinc": 2023,
      "Ġwar": 2024,
      "Ġteacher": 2025,
      "ilk": 2026,
      "Ġcorn": 2027,
      "Ġshake": 2028,
      "ĠFred": 2029,
      "Ġdes": 2030,
      "lem": 2031,
      "ass": 2032,
      "ĠThank": 2033,
      "Ġcarry": 2034,
      "umb": 2035,
      "Ġsounds": 2036,
      "br": 2037,
      "Ġrob": 2038,
      "Ġproblem": 2039,
      "eter": 2040,
      "Ġbirthday": 2041,
      "Ġpower": 2042,
      "lla": 2043,
      "ĠEmma": 2044,
      "Ġmost": 2045,
      "Ġpromise": 2046,
      "Ġmilk": 2047,
      "Ġband": 2048,
      "Ġstorm": 2049,
      "Ġheart": 2050,
      "Ġeas": 2051,
      "Ġwra": 2052,
      "Ġbusy": 2053,
      "Finally": 2054,
      "Ġbench": 2055,
      "Ġneck": 2056,
      "Ġbugs": 2057,
      "Ġfeels": 2058,
      "ĠRemy": 2059,
      "col": 2060,
      "ian": 2061,
      "Ġpatient": 2062,
      "Ġshy": 2063,
      "Ġrec": 2064,
      "Ġpop": 2065,
      "Ġkiss": 2066,
      "Ġhoney": 2067,
      "ator": 2068,
      "ost": 2069,
      "ĠBella": 2070,
      "Ġbelieve": 2071,
      "ato": 2072,
      "Ġdist": 2073,
      "Ġcave": 2074,
      "Ġtowards": 2075,
      "Ġdolls": 2076,
      "irp": 2077,
      "ountain": 2078,
      "adow": 2079,
      "Ġgray": 2080,
      "Ġlive": 2081,
      "gly": 2082,
      "eared": 2083,
      "Ġhelpful": 2084,
      "Ġpocket": 2085,
      "Ġrobot": 2086,
      "Ġdisapp": 2087,
      "Ġob": 2088,
      "Ġslowly": 2089,
      "Ġholding": 2090,
      "urtle": 2091,
      "Ġdriver": 2092,
      "irt": 2093,
      "Ġshr": 2094,
      "Ġupset": 2095,
      "alm": 2096,
      "oggy": 2097,
      "Ġcir": 2098,
      "umpy": 2099,
      "Ġmeet": 2100,
      "Ġspark": 2101,
      "Ġstories": 2102,
      "Ġugly": 2103,
      "Ġsuc": 2104,
      "Ġlate": 2105,
      "arp": 2106,
      "unt": 2107,
      "Ġballs": 2108,
      "Ġcover": 2109,
      "Ġyoung": 2110,
      "Ġseek": 2111,
      "Ġnoises": 2112,
      "Ġdirt": 2113,
      "Ġmark": 2114,
      "pping": 2115,
      "Ġbucket": 2116,
      "Ġamazed": 2117,
      "Ġtreats": 2118,
      "read": 2119,
      "Ġsharp": 2120,
      "Ġkitten": 2121,
      "Ġglow": 2122,
      "Ġseat": 2123,
      "Ġwild": 2124,
      "Ġturtle": 2125,
      "fortable": 2126,
      "Ġsplas": 2127,
      "Ġmagical": 2128,
      "Ġmach": 2129,
      "Ġlem": 2130,
      "Ġspid": 2131,
      "umber": 2132,
      "Ġprincess": 2133,
      "ourn": 2134,
      "Ġfold": 2135,
      "ĠMark": 2136,
      "ove": 2137,
      "Ġjourn": 2138,
      "Ġpuzz": 2139,
      "Ġba": 2140,
      "Ġmist": 2141,
      "epend": 2142,
      "Ġhugs": 2143,
      "ling": 2144,
      "Ġstars": 2145,
      "ĠLe": 2146,
      "Ġzoom": 2147,
      "Ġhorse": 2148,
      "Ġsug": 2149,
      "Ġdi": 2150,
      "Ġorgan": 2151,
      "Ġtaking": 2152,
      "Ġcloth": 2153,
      "Ġspicy": 2154,
      "Ġrude": 2155,
      "Ġpillow": 2156,
      "Ġpart": 2157,
      "ĠJim": 2158,
      "Ġwheel": 2159,
      "Ġinstead": 2160,
      "Ġfighting": 2161,
      "ens": 2162,
      "ung": 2163,
      "Ġtrip": 2164,
      "Ġbubb": 2165,
      "iling": 2166,
      "Sure": 2167,
      "Ġsandw": 2168,
      "Ġdrove": 2169,
      "Ġnet": 2170,
      "Ġstring": 2171,
      "Ġlucky": 2172,
      "Ġinv": 2173,
      "Ġhuge": 2174,
      "Be": 2175,
      "Ġsick": 2176,
      "aur": 2177,
      "Ġcard": 2178,
      "oose": 2179,
      "lower": 2180,
      "Of": 2181,
      "Ġwide": 2182,
      "ĠFinally": 2183,
      "Ġcoin": 2184,
      "Ġforget": 2185,
      "not": 2186,
      "ĠJust": 2187,
      "ĠAnn": 2188,
      "pper": 2189,
      "Hey": 2190,
      "Later": 2191,
      "Ġsal": 2192,
      "ĠLisa": 2193,
      "Ġcannot": 2194,
      "Ġsongs": 2195,
      "Ġcookie": 2196,
      "Ġfixed": 2197,
      "est": 2198,
      "ors": 2199,
      "rill": 2200,
      "oph": 2201,
      "ular": 2202,
      "Ġwrite": 2203,
      "Ġgiant": 2204,
      "ert": 2205,
      "Ġwhistle": 2206,
      "Ġjoke": 2207,
      "Ġcraw": 2208,
      "den": 2209,
      "Ġspider": 2210,
      "Ġmachine": 2211,
      "Ġlife": 2212,
      "Lila": 2213,
      "Ġmoon": 2214,
      "Ġtaste": 2215,
      "Ġbone": 2216,
      "Ġcomes": 2217,
      "Ġfoot": 2218,
      "Ġhidden": 2219,
      "ĠGrandma": 2220,
      "Ġpath": 2221,
      "ize": 2222,
      "Ġgrab": 2223,
      "Ġshelf": 2224,
      "ĠCome": 2225,
      "Ġsel": 2226,
      "Ġdrive": 2227,
      "Ġcou": 2228,
      "Ġchased": 2229,
      "Ġring": 2230,
      "Ġconfused": 2231,
      "Ġdaddy": 2232,
      "ĠOn": 2233,
      "Ġcart": 2234,
      "Ġlast": 2235,
      "Ġboss": 2236,
      "Ġthin": 2237,
      "Ġwave": 2238,
      "Ġbark": 2239,
      "Ġwasn": 2240,
      "Ġsuddenly": 2241,
      "Ġmyster": 2242,
      "Ġsour": 2243,
      "Ġpeace": 2244,
      "erest": 2245,
      "Ġtie": 2246,
      "Ġadventures": 2247,
      "Ġgrumpy": 2248,
      "Ġser": 2249,
      "Ġinterest": 2250,
      "Ġtakes": 2251,
      "to": 2252,
      "Ġselfish": 2253,
      "ĠN": 2254,
      "Ġworm": 2255,
      "Ġpan": 2256,
      "Ġstepped": 2257,
      "Ġducks": 2258,
      "Ġlanded": 2259,
      "Ġash": 2260,
      "Ġfruits": 2261,
      "St": 2262,
      "Ġchange": 2263,
      "Ġsnowman": 2264,
      "Ġlater": 2265,
      "elly": 2266,
      "Ġdrew": 2267,
      "Ġfle": 2268,
      "Ġban": 2269,
      "Ġtea": 2270,
      "ity": 2271,
      "Ġoven": 2272,
      "Ġexp": 2273,
      "Ġmissed": 2274,
      "Ġchick": 2275,
      "Ġval": 2276,
      "Ġspe": 2277,
      "Ġwash": 2278,
      "Ġacross": 2279,
      "Ġce": 2280,
      "ope": 2281,
      "Ġbought": 2282,
      "ĠMolly": 2283,
      "Ġlegs": 2284,
      "mer": 2285,
      "ose": 2286,
      "Ġent": 2287,
      "Ġphone": 2288,
      "Ġcalm": 2289,
      "Ġbeak": 2290,
      "Ġmessy": 2291,
      "To": 2292,
      "ever": 2293,
      "Ġgrate": 2294,
      "Ġsheep": 2295,
      "?âĢĿ": 2296,
      "Ġsmooth": 2297,
      "ĠLeo": 2298,
      "Ġsmelly": 2299,
      "Ġfil": 2300,
      "oop": 2301,
      "pect": 2302,
      "Ġemp": 2303,
      "ery": 2304,
      "eth": 2305,
      "Ġempty": 2306,
      "Ġfing": 2307,
      "Ġlay": 2308,
      "Ġsticks": 2309,
      "Ġrad": 2310,
      "Ġhope": 2311,
      "Ġclouds": 2312,
      "Ġgrateful": 2313,
      "ĠLuna": 2314,
      "Ġjog": 2315,
      "Ġpour": 2316,
      "Ġwolf": 2317,
      "Ġdogs": 2318,
      "Ġclever": 2319,
      "Ġwatching": 2320,
      "ĠJill": 2321,
      "ugg": 2322,
      "Ġimag": 2323,
      "iger": 2324,
      "Ġstep": 2325,
      "Ġsleepy": 2326,
      "Ġthough": 2327,
      "Soon": 2328,
      "ĠCat": 2329,
      "Ġsplash": 2330,
      "Ġbanan": 2331,
      "yard": 2332,
      "erly": 2333,
      "kin": 2334,
      "Ġslid": 2335,
      "Ġinteresting": 2336,
      "stion": 2337,
      "ĠMomo": 2338,
      "Ġzoo": 2339,
      "izz": 2340,
      "Ġrocket": 2341,
      "Ġbackyard": 2342,
      "izzy": 2343,
      "Ġmed": 2344,
      "Ġlemon": 2345,
      "ife": 2346,
      "ĠDaddy": 2347,
      "let": 2348,
      "box": 2349,
      "Ġwhole": 2350,
      "dge": 2351,
      "Ġign": 2352,
      "Ġseemed": 2353,
      "Ġalong": 2354,
      "Ġline": 2355,
      "amed": 2356,
      "irpy": 2357,
      "Ġfeather": 2358,
      "Ġpuzzle": 2359,
      "Ġhealthy": 2360,
      "Ġfinish": 2361,
      "ars": 2362,
      "Ġfaces": 2363,
      "Ġsave": 2364,
      "Ġsmelled": 2365,
      "Ġplate": 2366,
      "Come": 2367,
      "Ġfake": 2368,
      "Ġprot": 2369,
      "Ġact": 2370,
      "unk": 2371,
      "wel": 2372,
      "ĠDoggy": 2373,
      "llo": 2374,
      "Ġpin": 2375,
      "Ġjelly": 2376,
      "Ġnothing": 2377,
      "Ġexplain": 2378,
      "Ġquestion": 2379,
      "ward": 2380,
      "Ġlonger": 2381,
      "ĠBe": 2382,
      "Ġweak": 2383,
      "ĠBunny": 2384,
      "oomy": 2385,
      "Ġtid": 2386,
      "Ġav": 2387,
      "Ġworking": 2388,
      "Ġspray": 2389,
      "Ġmot": 2390,
      "ont": 2391,
      "ĠJerry": 2392,
      "irr": 2393,
      "Ġsaved": 2394,
      "Ġeasy": 2395,
      "Ġkick": 2396,
      "Ġpool": 2397,
      "ĠWith": 2398,
      "Ġjewel": 2399,
      "Ġsu": 2400,
      "Ġanyone": 2401,
      "Ġarms": 2402,
      "Ġpract": 2403,
      "ork": 2404,
      "Ġgives": 2405,
      "ming": 2406,
      "Ġlift": 2407,
      "ĠOllie": 2408,
      "Ġcrayons": 2409,
      "Ġforgive": 2410,
      "Ġtrouble": 2411,
      "iting": 2412,
      "Ġcross": 2413,
      "Ġexplor": 2414,
      "Ġfront": 2415,
      "Ġdrum": 2416,
      "ment": 2417,
      "Ġmaybe": 2418,
      "Ġwondered": 2419,
      "Ġsol": 2420,
      "ocked": 2421,
      "Ġonto": 2422,
      "Ġsupp": 2423,
      "Ġscar": 2424,
      "Ġneigh": 2425,
      "Ġemb": 2426,
      "Ġship": 2427,
      "ult": 2428,
      "Ġjumping": 2429,
      "Ġputs": 2430,
      "arge": 2431,
      "onest": 2432,
      "Ġtidy": 2433,
      "oc": 2434,
      "Ġgently": 2435,
      "Ġlad": 2436,
      "Ġpack": 2437,
      "ĠChirpy": 2438,
      "Ġneighb": 2439,
      "aughter": 2440,
      "ually": 2441,
      "Ġqueen": 2442,
      "Ġbossy": 2443,
      "Ġyog": 2444,
      "Ġshirt": 2445,
      "orrow": 2446,
      "Ġsuch": 2447,
      "sp": 2448,
      "Ġfancy": 2449,
      "rass": 2450,
      "Ġcheer": 2451,
      "arrass": 2452,
      "Ġmind": 2453,
      "Ġmistake": 2454,
      "ĠTheir": 2455,
      "Ġembarrass": 2456,
      "ĠWhy": 2457,
      "Ġwing": 2458,
      "Ġchew": 2459,
      "Ġlovely": 2460,
      "Ġsur": 2461,
      "Ġhonest": 2462,
      "ĠMary": 2463,
      "Ġstood": 2464,
      "era": 2465,
      "Ġbuilding": 2466,
      "we": 2467,
      "Ġcozy": 2468,
      "Ġbal": 2469,
      "Ġaf": 2470,
      "ones": 2471,
      "Ġpointed": 2472,
      "Ġwaiting": 2473,
      "Ġperson": 2474,
      "urse": 2475,
      "Ġladder": 2476,
      "ned": 2477,
      "Ġlaw": 2478,
      "aw": 2479,
      "Ġret": 2480,
      "Ġlarge": 2481,
      "Ġcleaned": 2482,
      "Ġsearch": 2483,
      "Ġlazy": 2484,
      "Ġants": 2485,
      "Ġdaughter": 2486,
      "Ġplants": 2487,
      "And": 2488,
      "Ġprince": 2489,
      "Ġplaces": 2490,
      "Ġswimming": 2491,
      "Kitty": 2492,
      "ek": 2493,
      "ĠMy": 2494,
      "Ġwip": 2495,
      "Ġbounce": 2496,
      "Ġlock": 2497,
      "Ġreturn": 2498,
      "Ġhum": 2499,
      "Ġrich": 2500,
      "ĠSomet": 2501,
      "Ġtomorrow": 2502,
      "Ġdish": 2503,
      "Ġdeer": 2504,
      "Ġloves": 2505,
      "aced": 2506,
      "raid": 2507,
      "My": 2508,
      "Ġvan": 2509,
      "Ġafraid": 2510,
      "Ġtrue": 2511,
      "Ġanswer": 2512,
      "Sally": 2513,
      "Ġteeth": 2514,
      "Ġsplashed": 2515,
      "Ġnearby": 2516,
      "Ġpizz": 2517,
      "Ġgoes": 2518,
      "Ġgather": 2519,
      "Ġhang": 2520,
      "Ġtrust": 2521,
      "Ġmatch": 2522,
      "ĠTogether": 2523,
      "Ġnumber": 2524,
      "Ġchase": 2525,
      "Ġcand": 2526,
      "ado": 2527,
      "Ġboring": 2528,
      "Ġcouch": 2529,
      "Ġeag": 2530,
      "gest": 2531,
      "Ġtool": 2532,
      "Ġboot": 2533,
      "Ġfear": 2534,
      "Ġpretended": 2535,
      "Ġpowerful": 2536,
      "Ġsuccess": 2537,
      "oppy": 2538,
      "Ġappeared": 2539,
      "pa": 2540,
      "Ġmap": 2541,
      "Ġscarf": 2542,
      "icked": 2543,
      "Ġfurry": 2544,
      "Ġstret": 2545,
      "Ġsoap": 2546,
      "Ġsnee": 2547,
      "ĠTV": 2548,
      "Ġpizza": 2549,
      "Ġcreative": 2550,
      "Ġclown": 2551,
      "Ġscreamed": 2552,
      "Ġgun": 2553,
      "Ġmatter": 2554,
      "ĠIf": 2555,
      "Ġsold": 2556,
      "uce": 2557,
      "Ġsandwich": 2558,
      "Ġicy": 2559,
      "Ġwearing": 2560,
      "Ġnote": 2561,
      "oman": 2562,
      "Ġpri": 2563,
      "elp": 2564,
      "Ġcircle": 2565,
      "vous": 2566,
      "Ġnoisy": 2567,
      "Ġashamed": 2568,
      "Ġwoman": 2569,
      "Ġdig": 2570,
      "ina": 2571,
      "Ġhero": 2572,
      "Ġflag": 2573,
      "ĠBobby": 2574,
      "Ġstra": 2575,
      "Ġhello": 2576,
      "Ġlamp": 2577,
      "Ġshadow": 2578,
      "Ġtest": 2579,
      "osaur": 2580,
      "Ġdrank": 2581,
      "Ġimpress": 2582,
      "Ġrub": 2583,
      "ĠSt": 2584,
      "irror": 2585,
      "Ġmotor": 2586,
      "Ġsmiling": 2587,
      "Ġner": 2588,
      "Ġgen": 2589,
      "ĠGo": 2590,
      "Ġsaf": 2591,
      "Stop": 2592,
      "Ġcarried": 2593,
      "Ġtries": 2594,
      "Ġmirror": 2595,
      "ute": 2596,
      "ĠPlease": 2597,
      "nic": 2598,
      "Ġnervous": 2599,
      "rag": 2600,
      "Ġclass": 2601,
      "Ġdinosaur": 2602,
      "ĠDon": 2603,
      "Ġpicnic": 2604,
      "ĠBird": 2605,
      "mb": 2606,
      "Ġglue": 2607,
      "ĠSp": 2608,
      "Ġmel": 2609,
      "Ġtick": 2610,
      "iff": 2611,
      "Ġgold": 2612,
      "ndpa": 2613,
      "Ġhur": 2614,
      "Ġlead": 2615,
      "itter": 2616,
      "ensive": 2617,
      "Ġprotect": 2618,
      "Ġhar": 2619,
      "Ġshark": 2620,
      "Ġmysterious": 2621,
      "Ġexpensive": 2622,
      "Ġjourney": 2623,
      "ĠBenny": 2624,
      "Ġprint": 2625,
      "Ġtent": 2626,
      "Ġrare": 2627,
      "Ġap": 2628,
      "Help": 2629,
      "Ġcrown": 2630,
      "isp": 2631,
      "Ġthese": 2632,
      "Ġreg": 2633,
      "Ġknee": 2634,
      "ual": 2635,
      "Ġpolite": 2636,
      "Ġeld": 2637,
      "Ġsugar": 2638,
      "ĠHow": 2639,
      "Ġbean": 2640,
      "Ġdisco": 2641,
      "Ġbald": 2642,
      "Ġgate": 2643,
      "Ġstu": 2644,
      "Ġwand": 2645,
      "Ġpoor": 2646,
      "Ġtowel": 2647,
      "Ġchocol": 2648,
      "scape": 2649,
      "Ġtele": 2650,
      "Ġfeet": 2651,
      "Ġfat": 2652,
      "Ġmarch": 2653,
      "Ġrespect": 2654,
      "ĠBu": 2655,
      "Ġpres": 2656,
      "Ġcloset": 2657,
      "Ġclap": 2658,
      "Ġdancing": 2659,
      "Ġballoons": 2660,
      "ote": 2661,
      "Ġwhale": 2662,
      "Ġpeaceful": 2663,
      "Ġweird": 2664,
      "ĠSometimes": 2665,
      "Ġkicked": 2666,
      "Ġwis": 2667,
      "Ġrough": 2668,
      "Ġwhisp": 2669,
      "Ġrelie": 2670,
      "imp": 2671,
      "Ġbridge": 2672,
      "Ġtape": 2673,
      "Ġdizzy": 2674,
      "Ġtasted": 2675,
      "Ġteam": 2676,
      "Ġelderly": 2677,
      "Ġsque": 2678,
      "issors": 2679,
      "Ġdecor": 2680,
      "Ġgener": 2681,
      "any": 2682,
      "Ġbake": 2683,
      "owed": 2684,
      "Ġsco": 2685,
      "Ġembarrassed": 2686,
      "Ġthick": 2687,
      "Ġchocolate": 2688,
      "Ġbrush": 2689,
      "ume": 2690,
      "lebr": 2691,
      "Ġpainted": 2692,
      "Ġcap": 2693,
      "Ġmixed": 2694,
      "Ġpump": 2695,
      "ĠBear": 2696,
      "Ġmoms": 2697,
      "Ġcelebr": 2698,
      "Ġword": 2699,
      "Ġgigg": 2700,
      "ventually": 2701,
      "Ġdrawing": 2702,
      "ness": 2703,
      "Ġcri": 2704,
      "Ġgroup": 2705,
      "Ġpay": 2706,
      "Ġyelled": 2707,
      "Ġscissors": 2708,
      "arl": 2709,
      "Ġbecome": 2710,
      "Tommy": 2711,
      "lves": 2712,
      "ĠTiny": 2713,
      "ustr": 2714,
      "Dad": 2715,
      "Ġclock": 2716,
      "Ġwouldn": 2717,
      "Ġstir": 2718,
      "Ġspread": 2719,
      "getable": 2720,
      "ĠBr": 2721,
      "Ġvase": 2722,
      "Ġclear": 2723,
      "rob": 2724,
      "Ġlose": 2725,
      "Ġincred": 2726,
      "ser": 2727,
      "Ġwrap": 2728,
      "ragile": 2729,
      "Ġ3": 2730,
      "Ġvegetable": 2731,
      "Ġscare": 2732,
      "Ġblow": 2733,
      "Ġgenerous": 2734,
      "Ġhorn": 2735,
      "Ġboard": 2736,
      "Ġknocked": 2737,
      "Ġmic": 2738,
      "Ġglass": 2739,
      "Ġspace": 2740,
      "Ġnorm": 2741,
      "Ġcorner": 2742,
      "Ġlog": 2743,
      "airs": 2744,
      "Ġyarn": 2745,
      "ced": 2746,
      "asp": 2747,
      "ĠDucky": 2748,
      "Ġfamous": 2749,
      "Ġfool": 2750,
      "Ġcage": 2751,
      "Ġadm": 2752,
      "Ġignor": 2753,
      "Ġnormal": 2754,
      "Ġfine": 2755,
      "Ġfrustr": 2756,
      "Ġbranches": 2757,
      "Ġbalance": 2758,
      "Ġincredible": 2759,
      "Ġfragile": 2760,
      "Ġbarn": 2761,
      "Ġorganized": 2762,
      "Ġsunf": 2763,
      "ĠMama": 2764,
      "ym": 2765,
      "Ġsock": 2766,
      "aking": 2767,
      "Ġstubb": 2768,
      "Ġmighty": 2769,
      "robe": 2770,
      "Ġter": 2771,
      "Ġfeed": 2772,
      "Ġstubborn": 2773,
      "Ġhose": 2774,
      "Ġchicken": 2775,
      "Ġfright": 2776,
      "Ġwhich": 2777,
      "Ġtaught": 2778,
      "Ġguess": 2779,
      "Ġpresent": 2780,
      "ighed": 2781,
      "Ġmis": 2782,
      "Ġunus": 2783,
      "erries": 2784,
      "Ġroar": 2785,
      "Ġfrustrated": 2786,
      "Ġberries": 2787,
      "Ġswan": 2788,
      "Ġpray": 2789,
      "alous": 2790,
      "Ġrelieved": 2791,
      "Ġunusual": 2792,
      "ĠSome": 2793,
      "Ġjealous": 2794,
      "ony": 2795,
      "Ġcreature": 2796,
      "cient": 2797,
      "Ġcone": 2798,
      "Ġtwist": 2799,
      "port": 2800,
      "Ġsquare": 2801,
      "Ġterri": 2802,
      "Ġburn": 2803,
      "Ġhears": 2804,
      "Ġfoolish": 2805,
      "Ġjam": 2806,
      "Where": 2807,
      "Ġwake": 2808,
      "Ġwagon": 2809,
      "Ġexploring": 2810,
      "Ġmountain": 2811,
      "dle": 2812,
      "Ġancient": 2813,
      "Ġfier": 2814,
      "Ġshoe": 2815,
      "Ġunderstood": 2816,
      "Ġeggs": 2817,
      "Ġfierce": 2818,
      "Ġcomfortable": 2819,
      "Ġtells": 2820,
      "ray": 2821,
      "Ġtoug": 2822,
      "Ġdiscover": 2823,
      "fic": 2824,
      "Ġspent": 2825,
      "Ġspoiled": 2826,
      "lace": 2827,
      "Ġwrote": 2828,
      "Ġdug": 2829,
      "Ġdead": 2830,
      "Ġwaves": 2831,
      "Ġfrightened": 2832,
      "Ġdiffic": 2833,
      "kn": 2834,
      "Ġwashed": 2835,
      "orry": 2836,
      "Ġsell": 2837,
      "Ġnecklace": 2838,
      "ique": 2839,
      "Ġfinding": 2840,
      "Ġrose": 2841,
      "Ġtough": 2842,
      "Ġdifficult": 2843,
      "Ġcats": 2844,
      "Ġord": 2845,
      "Ġunique": 2846,
      "Ġ'": 2847,
      "Ġsword": 2848,
      "Ġstat": 2849,
      "Ġpolice": 2850,
      "ĠTr": 2851,
      "known": 2852,
      "Ġbreath": 2853,
      "Ġadd": 2854,
      "Ġtiger": 2855,
      "Ġdull": 2856,
      "Ġbitter": 2857,
      "Ġsunflower": 2858,
      "Ġsearched": 2859,
      "Ġham": 2860,
      "Ġmeasure": 2861,
      "Ġchest": 2862,
      "ĠPe": 2863,
      "Ġexam": 2864,
      "Ġbloom": 2865,
      "Ġunknown": 2866,
      "Ġcab": 2867,
      "Ġwitch": 2868,
      "Ġgloomy": 2869,
      "shine": 2870,
      "alk": 2871,
      "Ġmov": 2872,
      "Ġuseful": 2873,
      "Ġnosy": 2874,
      "Ġfinger": 2875,
      "Ġjet": 2876,
      "Together": 2877,
      "Ġbathroom": 2878,
      "Ġgoat": 2879,
      "Ġthankful": 2880,
      "Ġbubbles": 2881,
      "Ġpaws": 2882,
      "anged": 2883,
      "Ġending": 2884,
      "ond": 2885,
      "Ġpir": 2886,
      "ĠElla": 2887,
      "Ġcrazy": 2888,
      "Ġcovered": 2889,
      "Ġind": 2890,
      "Ġclum": 2891,
      "com": 2892,
      "Ġterrible": 2893,
      "light": 2894,
      "Ġcabin": 2895,
      "Ġclay": 2896,
      "Me": 2897,
      "unn": 2898,
      "cil": 2899,
      "iant": 2900,
      "Ġmeal": 2901,
      "Ġstatue": 2902,
      "und": 2903,
      "Ġjoined": 2904,
      "Ġstuff": 2905,
      "Ġdove": 2906,
      "Ġclumsy": 2907,
      "Ġadventur": 2908,
      "Ġnuts": 2909,
      "Ġpumpkin": 2910,
      "Ġbody": 2911,
      "Ġdrop": 2912,
      "Ġpencil": 2913,
      "Ġsalad": 2914,
      "Ġsunshine": 2915,
      "Ġstraw": 2916,
      "ĠWill": 2917,
      "xible": 2918,
      "Ġpotato": 2919,
      "Ġshore": 2920,
      "Ġunl": 2921,
      "Ġadventurous": 2922,
      "yal": 2923,
      "Ġcher": 2924,
      "Ġperform": 2925,
      "ĠAndy": 2926,
      "ĠRex": 2927,
      "Ġvalue": 2928,
      "Here": 2929,
      "Ġmask": 2930,
      "Ġtrick": 2931,
      "Every": 2932,
      "Ġcollect": 2933,
      "Ġtomato": 2934,
      "Ġsuit": 2935,
      "reen": 2936,
      "Ġwealthy": 2937,
      "Ġbanana": 2938,
      "Ġlif": 2939,
      "pill": 2940,
      "live": 2941,
      "Ġstri": 2942,
      "Ġasking": 2943,
      "Ġshoot": 2944,
      "berry": 2945,
      "Ġyourself": 2946,
      "Ġhairy": 2947,
      "Ġpepper": 2948,
      "Ġthirst": 2949,
      "ĠAl": 2950,
      "Ġbored": 2951,
      "ormous": 2952,
      "rilliant": 2953,
      "Ġloyal": 2954,
      "bled": 2955,
      "Ġbrilliant": 2956,
      "Ġenormous": 2957,
      "Jim": 2958,
      "erpill": 2959,
      "Ġcaterpill": 2960,
      "Ġexciting": 2961,
      "Ġrat": 2962,
      "Ġnods": 2963,
      "selves": 2964,
      "Ġacorn": 2965,
      "Ġsolve": 2966,
      "Ġchanged": 2967,
      "Ġmoving": 2968,
      "ĠMany": 2969,
      "Ġyours": 2970,
      "Ġmedic": 2971,
      "ory": 2972,
      "Ġlab": 2973,
      "ĠBrown": 2974,
      "Ġthirsty": 2975,
      "Ġwaff": 2976,
      "ĠJimmy": 2977,
      "Ġflexible": 2978,
      "Ġmole": 2979,
      "Ġdelicate": 2980,
      "Ġasleep": 2981,
      "Ġrelax": 2982,
      "Ġmedicine": 2983,
      "Ġmarket": 2984,
      "Ġguit": 2985,
      "Ġseeds": 2986,
      "ground": 2987,
      "Ġneighbor": 2988,
      "Ġheal": 2989,
      "Ġshine": 2990,
      "gu": 2991,
      "Ġrecord": 2992,
      "Ġdepend": 2993,
      "Ġcro": 2994,
      "ying": 2995,
      "Ġzip": 2996,
      "Who": 2997,
      "Ġcost": 2998,
      "Mum": 2999,
      "Ġcaterpillar": 3000,
      "lph": 3001,
      "Ġflash": 3002,
      "Ġharm": 3003,
      "Ġfrown": 3004,
      "corn": 3005,
      "Ġrh": 3006,
      "Ġsnacks": 3007,
      "Ġexplained": 3008,
      "iness": 3009,
      "Ġstage": 3010,
      "inal": 3011,
      "land": 3012,
      "iddle": 3013,
      "Ġsmaller": 3014,
      "Ġknowing": 3015,
      "ĠWhile": 3016,
      "Ġorig": 3017,
      "ĠU": 3018,
      "ungle": 3019,
      "How": 3020,
      "Ġjolly": 3021,
      "Ġdolph": 3022,
      "Ġboats": 3023,
      "Ġtimes": 3024,
      "Ġshiver": 3025,
      "ĠYour": 3026,
      "anut": 3027,
      "Inside": 3028,
      "gust": 3029,
      "Ġhats": 3030,
      "ates": 3031,
      "edient": 3032,
      "stal": 3033,
      "Ġjungle": 3034,
      "Ġcheap": 3035,
      "Ġguitar": 3036,
      "Ġremind": 3037,
      "Ġcarrots": 3038,
      "Ġdisgust": 3039,
      "ict": 3040,
      "Ġhoop": 3041,
      "inky": 3042,
      "Ġoriginal": 3043,
      "Ġcounted": 3044,
      "If": 3045,
      "Ġmelon": 3046,
      "ilt": 3047,
      "upid": 3048,
      "ĠInstead": 3049,
      "Ġfountain": 3050,
      "Ġstove": 3051,
      "Ġcries": 3052,
      "Ġtoast": 3053,
      "Ġcam": 3054,
      "Ġobedient": 3055,
      "Ġdependable": 3056,
      "Ġpopcorn": 3057,
      "Ġgem": 3058,
      "Ġmiddle": 3059,
      "mbre": 3060,
      "ident": 3061,
      "Ġsuccessful": 3062,
      "Ġvegetables": 3063,
      "Ġumbre": 3064,
      "Ġcareless": 3065,
      "Ġcollar": 3066,
      "Ġstones": 3067,
      "Ġknife": 3068,
      "apped": 3069,
      "Ġpainting": 3070,
      "Ġdisgusting": 3071,
      "enny": 3072,
      "Ġmuff": 3073,
      "Ġsquee": 3074,
      "Ġfearful": 3075,
      "Sorry": 3076,
      "most": 3077,
      "Ġjeep": 3078,
      "Ġaunt": 3079,
      "Ġbottom": 3080,
      "Ġscr": 3081,
      "Ġbedroom": 3082,
      "Ġstamp": 3083,
      "Ġcrystal": 3084,
      "Ġindepend": 3085,
      "Ġisland": 3086,
      "Ġeager": 3087,
      "Ġsighed": 3088,
      "Ġfour": 3089,
      "Ġalmost": 3090,
      "Ġbatter": 3091,
      "Ġfridge": 3092,
      "iable": 3093,
      "Ġhay": 3094,
      "Ġdesign": 3095,
      "Ġfig": 3096,
      "Ġpige": 3097,
      "Ġfork": 3098,
      "Ġtriang": 3099,
      "Ġfilthy": 3100,
      "Ġhammer": 3101,
      "Ġgar": 3102,
      "Ġstupid": 3103,
      "Ġslipped": 3104,
      "Ġraced": 3105,
      "Ġcube": 3106,
      "Ġindependent": 3107,
      "There": 3108,
      "Ġlean": 3109,
      "Ġgets": 3110,
      "ĠNo": 3111,
      "umpet": 3112,
      "Ġtor": 3113,
      "Ġescape": 3114,
      "Ġtrumpet": 3115,
      "Ġlow": 3116,
      "Are": 3117,
      "Ġraven": 3118,
      "Ġref": 3119,
      "Ġcompet": 3120,
      "erable": 3121,
      "pes": 3122,
      "ours": 3123,
      "Ġborrow": 3124,
      "Ġarrow": 3125,
      "Ġshows": 3126,
      "Ġspotted": 3127,
      "Ġpebb": 3128,
      "Ġlifted": 3129,
      "Ġcrane": 3130,
      "Ġeng": 3131,
      "Ġdest": 3132,
      "Ġcheerful": 3133,
      "Ġtaken": 3134,
      "Ġjug": 3135,
      "Ġbelonged": 3136,
      "Ġmiserable": 3137,
      "Ġgoose": 3138,
      "Ġparrot": 3139,
      "Ġtied": 3140,
      "ĠSn": 3141,
      "Ġsauce": 3142,
      "ages": 3143,
      "Ġserious": 3144,
      "Ġmovie": 3145,
      "dile": 3146,
      "codile": 3147,
      "Ġchoose": 3148,
      "Ġflute": 3149,
      "met": 3150,
      "Ġimpressive": 3151,
      "oin": 3152,
      "Ġmoder": 3153,
      "host": 3154,
      "Ġhopping": 3155,
      "Ġmailbox": 3156,
      "Ġcrayon": 3157,
      "Ġhouses": 3158,
      "axi": 3159,
      "Ġdough": 3160,
      "Ġspring": 3161,
      "Ġcere": 3162,
      "Ġhelmet": 3163,
      "Ġmagn": 3164,
      "Ġgum": 3165,
      "Ġcandle": 3166,
      "Ġprize": 3167,
      "Molly": 3168,
      "Ġplayful": 3169,
      "Ġstudy": 3170,
      "Ġpant": 3171,
      "Ġmodern": 3172,
      "Ġgarage": 3173,
      "Ġghost": 3174,
      "Ġtaxi": 3175,
      "Ġanx": 3176,
      "Ġumbrella": 3177,
      "Ġpeanut": 3178,
      "Ġanxious": 3179,
      "ĠJenny": 3180,
      "Ġbuilt": 3181,
      "Ġneeds": 3182,
      "Ġer": 3183,
      "Ġreliable": 3184,
      "Ġcereal": 3185,
      "Ġtorn": 3186,
      "Ġsil": 3187,
      "oto": 3188,
      "Ġsteal": 3189,
      "Ġcrocodile": 3190,
      "urkey": 3191,
      "inary": 3192,
      "Ġdisappoin": 3193,
      "Ġpicks": 3194,
      "Ġrug": 3195,
      "Ġhurts": 3196,
      "Ġbrace": 3197,
      "berries": 3198,
      "Ġpian": 3199,
      "Ġquar": 3200,
      "Ġpopular": 3201,
      "Ġkissed": 3202,
      "atch": 3203,
      "Ġcop": 3204,
      "Ġang": 3205,
      "Ġcact": 3206,
      "Ġcrack": 3207,
      "Ġpiano": 3208,
      "als": 3209,
      "Ġscale": 3210,
      "Ġonion": 3211,
      "Ġstanding": 3212,
      "Ġturkey": 3213,
      "acket": 3214,
      "Ġcomb": 3215,
      "ipe": 3216,
      "Ġcrawled": 3217,
      "appy": 3218,
      "Ġsink": 3219,
      "cles": 3220,
      "Ġtank": 3221,
      "Ġnail": 3222,
      "Ġhelps": 3223,
      "ĠSammy": 3224,
      "Ġcompetit": 3225,
      "Ġusing": 3226,
      "Ġhelpless": 3227,
      "Ġbeet": 3228,
      "Ġruined": 3229,
      "Ġjacket": 3230,
      "icop": 3231,
      "icopter": 3232,
      "zed": 3233,
      "amond": 3234,
      "Ġcamera": 3235,
      "Ġthoughtful": 3236,
      "Ġwander": 3237,
      "unnel": 3238,
      "cean": 3239,
      "Ġocean": 3240,
      "Ġsmoke": 3241,
      "Ġquarrel": 3242,
      "Ġtunnel": 3243,
      "Ġhelicopter": 3244,
      "asses": 3245,
      "ti": 3246,
      "llip": 3247,
      "comfortable": 3248,
      "llipop": 3249,
      "Ġuncomfortable": 3250,
      "Ġcharm": 3251,
      "Ġdiamond": 3252,
      "ĠTrue": 3253,
      "Ġcactus": 3254,
      "cut": 3255,
      "Ġmug": 3256,
      "Ġlollipop": 3257,
      "ilty": 3258,
      "Ġguilty": 3259,
      "Ġhumble": 3260,
      "Ġtooth": 3261,
      "Ġlocked": 3262,
      "Ġwrapped": 3263,
      "Ġones": 3264,
      "aser": 3265,
      "Ġtwig": 3266,
      "Ġtricks": 3267,
      "Ġpants": 3268,
      "io": 3269,
      "Ġmeant": 3270,
      "Ġharmless": 3271,
      "Ġpress": 3272,
      "Ġtroubled": 3273,
      "Ġyaw": 3274,
      "Ġscoot": 3275,
      "het": 3276,
      "Ġcomet": 3277,
      "Ġbelt": 3278,
      "Ġpassed": 3279,
      "Ġengine": 3280,
      "ĠEven": 3281,
      "Ġharder": 3282,
      "Ġtap": 3283,
      "Ġmagnet": 3284,
      "Jane": 3285,
      "Ġflashlight": 3286,
      "Ġavoc": 3287,
      "Ġdisappointed": 3288,
      "Ġmush": 3289,
      "Ġfis": 3290,
      "Their": 3291,
      "Ġboys": 3292,
      "Ġenv": 3293,
      "aghet": 3294,
      "aghetti": 3295,
      "Ġdeaf": 3296,
      "edy": 3297,
      "Ġhappiness": 3298,
      "Ġpale": 3299,
      "pack": 3300,
      "Mama": 3301,
      "Ġlit": 3302,
      "Ġtag": 3303,
      "Ġbull": 3304,
      "Ġwalks": 3305,
      "Ġpow": 3306,
      "Ġcoins": 3307,
      "Ġfluffy": 3308,
      "Ġtriangle": 3309,
      "Ġrid": 3310,
      "Ġspaghetti": 3311,
      "Ġliz": 3312,
      "Ġfigure": 3313,
      "atter": 3314,
      "Ġlicked": 3315,
      "Timmy": 3316,
      "Ġinvited": 3317,
      "ulu": 3318,
      "Ġanswered": 3319,
      "aff": 3320,
      "Ġshade": 3321,
      "Ġpigeon": 3322,
      "assion": 3323,
      "Ġtears": 3324,
      "Ġcharming": 3325,
      "Ġspill": 3326,
      "Ġloop": 3327,
      "Ġroof": 3328,
      "Ġwire": 3329,
      "cident": 3330,
      "Ġmushroom": 3331,
      "Ġspend": 3332,
      "Ġpoured": 3333,
      "Ġordinary": 3334,
      "iv": 3335,
      "Ġspeed": 3336,
      "coa": 3337,
      "Ġrag": 3338,
      "ubby": 3339,
      "Ġpersist": 3340,
      "Ġticket": 3341,
      "Ġdolphin": 3342,
      "uth": 3343,
      "Ġbeetle": 3344,
      "hip": 3345,
      "Ġdelight": 3346,
      "weet": 3347,
      "Ġshape": 3348,
      "ube": 3349,
      "Ġvide": 3350,
      "Ġcoo": 3351,
      "Ġcompassion": 3352,
      "Ġcomput": 3353,
      "Ġregular": 3354,
      "Ġtire": 3355,
      "ief": 3356,
      "Ġsquash": 3357,
      "Ġload": 3358,
      "Ġshrimp": 3359,
      "Ġcarp": 3360,
      "Ġdust": 3361,
      "Ġlizard": 3362,
      "Ġwhispered": 3363,
      "Ġplanet": 3364,
      "Ġmop": 3365,
      "ging": 3366,
      "Ġmitten": 3367,
      "Ġrode": 3368,
      "Ġbri": 3369,
      "Ġcreate": 3370,
      "Ġsle": 3371,
      "ccol": 3372,
      "Ġgiving": 3373,
      "Ġangel": 3374,
      "ccoli": 3375,
      "Ġgrace": 3376,
      "Ġchubby": 3377,
      "Bobo": 3378,
      "ĠJake": 3379,
      "ither": 3380,
      "Ġrep": 3381,
      "Ġcarpet": 3382,
      "Ġsailed": 3383,
      "Ġwheat": 3384,
      "ushion": 3385,
      "Ġharsh": 3386,
      "Ġfriendship": 3387,
      "Ġears": 3388,
      "Ġcushion": 3389,
      "Ġpasta": 3390,
      "Ġneedle": 3391,
      "ellig": 3392,
      "Ġlibr": 3393,
      "Ġaccident": 3394,
      "Ġbracelet": 3395,
      "Ġcocoa": 3396,
      "Ġintellig": 3397,
      "Ġpersistent": 3398,
      "Ġtube": 3399,
      "Ġgifted": 3400,
      "Ġforward": 3401,
      "essie": 3402,
      "Ġvine": 3403,
      "Ġrestless": 3404,
      "Ġhook": 3405,
      "Ġpracticed": 3406,
      "Ġknot": 3407,
      "ulif": 3408,
      "Ġhunt": 3409,
      "Ġsoldier": 3410,
      "Ġnod": 3411,
      "ulb": 3412,
      "Ġcomputer": 3413,
      "zzy": 3414,
      "Ġsheet": 3415,
      "Ġfeathers": 3416,
      "Ġbicy": 3417,
      "Ġcaulif": 3418,
      "vator": 3419,
      "Ġscreen": 3420,
      "Ġbin": 3421,
      "ision": 3422,
      "Ġelevator": 3423,
      "Ġvest": 3424,
      "Ġnoteb": 3425,
      "Ġenvious": 3426,
      "Ġnotebook": 3427,
      "Ġmill": 3428,
      "Ġsaus": 3429,
      "Ġhaircut": 3430,
      "Ġreturned": 3431,
      "Ġbulb": 3432,
      "Ġyogurt": 3433,
      "Ġpipe": 3434,
      "anger": 3435,
      "Ġbubble": 3436,
      "Ġprun": 3437,
      "Ġlying": 3438,
      "Ġbroccoli": 3439,
      "omes": 3440,
      "Ġhalf": 3441,
      "Ġvi": 3442,
      "Ġstronger": 3443,
      "Ġsleeping": 3444,
      "Ġdesk": 3445,
      "Ġradio": 3446,
      "Ġacce": 3447,
      "Ġcauliflower": 3448,
      "Ġmelt": 3449,
      "Ġthread": 3450,
      "Ġquestions": 3451,
      "opard": 3452,
      "Ġoffice": 3453,
      "atient": 3454,
      "rework": 3455,
      "cycle": 3456,
      "Ġtrack": 3457,
      "Ġdeliver": 3458,
      "Ġbees": 3459,
      "Ġintelligent": 3460,
      "Ġthief": 3461,
      "Ġspun": 3462,
      "Ġdestro": 3463,
      "Ġinse": 3464,
      "Ġweek": 3465,
      "asing": 3466,
      "Ġpoem": 3467,
      "Ġpeach": 3468,
      "Ġoat": 3469,
      "dom": 3470,
      "umbers": 3471,
      "ye": 3472,
      "Ġstretch": 3473,
      "Ġraft": 3474,
      "Ġpro": 3475,
      "Ġalert": 3476,
      "Ġhappening": 3477,
      "Ġtrunk": 3478,
      "azz": 3479,
      "Ġcompetitive": 3480,
      "Ġtrap": 3481,
      "Ġdiary": 3482,
      "ĠToday": 3483,
      "Ġeraser": 3484,
      "Ġcompassionate": 3485,
      "Ġpony": 3486,
      "igator": 3487,
      "Ġenvel": 3488,
      "ĠOK": 3489,
      "Ġfirework": 3490,
      "Ġwheels": 3491,
      "Ġscooter": 3492,
      "ĠSh": 3493,
      "Ġleopard": 3494,
      "Ġorder": 3495,
      "isted": 3496,
      "Ġnicely": 3497,
      "Ġpit": 3498,
      "Ġuncle": 3499,
      "Ġskin": 3500,
      "Ġpengu": 3501,
      "Ġtray": 3502,
      "Ġways": 3503,
      "Ġparade": 3504,
      "Ġnumbers": 3505,
      "Ġdecide": 3506,
      "Ġwalls": 3507,
      "ital": 3508,
      "Ġslept": 3509,
      "Go": 3510,
      "cream": 3511,
      "lcan": 3512,
      "Ġcrawl": 3513,
      "urtain": 3514,
      "ĠPoppy": 3515,
      "Ġdistant": 3516,
      "Ġexcite": 3517,
      "Ġtruth": 3518,
      "Ġcurtain": 3519,
      "Ġalligator": 3520,
      "Ġdreams": 3521,
      "ĠFr": 3522,
      "Ġattract": 3523,
      "ĠLulu": 3524,
      "Ġhosp": 3525,
      "Ġlouder": 3526,
      "Ġinsect": 3527,
      "lcano": 3528,
      "Ġpebble": 3529,
      "Ġador": 3530,
      "Ġhospital": 3531,
      "Ġboxes": 3532,
      "Ġsort": 3533,
      "Ġimpatient": 3534,
      "Ġglove": 3535,
      "Ġrice": 3536,
      "olin": 3537,
      "Ġbandage": 3538,
      "Ġspeak": 3539,
      "Ġenc": 3540,
      "Ġcelebrate": 3541,
      "Ġspinning": 3542,
      "usie": 3543,
      "Ġtravel": 3544,
      "ebra": 3545,
      "Ġstream": 3546,
      "Ġtem": 3547,
      "Ġbarber": 3548,
      "Ġdeter": 3549,
      "Ġeventually": 3550,
      "ĠBuzz": 3551,
      "Ġignorant": 3552,
      "erop": 3553,
      "Ġavocado": 3554,
      "eropl": 3555,
      "Ġsniff": 3556,
      "Ġmarry": 3557,
      "Ġhomes": 3558,
      "Ġlearning": 3559,
      "Ġbushes": 3560,
      "urb": 3561,
      "Ġcooked": 3562,
      "Ġattractive": 3563,
      "Ġadorable": 3564,
      "Ġaeropl": 3565,
      "Ġed": 3566,
      "Ġrubbed": 3567,
      "Ġchalk": 3568,
      "Ġvolcano": 3569,
      "Ġdeterm": 3570,
      "ete": 3571,
      "Ġskull": 3572,
      "tern": 3573,
      "Ġscatter": 3574,
      "Sarah": 3575,
      "Ġshut": 3576,
      "Ġviolin": 3577,
      "aged": 3578,
      "Ġdisturb": 3579,
      "Ġbiggest": 3580,
      "Ġclub": 3581,
      "Ġmotorcycle": 3582,
      "Ġtummy": 3583,
      "Ġbase": 3584,
      "Ġlively": 3585,
      "ĠEmily": 3586,
      "Ġbicycle": 3587,
      "Ġbehave": 3588,
      "chair": 3589,
      "Ġgraceful": 3590,
      "Ġsaying": 3591,
      "Ġbounced": 3592,
      "Ġherb": 3593,
      "Ġsend": 3594,
      "Ġthemselves": 3595,
      "Ġzebra": 3596,
      "Ġfilm": 3597,
      "Ġdestroy": 3598,
      "Ġfloat": 3599,
      "Ġthu": 3600,
      "Ġuniver": 3601,
      "Ġlaughs": 3602,
      "Ġseal": 3603,
      "Ġjudge": 3604,
      "rage": 3605,
      "Ġsurf": 3606,
      "Ġarmchair": 3607,
      "Ġcompl": 3608,
      "Ġwiped": 3609,
      "Ġenvelope": 3610,
      "Ġresc": 3611,
      "Ġcounting": 3612,
      "Ġink": 3613,
      "Ġpolish": 3614,
      "Ġearth": 3615,
      "ĠPeter": 3616,
      "Ġcleaning": 3617,
      "Ġenth": 3618,
      "Ġmetal": 3619,
      "Ġunlock": 3620,
      "Ġsneeze": 3621,
      "Ġcricket": 3622,
      "Ġguard": 3623,
      "Ġzipp": 3624,
      "Ġskip": 3625,
      "Ġmeat": 3626,
      "Ġenthus": 3627,
      "Ġsteak": 3628,
      "Ġenthusia": 3629,
      "Ġforth": 3630,
      "Ġrod": 3631,
      "Ġchain": 3632,
      "Ġbump": 3633,
      "Ġskipped": 3634,
      "Ġcity": 3635,
      "ĠPipp": 3636,
      "Ġhedge": 3637,
      "irit": 3638,
      "aky": 3639,
      "Ġwallet": 3640,
      "Ġpointing": 3641,
      "Ġjellyfish": 3642,
      "Ġmuffin": 3643,
      "Ġtemp": 3644,
      "Ġdive": 3645,
      "Ġpattern": 3646,
      "gl": 3647,
      "Ġshowing": 3648,
      "Ġcase": 3649,
      "ention": 3650,
      "Billy": 3651,
      "Ġstack": 3652,
      "Ġoy": 3653,
      "Ġstranger": 3654,
      "Ġhipp": 3655,
      "Ġsweater": 3656,
      "Ġloudly": 3657,
      "Ġwaffle": 3658,
      "Ġyoga": 3659,
      "Ġcupboard": 3660,
      "Ġbuttons": 3661,
      "ache": 3662,
      "ĠPolly": 3663,
      "Ġlibrary": 3664,
      "offe": 3665,
      "Ġspell": 3666,
      "offee": 3667,
      "Ġpurse": 3668,
      "Ġtroph": 3669,
      "Ġbarrel": 3670,
      "Ġframe": 3671,
      "umbled": 3672,
      "Gra": 3673,
      "Ġmissile": 3674,
      "Ġple": 3675,
      "Ġyach": 3676,
      "Ġimpro": 3677,
      "Ġradish": 3678,
      "Ġwishes": 3679,
      "Ġlights": 3680,
      "Ġshells": 3681,
      "Ġgrown": 3682,
      "Ġaeroplane": 3683,
      "lies": 3684,
      "Ġsungl": 3685,
      "Ġsunglasses": 3686,
      "Ġnurse": 3687,
      "Ġmatt": 3688,
      "Ġvideo": 3689,
      "Ġtrucks": 3690,
      "Ġsoar": 3691,
      "Ġprep": 3692,
      "Ġroot": 3693,
      "Ġkay": 3694,
      "Ġfolder": 3695,
      "ĠLittle": 3696,
      "ject": 3697,
      "ĠFo": 3698,
      "Ġbrothers": 3699,
      "Ġshield": 3700,
      "Ġdecorate": 3701,
      "oby": 3702,
      "utes": 3703,
      "elery": 3704,
      "Give": 3705,
      "Ġcomplet": 3706,
      "Ġcartoon": 3707,
      "Ġpirate": 3708,
      "work": 3709,
      "Ġled": 3710,
      "Ġonce": 3711,
      "Ġgathered": 3712,
      "Ġyacht": 3713,
      "ito": 3714,
      "uring": 3715,
      "Ġplayground": 3716,
      "Ġmixer": 3717,
      "htub": 3718,
      "Ġtrophy": 3719,
      "Ġknows": 3720,
      "Ġbathtub": 3721,
      "Ġedge": 3722,
      "quito": 3723,
      "Ġribb": 3724,
      "ushed": 3725,
      "Ġhippo": 3726,
      "Ġspear": 3727,
      "dest": 3728,
      "Ġpole": 3729,
      "Ġcomplain": 3730,
      "Ġfather": 3731,
      "ĠBirdy": 3732,
      "Ġpost": 3733,
      "Ġfalls": 3734,
      "Ġchess": 3735,
      "Ġmattress": 3736,
      "Ġstation": 3737,
      "ĠTweet": 3738,
      "Ġmos": 3739,
      "Ġcoffee": 3740,
      "Ġyet": 3741,
      "Ġencou": 3742,
      "ric": 3743,
      "Ġkayak": 3744,
      "Ġcelery": 3745,
      "Ġbags": 3746,
      "Ġadded": 3747,
      "Ġmakeup": 3748,
      "Ġpowder": 3749,
      "Ġmosquito": 3750,
      "Ġwhenever": 3751,
      "Ġsplit": 3752,
      "Ġcable": 3753,
      "Ġmild": 3754,
      "Ġtripped": 3755,
      "Ġsalt": 3756,
      "Ġstrawberry": 3757,
      "Ġrepe": 3758,
      "Ġjournal": 3759,
      "Ġteleph": 3760,
      "Jimmy": 3761,
      "aving": 3762,
      "Ġitself": 3763,
      "bul": 3764,
      "Ġgrowl": 3765,
      "Ġpine": 3766,
      "Ġminutes": 3767,
      "par": 3768,
      "Ġfu": 3769,
      "Ġlime": 3770,
      "Ġrot": 3771,
      "nger": 3772,
      "Ġdriving": 3773,
      "Ġpoke": 3774,
      "seum": 3775,
      "Ġtelephone": 3776,
      "Ġmanaged": 3777,
      "Ġveil": 3778,
      "bulance": 3779,
      "Ġambulance": 3780,
      "Ġdisappeared": 3781,
      "Ġglowing": 3782,
      "?\".": 3783,
      "Ġmuseum": 3784,
      "Ġdess": 3785,
      "Ġcalling": 3786,
      "ait": 3787,
      "ĠBet": 3788,
      "Ġknight": 3789,
      "head": 3790,
      "Ġitch": 3791,
      "Ġarg": 3792,
      "Ġswitch": 3793,
      "Ġattic": 3794,
      "Ġmodest": 3795,
      "Ġsailor": 3796,
      "Ġscrew": 3797,
      "ĠMum": 3798,
      "case": 3799,
      "Ġaut": 3800,
      "Ġcoal": 3801,
      "Ġmagaz": 3802,
      "ceed": 3803,
      "Ġflea": 3804,
      "iron": 3805,
      "Ġfootball": 3806,
      "stic": 3807,
      "iew": 3808,
      "Ġcob": 3809,
      "aroo": 3810,
      "Ġtools": 3811,
      "Ġgear": 3812,
      "Ġflame": 3813,
      "ĠDan": 3814,
      "Ġdetermined": 3815,
      "angaroo": 3816,
      "Ġhall": 3817,
      "Ġhotel": 3818,
      "Well": 3819,
      "Ġeye": 3820,
      "Ġreading": 3821,
      "Ġview": 3822,
      "Ġenthusiastic": 3823,
      "Ġpun": 3824,
      "Ġbarking": 3825,
      "ĠPeople": 3826,
      "otter": 3827,
      "web": 3828,
      "Ġotter": 3829,
      "ophone": 3830,
      "Ġkangaroo": 3831,
      "Ġgrandpa": 3832,
      "Ġkindness": 3833,
      "Ġcell": 3834,
      "Ġfireman": 3835,
      "Ġmeadow": 3836,
      "Ġdrawings": 3837,
      "Ġmeans": 3838,
      "Ġoyster": 3839,
      "ines": 3840,
      "ĠRose": 3841,
      "nam": 3842,
      "Ġcobweb": 3843,
      "old": 3844,
      "Ġpenny": 3845,
      "obile": 3846,
      "Bye": 3847,
      "omobile": 3848,
      "esday": 3849,
      "Ġsucceed": 3850,
      "Ġgasp": 3851,
      "Ġspirit": 3852,
      "Ġpacked": 3853,
      "hic": 3854,
      "Ġquit": 3855,
      "Ġautomobile": 3856,
      ",âĢĿ": 3857,
      "la": 3858,
      "Ġvehic": 3859,
      "Ġthunder": 3860,
      "Ġcolour": 3861,
      "Ġsupport": 3862,
      "Ġsepar": 3863,
      "Ġdrawer": 3864,
      "illa": 3865,
      "Ġmessage": 3866,
      "ctory": 3867,
      "Ġstrugg": 3868,
      "uper": 3869,
      "Ġtemple": 3870,
      "time": 3871,
      "Ġshocked": 3872,
      "Ġrepair": 3873,
      "Ġwool": 3874,
      "Ġgolf": 3875,
      "Ġfactory": 3876,
      "Ġtear": 3877,
      "Ġsight": 3878,
      "Ġrolling": 3879,
      "Ġlaund": 3880,
      "Ġslides": 3881,
      "Ġlaundry": 3882,
      "Ġmath": 3883,
      "Ġcamp": 3884,
      "nament": 3885,
      "Ġok": 3886,
      "Ġcups": 3887,
      "See": 3888,
      "Ġornament": 3889,
      "Ġpatch": 3890,
      "Ġvend": 3891,
      "ctop": 3892,
      "Ġknock": 3893,
      "Ġearly": 3894,
      "Ġpackage": 3895,
      "Ġdessert": 3896,
      "Jill": 3897,
      "Ġmarble": 3898,
      "ĠTina": 3899,
      "Ġcostume": 3900,
      "bol": 3901,
      "Ġhandle": 3902,
      "Ġcooking": 3903,
      "Ġsafely": 3904,
      "Ġshort": 3905,
      "Ġmicr": 3906,
      "Ġstairs": 3907,
      "ymbol": 3908,
      "ckey": 3909,
      "Ġhockey": 3910,
      "ucet": 3911,
      "Ġsandbox": 3912,
      "Ġthose": 3913,
      "ney": 3914,
      "Ġsausage": 3915,
      "Ġmaze": 3916,
      "ĠPete": 3917,
      "ctopus": 3918,
      "Ġlotion": 3919,
      "ĠSnow": 3920,
      "Ġzipper": 3921,
      "Ġmicrophone": 3922,
      "Ġeither": 3923,
      "Ġoak": 3924,
      "Ġbananas": 3925,
      "Ġhurry": 3926,
      "Ġhunter": 3927,
      "Ġpenguin": 3928,
      "Ġweep": 3929,
      "Ġfaucet": 3930,
      "Ġmarched": 3931,
      "Ġgiggled": 3932,
      "Re": 3933,
      "Ġtask": 3934,
      "ination": 3935,
      "ĠLook": 3936,
      "Ġvendor": 3937,
      "Ġiron": 3938,
      "Ġstaff": 3939,
      "Ġsuggest": 3940,
      "Ġten": 3941,
      "Ġnewsp": 3942,
      "istol": 3943,
      "Ġoft": 3944,
      "Ġwife": 3945,
      "Ġrever": 3946,
      "Ġoil": 3947,
      "Ġpee": 3948,
      "Ġfreez": 3949,
      "Ġoften": 3950,
      "asher": 3951,
      "Ġnovel": 3952,
      "Ġenjoying": 3953,
      "Ġtornado": 3954,
      "ugged": 3955,
      "Ġpastry": 3956,
      "Ġbathe": 3957,
      "Al": 3958,
      "Ġsymbol": 3959,
      "Ġcooler": 3960,
      "ilot": 3961,
      "Ġperm": 3962,
      "ready": 3963,
      "Joe": 3964,
      "washer": 3965,
      "ature": 3966,
      "ĠSunny": 3967,
      "leton": 3968,
      "Ġur": 3969,
      "keleton": 3970,
      "Ġphoto": 3971,
      "Ġopens": 3972,
      "Ġoctopus": 3973,
      "Ġlaser": 3974,
      "anda": 3975,
      "Ġremain": 3976,
      "Ġsett": 3977,
      "Ġgrill": 3978,
      "Ġavail": 3979,
      "imney": 3980,
      "urch": 3981,
      "Ġleash": 3982,
      "Ġbattery": 3983,
      "Ġdishwasher": 3984,
      "ĠMiss": 3985,
      "cing": 3986,
      "Ġhours": 3987,
      "Ġpistol": 3988,
      "Ġstumbled": 3989,
      "Ġgrapes": 3990,
      "ense": 3991,
      "Ġreward": 3992,
      "Ġfive": 3993,
      "'d": 3994,
      "Ġalready": 3995,
      "Em": 3996,
      "Fluffy": 3997,
      "Ġmagazine": 3998,
      "ĠHere": 3999,
      "Ġchimney": 4000,
      "Ġholds": 4001,
      "Ġavailable": 4002,
      "Ġboots": 4003,
      "Ġhanging": 4004,
      "Ġrise": 4005,
      "apers": 4006,
      "Ġlend": 4007,
      "Ġsteps": 4008,
      "Ġmem": 4009,
      "Ġflour": 4010,
      "Ġanch": 4011,
      "Ġbathrobe": 4012,
      "Ġfile": 4013,
      "Ġtrash": 4014,
      "Ġtrail": 4015,
      "Ġorganize": 4016,
      "vision": 4017,
      "Ġpretending": 4018,
      "Ġpilot": 4019,
      "Ġfastest": 4020,
      "Ġcardboard": 4021,
      "Ġsne": 4022,
      "Ġbasketball": 4023,
      "Ġow": 4024,
      "Ġwhip": 4025,
      "play": 4026,
      "Ġfingers": 4027,
      "Ġthinking": 4028,
      "Ġrake": 4029,
      "Ġmule": 4030,
      "ions": 4031,
      "ron": 4032,
      "Ġpal": 4033,
      "arian": 4034,
      "Ġsuper": 4035,
      "Ġrealised": 4036,
      "Ġrhin": 4037,
      "Wait": 4038,
      "ĠSpike": 4039,
      "arry": 4040,
      "Ġresist": 4041,
      "Ġmummy": 4042,
      "Ġpicking": 4043,
      "Ġax": 4044,
      "ately": 4045,
      "Ġjumps": 4046,
      "Ġstared": 4047,
      "Ġjuicy": 4048,
      "keep": 4049,
      "Ġchurch": 4050,
      "Ġfog": 4051,
      "Ġcherries": 4052,
      "Ġbaseball": 4053,
      "Ġtelevision": 4054,
      "azor": 4055,
      "Ġfisher": 4056,
      "Ġcomplete": 4057,
      "Ġskeleton": 4058,
      "ĠBessie": 4059,
      "Ġallowed": 4060,
      "Ġblackboard": 4061,
      "Ġdiscovered": 4062,
      "Ġcane": 4063,
      "rosc": 4064,
      "Ġanchor": 4065,
      "Ġpear": 4066,
      "roscope": 4067,
      "ĠRob": 4068,
      "Ġsilver": 4069,
      "come": 4070,
      "Ġtaller": 4071,
      "Ġnames": 4072,
      "ĠEverywhere": 4073,
      "Ġbikes": 4074,
      "Ġjunk": 4075,
      "Ġjokes": 4076,
      "Ġig": 4077,
      "Ġpalace": 4078,
      "Ġsub": 4079,
      "Ġvalu": 4080,
      "Ġcord": 4081,
      "loo": 4082,
      "Ġsize": 4083,
      "Ġpor": 4084,
      "ĠSusie": 4085,
      "Ġstickers": 4086,
      "ĠGive": 4087,
      "Ġigloo": 4088,
      "Ġfalling": 4089,
      "Ġaxe": 4090,
      "Ġtightly": 4091,
      "Ġmay": 4092,
      "ĠZip": 4093,
      "Ġpinch": 4094,
      "Ġexcitement": 4095,
      "Ġdisplay": 4096,
      "Ġperfume": 4097,
      "Ġbill": 4098,
      "Ġholes": 4099,
      "Ġtowers": 4100,
      "Ġcards": 4101,
      "Ġnotice": 4102,
      "Ġsparkly": 4103,
      "zag": 4104,
      "Ġspilled": 4105,
      "Ġdreamed": 4106,
      "Ġmen": 4107,
      "Ġagainst": 4108,
      "Ġimagine": 4109,
      "ik": 4110,
      "Ġshaking": 4111,
      "Ġoats": 4112,
      "igzag": 4113,
      "Ġfreezer": 4114,
      "Ġfrogs": 4115,
      "ĠBetty": 4116,
      "Ġspoke": 4117,
      "Ġbeep": 4118,
      "Ġnapkin": 4119,
      "Ġpractice": 4120,
      "asis": 4121,
      "Ġolive": 4122,
      "ured": 4123,
      "ĠKim": 4124,
      "Ġmint": 4125,
      "Ġmedal": 4126,
      "Ġcows": 4127,
      "ocer": 4128,
      "Ġfisherman": 4129,
      "Ġgor": 4130,
      "iction": 4131,
      "Ġcheck": 4132,
      "Ġgasped": 4133,
      "Ġhanger": 4134,
      "Ġnewspaper": 4135,
      "Ġroared": 4136,
      "Ġclimbing": 4137,
      "Ġshrink": 4138,
      "ictionary": 4139,
      "Ġhut": 4140,
      "aches": 4141,
      "oceros": 4142,
      "Ġtut": 4143,
      "lend": 4144,
      "Ġswinging": 4145,
      "Ġoasis": 4146,
      "Ġsnap": 4147,
      "te": 4148,
      "Ġdisag": 4149,
      "aurant": 4150,
      "Ġporch": 4151,
      "Ġrestaurant": 4152,
      "Ġtelling": 4153,
      "body": 4154,
      "Ow": 4155,
      "del": 4156,
      "eer": 4157,
      "Ġson": 4158,
      "Ġimprove": 4159,
      "Ġstretched": 4160,
      "Ġrhinoceros": 4161,
      "Ġjewelry": 4162,
      "aid": 4163,
      "Ġpressed": 4164,
      "ĠPippin": 4165,
      "Ġlistening": 4166,
      "Ġstops": 4167,
      "Ġswamp": 4168,
      "Ġdistance": 4169,
      "Ġrece": 4170,
      "place": 4171,
      "Ġward": 4172,
      "Ġwardrobe": 4173,
      "vice": 4174,
      "Ġped": 4175,
      "Ġbookcase": 4176,
      "Ġoffered": 4177,
      "Ġtutor": 4178,
      "keeper": 4179,
      "htray": 4180,
      "Ġtheater": 4181,
      "Ġlie": 4182,
      "ĠCo": 4183,
      "Is": 4184,
      "Ġattach": 4185,
      "ĠAre": 4186,
      "Ġsquirrels": 4187,
      "Ġletters": 4188,
      "lu": 4189,
      "Ġblouse": 4190,
      "Ġsubway": 4191,
      "Ġvaluable": 4192,
      "Ġbillboard": 4193,
      "iches": 4194,
      "Ġblueberries": 4195,
      "Ġhappier": 4196,
      "Ġlip": 4197,
      "Ġairport": 4198,
      "Ġpassport": 4199,
      "Mummy": 4200,
      "Ġrazor": 4201,
      "Ġopera": 4202,
      "Ġsandwiches": 4203,
      "iest": 4204,
      "ĠToby": 4205,
      "Ġdictionary": 4206,
      "Ġgain": 4207,
      "Ġtub": 4208,
      "Ġpapers": 4209,
      "Ġneat": 4210,
      "reek": 4211,
      "Ġbookshe": 4212,
      "Ġblin": 4213,
      "Ġmodel": 4214,
      "Ġcreek": 4215,
      "Ġalarm": 4216,
      "ĠZoom": 4217,
      "Ġhive": 4218,
      "cu": 4219,
      "Ġfireplace": 4220,
      "Ġrescue": 4221,
      "Ġagree": 4222,
      "Ġvehicle": 4223,
      "Ġgrand": 4224,
      "Ġbookshelf": 4225,
      "ilet": 4226,
      "Ġreind": 4227,
      "stairs": 4228,
      "Ġashtray": 4229,
      "Ġbutterflies": 4230,
      "Ġdrain": 4231,
      "Ġrules": 4232,
      "Ġtoilet": 4233,
      "Ġnature": 4234,
      "Little": 4235,
      "gen": 4236,
      "Ġbury": 4237,
      "Ġchose": 4238,
      "Ġahead": 4239,
      "Ġhung": 4240,
      "Ġpopped": 4241,
      "Ġcircles": 4242,
      "Ġinclu": 4243,
      "omed": 4244,
      "Ġgorilla": 4245,
      "fast": 4246,
      "Ġgrape": 4247,
      "Ġobject": 4248,
      "Ġrail": 4249,
      "Ġgrowing": 4250,
      "Ġobser": 4251,
      "Ġfuel": 4252,
      "Ġcomfort": 4253,
      "Ġreindeer": 4254,
      "Ġext": 4255,
      "Ġhate": 4256,
      "Ġpainter": 4257,
      "Ġbreakfast": 4258,
      "Ġbuckle": 4259,
      "Ġminer": 4260,
      "Ġleaned": 4261,
      "Ġprov": 4262,
      "Ġmicroscope": 4263,
      "Ġtuna": 4264,
      "Ġpastel": 4265,
      "Ġcalend": 4266,
      "Ġwipe": 4267,
      "Ġsweetie": 4268,
      "Ġadvice": 4269,
      "Ġreverse": 4270,
      "Ġpoked": 4271,
      "Ġbelongs": 4272,
      "Ġpleased": 4273,
      "Ġhelper": 4274,
      "lter": 4275,
      "riger": 4276,
      "Ġunpack": 4277,
      "rigerator": 4278,
      "Ġpoint": 4279,
      "vet": 4280,
      "xy": 4281,
      "Ġshelter": 4282,
      "Ġpeek": 4283,
      "Ġlabel": 4284,
      "Ġrefrigerator": 4285,
      "Ġanyway": 4286,
      "Ġdisappear": 4287,
      "Ġcabinet": 4288,
      "Ġcalendar": 4289,
      "Ġdoesn": 4290,
      "Ġsof": 4291,
      "Ġtease": 4292,
      "Ġchance": 4293,
      "Ġanywhere": 4294,
      "ogn": 4295,
      "ival": 4296,
      "Ġweigh": 4297,
      "Ġgoal": 4298,
      "Ġleaving": 4299,
      "Ġserve": 4300,
      "Ġseparate": 4301,
      "Ġfest": 4302,
      "Ġbrick": 4303,
      "iki": 4304,
      "render": 4305,
      "stri": 4306,
      "Ġrecogn": 4307,
      "Ġstirred": 4308,
      "Ġdreaming": 4309,
      "ampoo": 4310,
      "Ġpeeked": 4311,
      "Ġtrains": 4312,
      "Mr": 4313,
      "Ġinvite": 4314,
      "Ġsofa": 4315,
      "ef": 4316,
      "ĠGrandpa": 4317,
      "ience": 4318,
      "Ġskirt": 4319,
      "Ġgym": 4320,
      "Ġsoil": 4321,
      "Ġlightning": 4322,
      "ison": 4323,
      "Ġmeeting": 4324,
      "Ġwaste": 4325,
      "ummer": 4326,
      "ĠDolly": 4327,
      "Ouch": 4328,
      "Ġriding": 4329,
      "Ġquiz": 4330,
      "Ġslipp": 4331,
      "Ġweather": 4332,
      "Ġpage": 4333,
      "Ġcliff": 4334,
      "Ġmusician": 4335,
      "Ġgas": 4336,
      "ected": 4337,
      "Ġfestival": 4338,
      "res": 4339,
      "Ġshampoo": 4340,
      "!\".": 4341,
      "ĠTeddy": 4342,
      "Ġrubber": 4343,
      "na": 4344,
      "Ġlumber": 4345,
      "ĠMrs": 4346,
      "ĠMar": 4347,
      "Ġaccept": 4348,
      "Ġextra": 4349,
      "affe": 4350,
      "Ġlawn": 4351,
      "Ġfort": 4352,
      "Ġbeef": 4353,
      "ium": 4354,
      "Ġaccidentally": 4355,
      "Ġgaz": 4356,
      "Ġrepeat": 4357,
      "Ġtwir": 4358,
      "yer": 4359,
      "Ġsounded": 4360,
      "Ġtrade": 4361,
      "Ġlid": 4362,
      "aspoon": 4363,
      "Daisy": 4364,
      "Ġmissing": 4365,
      "Ġstom": 4366,
      "ĠCl": 4367,
      "Ġhappens": 4368,
      "Ġpanda": 4369,
      "Ġostri": 4370,
      "Ġknob": 4371,
      "Ġwindows": 4372,
      "Ġins": 4373,
      "night": 4374,
      "Ġmustache": 4375,
      "Ġunite": 4376,
      "Ġswung": 4377,
      "Ġlic": 4378,
      "Ġceiling": 4379,
      "ĠBubb": 4380,
      "Ġsuff": 4381,
      "Ġcudd": 4382,
      "Ġwarned": 4383,
      "Ġwigg": 4384,
      "Ġclassroom": 4385,
      "Ġjail": 4386,
      "Ġfinds": 4387,
      "amber": 4388,
      "Ġmonkeys": 4389,
      "Ġcrib": 4390,
      "Ġbent": 4391,
      "Ġbet": 4392,
      "Ġpuddles": 4393,
      "Ġimagined": 4394,
      "Did": 4395,
      "Ġbirdc": 4396,
      "Ġreef": 4397,
      "low": 4398,
      "Ġwinter": 4399,
      "Ġsocks": 4400,
      "Ġgiraffe": 4401,
      "astic": 4402,
      "Ġbirdcage": 4403,
      "Ġsent": 4404,
      "ĠBuzzy": 4405,
      "Ġrefused": 4406,
      "Ġhuman": 4407,
      "angu": 4408,
      "Ġsqueeze": 4409,
      "Ġsummer": 4410,
      "Ġadmire": 4411,
      "Ġfrowned": 4412,
      "ĠBoun": 4413,
      "Ġfavour": 4414,
      "Ġstarts": 4415,
      "ĠWhere": 4416,
      "Ġlangu": 4417,
      "Ġapron": 4418,
      "iture": 4419,
      "urniture": 4420,
      "Ġchamber": 4421,
      "Ġfixing": 4422,
      "Ġlawyer": 4423,
      "Ġlicense": 4424,
      "Ġcaring": 4425,
      "Ġcarrying": 4426,
      "Ġfurniture": 4427,
      "adium": 4428,
      "eterin": 4429,
      "eterinarian": 4430,
      "Ġstadium": 4431,
      "Ġspoil": 4432,
      "Ġribbon": 4433,
      "ĠV": 4434,
      "Ġteaspoon": 4435,
      "Ġsadly": 4436,
      "Ġchasing": 4437,
      "ations": 4438,
      "Ġproblems": 4439,
      "Ġveterinarian": 4440,
      "Ġmistakes": 4441,
      "Ġsuggested": 4442,
      "Ġfavourite": 4443,
      "aked": 4444,
      "Ġstable": 4445,
      "rmomet": 4446,
      "Ġsneezed": 4447,
      "ricane": 4448,
      "Ġremove": 4449,
      "Ġincre": 4450,
      "Ġsearching": 4451,
      "med": 4452,
      "rmometer": 4453,
      "Ġabove": 4454,
      "Ġweap": 4455,
      "Ġpages": 4456,
      "Ġshower": 4457,
      "Ġprevent": 4458,
      "Ġdoors": 4459,
      "chan": 4460,
      "Ġshouts": 4461,
      "Ġlions": 4462,
      "Ġblinked": 4463,
      "ucture": 4464,
      "Ġsurprises": 4465,
      "Ġunif": 4466,
      "Ġstructure": 4467,
      "eor": 4468,
      "Ġinf": 4469,
      "ĠBill": 4470,
      "Ġuniform": 4471,
      "Ġostrich": 4472,
      "ĠHel": 4473,
      "Ġsurrender": 4474,
      "alley": 4475,
      "Ġsunset": 4476,
      "Ġsticker": 4477,
      "Ġdancer": 4478,
      "Ġrespectful": 4479,
      "Ġvalley": 4480,
      "Ġraise": 4481,
      "Ġharb": 4482,
      "Ġspade": 4483,
      "Ġargue": 4484,
      "Ġlugg": 4485,
      "ĠBig": 4486,
      "Ġhanded": 4487,
      "Ġmass": 4488,
      "ĠPandy": 4489,
      "Ġluggage": 4490,
      "veal": 4491,
      "thank": 4492,
      "Ġchairs": 4493,
      "ĠRed": 4494,
      "Ġforgave": 4495,
      "Ġstrip": 4496,
      "Ġpair": 4497,
      "Ġslip": 4498,
      "Ġaw": 4499,
      "elcome": 4500,
      "Ġreveal": 4501,
      "Ġpushing": 4502,
      "eorge": 4503,
      "Ġexcitedly": 4504,
      "Ġart": 4505,
      "ĠOw": 4506,
      "Ġmall": 4507,
      "hero": 4508,
      "Your": 4509,
      "chanic": 4510,
      "Ġharbor": 4511,
      "Ġcur": 4512,
      "Ġyield": 4513,
      "Ġbrightly": 4514,
      "Ġsuperhero": 4515,
      "Mary": 4516,
      "ĠBinky": 4517,
      "Ġplates": 4518,
      "ola": 4519,
      "rod": 4520,
      "Ġrushed": 4521,
      "Ġsaving": 4522,
      "ĠEllie": 4523,
      "Ġmechanic": 4524,
      "Ġthermometer": 4525,
      "Ġplayer": 4526,
      "Ġlives": 4527,
      "Ġintrod": 4528,
      "Ġchoice": 4529,
      "Ġwine": 4530,
      "Ġfought": 4531,
      "Ġmystery": 4532,
      "Ch": 4533,
      "Ġappl": 4534,
      "Ġsteam": 4535,
      "Ġzoomed": 4536,
      "ĠâĢ": 4537,
      "Ġshovel": 4538,
      "Ġgrabs": 4539,
      "Ġadmired": 4540,
      "Ġproudly": 4541,
      "ĠLee": 4542,
      "Ġdelay": 4543,
      "mend": 4544,
      "Ġolder": 4545,
      "Ġevening": 4546,
      "Ġignore": 4547,
      "cer": 4548,
      "Ġgro": 4549,
      "ecause": 4550,
      "Ġputting": 4551,
      "Ġpulls": 4552,
      "Ġrac": 4553,
      "Ġcared": 4554,
      "Ġshakes": 4555,
      "Ġfre": 4556,
      "ommend": 4557,
      "ĠPat": 4558,
      "Yuck": 4559,
      "Ġleak": 4560,
      "Ġmeas": 4561,
      "ason": 4562,
      "Ġsupply": 4563,
      "Ġhurricane": 4564,
      "Ġended": 4565,
      "Ġrecommend": 4566,
      "Ġsniffed": 4567,
      "ĠCarl": 4568,
      "peedy": 4569,
      "olog": 4570,
      "Ġpup": 4571,
      "aul": 4572,
      "Ġdelighted": 4573,
      "Ġslippery": 4574,
      "Ġclaw": 4575,
      "icky": 4576,
      "Ġhoping": 4577,
      "cuss": 4578,
      "Ġlanguage": 4579,
      "Yay": 4580,
      "icer": 4581,
      "Ġrestore": 4582,
      "Ġapolog": 4583,
      "ĠAlice": 4584,
      "Ġreminded": 4585,
      "Ġprepare": 4586,
      "Ġpanic": 4587,
      "Ġplastic": 4588,
      "ĠWould": 4589,
      "Ġregret": 4590,
      "oof": 4591,
      "Ġdear": 4592,
      "Ġdiscuss": 4593,
      "Ġberry": 4594,
      "Ġplanes": 4595,
      "aud": 4596,
      "Ġsoftly": 4597,
      "Ġcountry": 4598,
      "Ġmatches": 4599,
      "ĠNext": 4600,
      "Ġbarks": 4601,
      "Ġyawn": 4602,
      "Ġcolourful": 4603,
      "Ġreplace": 4604,
      "Ġweapon": 4605,
      "Ġinfant": 4606,
      "Ġrained": 4607,
      "Ġkinds": 4608,
      "ĠUn": 4609,
      "Ġshone": 4610,
      "ĠZoomy": 4611,
      "Ġshivering": 4612,
      "sity": 4613,
      "ĠBubbles": 4614,
      "Ġranch": 4615,
      "Ġx": 4616,
      "Ġclapping": 4617,
      "Ġshoulder": 4618,
      "Ġsticky": 4619,
      "Ġevent": 4620,
      "Will": 4621,
      "Ġbeg": 4622,
      "iday": 4623,
      "ĠJazz": 4624,
      "Ġsunr": 4625,
      "ĠKiki": 4626,
      "Ġdare": 4627,
      "Ġthanks": 4628,
      "Ġfresh": 4629,
      "Ġpoints": 4630,
      "Next": 4631,
      "ement": 4632,
      "Ġtip": 4633,
      "Ġport": 4634,
      "Ġsudden": 4635,
      "ari": 4636,
      "wards": 4637,
      "ĠEnd": 4638,
      "Ġhol": 4639,
      "ĠY": 4640,
      "ince": 4641,
      "Ġenter": 4642,
      "Ġcherry": 4643,
      "ating": 4644,
      "Ġscore": 4645,
      "Ġwre": 4646,
      "ĠOlive": 4647,
      "Ġholiday": 4648,
      "Ġmineral": 4649,
      "Ġsuffer": 4650,
      "Ġsunrise": 4651,
      "Grandma": 4652,
      "Ġthumb": 4653,
      "Ġfeelings": 4654,
      "ĠMike": 4655,
      "ĠFl": 4656,
      "ĠRu": 4657,
      "Ġchickens": 4658,
      "Ġapplaud": 4659,
      "Ġunh": 4660,
      "Ġflies": 4661,
      "Ġbend": 4662,
      "Ġmeowed": 4663,
      "Ġpushes": 4664,
      "Ġbrighter": 4665,
      "Ġgiggle": 4666,
      "cond": 4667,
      "..": 4668,
      "imed": 4669,
      "Ġmenu": 4670,
      "lex": 4671,
      "Ġsteel": 4672,
      "Emma": 4673,
      "Ġsecond": 4674,
      "Ġsplashing": 4675,
      "Ġprune": 4676,
      "ĠDave": 4677,
      "Ġcopper": 4678,
      "Ġbreat": 4679,
      "Ġexamine": 4680,
      "Buddy": 4681,
      "igi": 4682,
      "Ġrow": 4683,
      "Ġrush": 4684,
      "Ġkeeping": 4685,
      "Ġimpressed": 4686,
      "Ġstarting": 4687,
      "ĠFreddy": 4688,
      "ero": 4689,
      "Ġmassage": 4690,
      "Ġchirp": 4691,
      "Qu": 4692,
      "ĠHelp": 4693,
      "Ġgreedy": 4694,
      "Ġskill": 4695,
      "Ġparts": 4696,
      "Ġtrusted": 4697,
      "Ġtide": 4698,
      "Ġletting": 4699,
      "Ġthrowing": 4700,
      "acked": 4701,
      "Ġcrossed": 4702,
      "Ġunhappy": 4703,
      "Ġprayed": 4704,
      "Ġalive": 4705,
      "Ġsmells": 4706,
      "cast": 4707,
      "Ġnavy": 4708,
      "Ġkneel": 4709,
      "Ġprovide": 4710,
      "Ġmention": 4711,
      "Ġener": 4712,
      "yth": 4713,
      "Ġsigh": 4714,
      "Ġsprayed": 4715,
      "Ġheads": 4716,
      "Ġyawned": 4717,
      "ythm": 4718,
      "Ġsandcast": 4719,
      "heart": 4720,
      "Ġcourage": 4721,
      "Ġwreck": 4722,
      "Ġdem": 4723,
      "ĠSpeedy": 4724,
      "ĠBow": 4725,
      "ĠMandy": 4726,
      "ĠOr": 4727,
      "ĠTed": 4728,
      "Ġlaught": 4729,
      "quest": 4730,
      "year": 4731,
      "erc": 4732,
      "Ġpoison": 4733,
      "Ġlaughter": 4734,
      "Ann": 4735,
      "ĠSque": 4736,
      "Ġheat": 4737,
      "Ġraining": 4738,
      "Ġrooms": 4739,
      "Ġshrugged": 4740,
      "apping": 4741,
      "Ġexplored": 4742,
      "Alice": 4743,
      "Ġfreeze": 4744,
      "Ġhorses": 4745,
      "Ġrequest": 4746,
      "Ġdishes": 4747,
      "Ġsomewhere": 4748,
      "Ġimagination": 4749,
      "Ġinvit": 4750,
      "Ġdemand": 4751,
      "Ġsty": 4752,
      "Ġcastles": 4753,
      "Ġbreaks": 4754,
      "Ġbumped": 4755,
      "Ġstreng": 4756,
      "ophie": 4757,
      "Mark": 4758,
      "arlie": 4759,
      "Ġpunish": 4760,
      "All": 4761,
      "Ġprunes": 4762,
      "Ġuniverse": 4763,
      "Ġstrength": 4764,
      "Ġequ": 4765,
      "bles": 4766,
      "Ġrhythm": 4767,
      "Ġleather": 4768,
      "Ġpigs": 4769,
      "Ġnation": 4770,
      "Ġflapped": 4771,
      "Ġrabbits": 4772,
      "Ġcontent": 4773,
      "Ġdrops": 4774,
      "Ġeaten": 4775,
      "Ġsweetheart": 4776,
      "Ready": 4777,
      "Ġhist": 4778,
      "Ġminute": 4779,
      "Ġexerc": 4780,
      "Ġsnugg": 4781,
      "Ġsettle": 4782,
      "Ġscratch": 4783,
      "Ġhistory": 4784,
      "Ġexpect": 4785,
      "Ġbuzz": 4786,
      "ĠCoco": 4787,
      "Lisa": 4788,
      "Ġtour": 4789,
      "Ġyucky": 4790,
      "Ġvac": 4791,
      "Ġthrows": 4792,
      "Daddy": 4793,
      "Ġsport": 4794,
      "Ġbadly": 4795,
      "Ġnetwork": 4796,
      "Ġpirates": 4797,
      "Ġclaws": 4798,
      "mare": 4799,
      "Ġcheek": 4800,
      "Ġbouncing": 4801,
      "Ġscold": 4802,
      "Ġmyself": 4803,
      "Ġchecked": 4804,
      "Ġcoats": 4805,
      "Ġbaking": 4806,
      "Ġsqueezed": 4807,
      "inking": 4808,
      "Ġoffer": 4809,
      "Ġwarn": 4810,
      "Ġbelieved": 4811,
      "oe": 4812,
      "riage": 4813,
      "Ġjogged": 4814,
      "Ġtracks": 4815,
      "ĠHoppy": 4816,
      "Ġplaced": 4817,
      "Ġpaid": 4818,
      "Ġobserve": 4819,
      "otten": 4820,
      "anges": 4821,
      "Ġflood": 4822,
      "Ġnews": 4823,
      "men": 4824,
      "Ġtoe": 4825,
      "Ġpur": 4826,
      "Jenny": 4827,
      "ially": 4828,
      "Ġgiven": 4829,
      "Ġcalls": 4830,
      "ĠGigi": 4831,
      "Ġcandles": 4832,
      "ges": 4833,
      "Ġsparkled": 4834,
      "Ġnightmare": 4835,
      "Ġupstairs": 4836,
      "Ġstud": 4837,
      "Ġpedal": 4838,
      "Before": 4839,
      "Ġenergy": 4840,
      "Ġignored": 4841,
      "Ġblowing": 4842,
      "Ġsir": 4843,
      "ifi": 4844,
      "ĠUnder": 4845,
      "spec": 4846,
      "ĠJohnny": 4847,
      "Ġburned": 4848,
      "mble": 4849,
      "reat": 4850,
      "isty": 4851,
      "ipment": 4852,
      "Ġing": 4853,
      "Ġequipment": 4854,
      "Ġtwisted": 4855,
      "specially": 4856,
      "ĠSnowy": 4857,
      "Ġbeauty": 4858,
      "Ġbother": 4859,
      "Ġcrash": 4860,
      "Ġhills": 4861,
      "Ġhearts": 4862,
      "redient": 4863,
      "Ġuniversity": 4864,
      "Ġsandcastle": 4865,
      "Ġingredient": 4866,
      "Mimi": 4867,
      "Ġtremble": 4868,
      "Ġwaving": 4869,
      "Ġbears": 4870,
      "Ġlemons": 4871,
      "Ġincrease": 4872,
      "Ġbeans": 4873,
      "Ġwriting": 4874,
      "Ġtug": 4875,
      "ĠMummy": 4876,
      "ĠBluey": 4877,
      "eration": 4878,
      "Ġbrain": 4879,
      "Ġlemonade": 4880,
      "Ġspots": 4881,
      "ĠFox": 4882,
      "Ġvacation": 4883,
      "Ġwisdom": 4884,
      "ecting": 4885,
      "Ġmarriage": 4886,
      "ĠSee": 4887,
      "Ġstomach": 4888,
      "Ġespecially": 4889,
      "Sh": 4890,
      "quake": 4891,
      "Ġhopes": 4892,
      "Ġmoves": 4893,
      "ween": 4894,
      "Ġpalm": 4895,
      "ĠSk": 4896,
      "Ġbetween": 4897,
      "Ġscoop": 4898,
      "Ġinsisted": 4899,
      "Ġsew": 4900,
      "Ġeasily": 4901,
      "Ġearthquake": 4902,
      "Ġsoak": 4903,
      "Ġfloated": 4904,
      "Ġpermit": 4905,
      "Ġvroom": 4906,
      "ĠZara": 4907,
      "Welcome": 4908,
      "Ġdaisy": 4909,
      "Ġcape": 4910,
      "enry": 4911,
      "Ġsnowball": 4912,
      "Ġmailman": 4913,
      "Ġwhistled": 4914,
      "Ġentered": 4915,
      "Ġslap": 4916,
      "Ġplanned": 4917,
      "Ġcomf": 4918,
      "Ġaftern": 4919,
      "Ġafternoon": 4920,
      "Ġingredients": 4921,
      "izes": 4922,
      "Ġpulling": 4923,
      "Ġfollowing": 4924,
      "Ġwhisper": 4925,
      "ĠSqueaky": 4926,
      "house": 4927,
      "resses": 4928,
      "Ġinclude": 4929,
      "ĠSm": 4930,
      "Ġshopkeeper": 4931,
      "Ġnobody": 4932,
      "Ġwags": 4933,
      "ĠBee": 4934,
      "ĠOwl": 4935,
      "Ġencourage": 4936,
      "ĠPenny": 4937,
      "Ġfollows": 4938,
      "ittens": 4939,
      "Ġheel": 4940,
      "ĠLilly": 4941,
      "Ġweight": 4942,
      "illie": 4943,
      "Fred": 4944,
      "nesday": 4945,
      "ednesday": 4946,
      "ĠGeorge": 4947,
      "Ġintroduce": 4948,
      "Ġpad": 4949,
      "arnt": 4950,
      "Ġlearnt": 4951,
      "emember": 4952,
      "hest": 4953,
      "xygen": 4954,
      "Ġfurt": 4955,
      "Ġexcla": 4956,
      "Ġzigzag": 4957,
      "ĠLola": 4958,
      "igging": 4959,
      "Ġapart": 4960,
      "Ġstrike": 4961,
      "ĠLucky": 4962,
      "Ġwinning": 4963,
      "Ġluck": 4964,
      "Ġdigging": 4965,
      "reeze": 4966,
      "Ġstrawberries": 4967,
      "Ġlandscape": 4968,
      "Ġracing": 4969,
      "Ġstyle": 4970,
      "Ġsafari": 4971,
      "Ġhon": 4972,
      "ĠSharing": 4973,
      "unday": 4974,
      "Ġfurther": 4975,
      "Ġblueberry": 4976,
      "Ġchewed": 4977,
      "Ġgrowled": 4978,
      "Ġexclaimed": 4979,
      "With": 4980,
      "Ġmama": 4981,
      "ddy": 4982,
      "Ġscrat": 4983,
      "Ġbackpack": 4984,
      "Ġclosely": 4985,
      "Ġexper": 4986,
      "Ġbouncy": 4987,
      "ĠSunday": 4988,
      "ĠHave": 4989,
      "ĠWhenever": 4990,
      "Ġtwisty": 4991,
      "ĠWho": 4992,
      "Ġconf": 4993,
      "Ġsolved": 4994,
      "hood": 4995,
      "Ġrecognize": 4996,
      "Woof": 4997,
      "Ġspike": 4998,
      "Ġmarbles": 4999,
      "Everyone": 5000,
      "ĠWednesday": 5001,
      "Ġfolded": 5002,
      "Ġpoppy": 5003,
      "Ġdeeper": 5004,
      "gie": 5005,
      "Ġoperation": 5006,
      "Ġstruggle": 5007,
      "Le": 5008,
      "Ġteaching": 5009,
      "look": 5010,
      "Ġbelow": 5011,
      "Bella": 5012,
      "uesday": 5013,
      "cery": 5014,
      "tain": 5015,
      "ĠFifi": 5016,
      "ĠDog": 5017,
      "Ġgrocery": 5018,
      "Ġagre": 5019,
      "Ġdresses": 5020,
      "oral": 5021,
      "uct": 5022,
      "ffic": 5023,
      "Ġburied": 5024,
      "Ġpitch": 5025,
      "ĠPaul": 5026,
      "Ġshouting": 5027,
      "Ġgifts": 5028,
      "ĠAnnie": 5029,
      "Ġworms": 5030,
      "ĠIs": 5031,
      "Ġplanted": 5032,
      "Ġsnuggled": 5033,
      "apa": 5034,
      "Ġrelease": 5035,
      "Ġvanished": 5036,
      "Ġwashing": 5037,
      "Ġstair": 5038,
      "ĠJoey": 5039,
      "ĠElly": 5040,
      "ĠFinny": 5041,
      "ĠTuesday": 5042,
      "Ġexercise": 5043,
      "Ġtraffic": 5044,
      "Ġcreatures": 5045,
      "Ġsimp": 5046,
      "ĠAlex": 5047,
      "Ġprice": 5048,
      "ĠGod": 5049,
      "Ġvel": 5050,
      "right": 5051,
      "ories": 5052,
      "Ġpaused": 5053,
      "Ġdressed": 5054,
      "Ġurge": 5055,
      "raged": 5056,
      "ĠMittens": 5057,
      "Ġwarning": 5058,
      "Ġvelvet": 5059,
      "ccer": 5060,
      "These": 5061,
      "Ġoranges": 5062,
      "Ġcrow": 5063,
      "Ġwaffles": 5064,
      "Ġdried": 5065,
      "Ġlicks": 5066,
      "Ġquietly": 5067,
      "Ġquite": 5068,
      "Ġattention": 5069,
      "ĠGrace": 5070,
      "Because": 5071,
      "Ġmice": 5072,
      "ĠEverything": 5073,
      "ĠRo": 5074,
      "ĠâĢĵ": 5075,
      "bbing": 5076,
      "ĠGood": 5077,
      "Ġfireworks": 5078,
      "Ġwagging": 5079,
      "ipping": 5080,
      "Ġsoccer": 5081,
      "Ġcounter": 5082,
      "rec": 5083,
      "Ġplays": 5084,
      "Ġweb": 5085,
      "Ġmanage": 5086,
      "Ġunderground": 5087,
      "Ġsprink": 5088,
      "Ġeagerly": 5089,
      "looking": 5090,
      "Today": 5091,
      "Ġshined": 5092,
      "Ġsailing": 5093,
      "Ġworth": 5094,
      "Ġideas": 5095,
      "Ġpuzzles": 5096,
      "Ġinvitation": 5097,
      "Not": 5098,
      "Ġmarried": 5099,
      "Ġpeanuts": 5100,
      "Ġbricks": 5101,
      "ippy": 5102,
      "Ġmuddy": 5103,
      "Ġinst": 5104,
      "Ġhurting": 5105,
      "Ġrang": 5106,
      "Ġbalan": 5107,
      "ived": 5108,
      "Ġwob": 5109,
      "ops": 5110,
      "ĠHarry": 5111,
      "Ġfallen": 5112,
      "ĠSu": 5113,
      "Ġreaches": 5114,
      "Ġneighbour": 5115,
      "sed": 5116,
      "Ġbur": 5117,
      "Ġbones": 5118,
      "Ġseats": 5119,
      "unately": 5120,
      "pted": 5121,
      "ecture": 5122,
      "Ġsorts": 5123,
      "Ġacorns": 5124,
      "Ġseason": 5125,
      "ucked": 5126,
      "ips": 5127,
      "ĠFinn": 5128,
      "Ġwandered": 5129,
      "Ġblood": 5130,
      "Ġsizes": 5131,
      "Ġlecture": 5132,
      "Ġjazz": 5133,
      "Ġoxygen": 5134,
      "mm": 5135,
      "Ġduring": 5136,
      "Ġskills": 5137,
      "ĠBounce": 5138,
      "Ġsi": 5139,
      "isses": 5140,
      "aggie": 5141,
      "ĠFroggy": 5142,
      "Ġsigns": 5143,
      "ĠCharlie": 5144,
      "Ġtomatoes": 5145,
      "Ġolives": 5146,
      "Ġble": 5147,
      "Ġkisses": 5148,
      "Ġimage": 5149,
      "Ġdestroyed": 5150,
      "Ġdisagree": 5151,
      "ĠRos": 5152,
      "Ġsits": 5153,
      "Remy": 5154,
      "Ġcollected": 5155,
      "ores": 5156,
      "Ġexit": 5157,
      "Ġsnail": 5158,
      "Ġmemories": 5159,
      "ĠSophie": 5160,
      "Ġaccepted": 5161,
      "Bl": 5162,
      "etch": 5163,
      "Ġtremb": 5164,
      "Ġpinched": 5165,
      "Ġmemory": 5166,
      "Ġgazed": 5167,
      "Ġoh": 5168,
      "Ġbreathe": 5169,
      "Ġfash": 5170,
      "Ġworse": 5171,
      "Ġwatered": 5172,
      "ester": 5173,
      "Ġcelebrated": 5174,
      "Ġhadn": 5175,
      "Ġallow": 5176,
      "Ġreceive": 5177,
      "ĠWally": 5178,
      "Ġblink": 5179,
      "Ġnowhere": 5180,
      "ury": 5181,
      "esterday": 5182,
      "ux": 5183,
      "Ġhers": 5184,
      "ĠEventually": 5185,
      "ĠRock": 5186,
      "Ġlung": 5187,
      "Ġpaints": 5188,
      "choo": 5189,
      "bby": 5190,
      "Ġglo": 5191,
      "Ġruin": 5192,
      "ĠDanny": 5193,
      "Ġfashion": 5194,
      "Ġhits": 5195,
      "Ġtreasures": 5196,
      "nce": 5197,
      "Ġcatching": 5198,
      "Ġcaptain": 5199,
      "ĠTilly": 5200,
      "ring": 5201,
      "Ġfro": 5202,
      "Ġseeing": 5203,
      "Ġflap": 5204,
      "reci": 5205,
      "ising": 5206,
      "Surpr": 5207,
      "Ġpetals": 5208,
      "ĠSpark": 5209,
      "orted": 5210,
      "Ġvanish": 5211,
      "Ġcakes": 5212,
      "Ġurged": 5213,
      "Yum": 5214,
      "Ġbrings": 5215,
      "ĠTw": 5216,
      "Ġshot": 5217,
      "ĠPinky": 5218,
      "Ġprinter": 5219,
      "Ġwelcomed": 5220,
      "do": 5221,
      "ĠToto": 5222,
      "Ġappreci": 5223,
      "Ġjogging": 5224,
      "Ġchores": 5225,
      "Ġsnapped": 5226,
      "Ġgolden": 5227,
      "Ġraised": 5228,
      "Ġstamps": 5229,
      "Ġpillows": 5230,
      "Ġclimbs": 5231,
      "Ġbaked": 5232,
      "Ġblankets": 5233,
      "Ġforgotten": 5234,
      "Ġencouraged": 5235,
      "ssible": 5236,
      "Ġvisited": 5237,
      "Ġscattered": 5238,
      "Ġgloves": 5239,
      "ah": 5240,
      "umble": 5241,
      "Ġdifference": 5242,
      "Ġscolded": 5243,
      "Ġattached": 5244,
      "Ġspoons": 5245,
      "ĠRuby": 5246,
      "Ġappear": 5247,
      "Ġsorting": 5248,
      "Ġtwirled": 5249,
      "Moral": 5250,
      "Ġstraight": 5251,
      "Ġprints": 5252,
      "Ġresp": 5253,
      "iers": 5254,
      "Ġlux": 5255,
      "Ġpies": 5256,
      "Ġsliding": 5257,
      "Ġunlocked": 5258,
      "Ġbleed": 5259,
      "Ġcub": 5260,
      "Ġbeds": 5261,
      "Ġsince": 5262,
      "ĠSandy": 5263,
      "sters": 5264,
      "Ġelephants": 5265,
      "Ġprett": 5266,
      "Ġtrapped": 5267,
      "Ġzipped": 5268,
      "Ġtong": 5269,
      "Ġstitch": 5270,
      "Ġshouldn": 5271,
      "Ġstuffed": 5272,
      "aped": 5273,
      "Ġeasier": 5274,
      "ding": 5275,
      "anny": 5276,
      "Ġbites": 5277,
      "Ġjewels": 5278,
      "ictory": 5279,
      "Ġours": 5280,
      "Ġbowed": 5281,
      "Ġweeping": 5282,
      "sit": 5283,
      "Ġisn": 5284,
      "Ġmeow": 5285,
      "fortunately": 5286,
      "Ġdrinks": 5287,
      "chie": 5288,
      "Ġkicking": 5289,
      "Ġmarching": 5290,
      "Ġbreaking": 5291,
      "Ġcreated": 5292,
      "Ġsoldiers": 5293,
      "ĠMaria": 5294,
      "ĠEach": 5295,
      "ĠKing": 5296,
      "Surprise": 5297,
      "Ok": 5298,
      "ĠBaby": 5299,
      "Ġvoices": 5300,
      "Ġpotatoes": 5301,
      "Ġguessed": 5302,
      "Ġfamil": 5303,
      "ups": 5304,
      "Ġdisagreed": 5305,
      "ction": 5306,
      "Ġwinner": 5307,
      "Ġunderstanding": 5308,
      "Ġsimple": 5309,
      "Ġmuscles": 5310,
      "Ġkitty": 5311,
      "Goodbye": 5312,
      "Ġluxury": 5313,
      "Ġbrus": 5314,
      "ĠPapa": 5315,
      "ĠBefore": 5316,
      "Ġreceived": 5317,
      "Ġbye": 5318,
      "Ġpupil": 5319,
      "akes": 5320,
      "Ġcutting": 5321,
      "Ġpets": 5322,
      "Ġpresents": 5323,
      "ĠPip": 5324,
      "Ġprinted": 5325,
      "Ġacted": 5326,
      "rin": 5327,
      "Ġrelaxed": 5328,
      "ino": 5329,
      "ĠLiz": 5330,
      "Ġtwink": 5331,
      "Ġpunished": 5332,
      "Ġtoes": 5333,
      "ishing": 5334,
      "Ġgrin": 5335,
      "Ġcras": 5336,
      "Ġcollection": 5337,
      "medi": 5338,
      "Ġpears": 5339,
      "Ġfloating": 5340,
      "ĠRosie": 5341,
      "mediately": 5342,
      "Ġlined": 5343,
      "ĠKate": 5344,
      "'ve": 5345,
      "rr": 5346,
      "Ġbang": 5347,
      "umes": 5348,
      "Ġspit": 5349,
      "Ġkingdom": 5350,
      "iggly": 5351,
      "ĠQu": 5352,
      "icing": 5353,
      "Ġskipping": 5354,
      "Ġzero": 5355,
      "Ġselling": 5356,
      "Ġexperience": 5357,
      "Ġtore": 5358,
      "Ġpeaches": 5359,
      "Ġgirls": 5360,
      "ĠBoo": 5361,
      "omeday": 5362,
      "Ġcartoons": 5363,
      "Ġsurround": 5364,
      "Jen": 5365,
      "eath": 5366,
      "Ġvictory": 5367,
      "Ġteasing": 5368,
      "Bobby": 5369,
      "Ġnone": 5370,
      "ĠMay": 5371,
      "Ġdrinking": 5372,
      "Ġcostumes": 5373,
      "Ġmeasured": 5374,
      "Ġwest": 5375,
      "Ġladyb": 5376,
      "Ġmentioned": 5377,
      "Ġfiref": 5378,
      "Ġlips": 5379,
      "va": 5380,
      "Ġdared": 5381,
      "ents": 5382,
      "Ġemer": 5383,
      "Ġringing": 5384,
      "kins": 5385,
      "Ġsorted": 5386,
      "ĠSmith": 5387,
      "Ġsomeday": 5388,
      "Ġwatches": 5389,
      "Ġgrant": 5390,
      "avid": 5391,
      "Ġtongue": 5392,
      "Ġsip": 5393,
      "aded": 5394,
      "ĠMillie": 5395,
      "Meow": 5396,
      "Ġslice": 5397,
      "Ġmuffins": 5398,
      "Ġpatterns": 5399,
      "Ġbreeze": 5400,
      "Ġshed": 5401,
      "Ġhurried": 5402,
      "ĠTony": 5403,
      "Ġknown": 5404,
      "une": 5405,
      "Ġdecorations": 5406,
      "Ġsetting": 5407,
      "Ġalright": 5408,
      "Mandy": 5409,
      "Ġofficer": 5410,
      "Ġappro": 5411,
      "Ġwhistling": 5412,
      "Ġshadows": 5413,
      "Ġtonight": 5414,
      "ĠSlow": 5415,
      "Ġeast": 5416,
      "Ġheaded": 5417,
      "Ġtrave": 5418,
      "eep": 5419,
      "ĠIts": 5420,
      "walk": 5421,
      "vest": 5422,
      "Ġcolours": 5423,
      "Ġcontest": 5424,
      "Ġscreams": 5425,
      "boo": 5426,
      "Ġrested": 5427,
      "Ġmelted": 5428,
      "ĠHenry": 5429,
      "Ġherbs": 5430,
      "Ġfed": 5431,
      "utter": 5432,
      "osed": 5433,
      "Ġpra": 5434,
      "ĠBo": 5435,
      "Ġwiggle": 5436,
      "Ġflat": 5437,
      "Ġinstr": 5438,
      "Ġsidewalk": 5439,
      "Ġhighest": 5440,
      "Ġfishing": 5441,
      "Ġremained": 5442,
      "ĠTuna": 5443,
      "Ġmouths": 5444,
      "Ġmoments": 5445,
      "ther": 5446,
      "Ġstro": 5447,
      "Ġbegged": 5448,
      "Ġnails": 5449,
      "eve": 5450,
      "Ġlets": 5451,
      "ety": 5452,
      "Ġmixing": 5453,
      "Ġwrit": 5454,
      "Ġfields": 5455,
      "Blue": 5456,
      "ĠBoth": 5457,
      "Momo": 5458,
      "Ġworks": 5459,
      "Ġsix": 5460,
      "ored": 5461,
      "Ġstrang": 5462,
      "ship": 5463,
      "!'": 5464,
      "Happy": 5465,
      "ishes": 5466,
      "Ġesc": 5467,
      "Ġroots": 5468,
      "cus": 5469,
      "Ġwaist": 5470,
      "Ġwaits": 5471,
      "ĠSomeone": 5472,
      "Ġago": 5473,
      "Ġsettled": 5474,
      "Ġlaid": 5475,
      "Ġtwigs": 5476,
      "Ġshock": 5477,
      "ission": 5478,
      "Ġripped": 5479,
      "Ġperfectly": 5480,
      "Ġopin": 5481,
      "Ġladybug": 5482,
      "Ġfetch": 5483,
      "Ġimmediately": 5484,
      "Ġcrunch": 5485,
      "ĠJames": 5486,
      "ĠChicky": 5487,
      "ĠFollow": 5488,
      "anna": 5489,
      "Ġordered": 5490,
      "Really": 5491,
      "oved": 5492,
      "ĠThese": 5493,
      "Ġsore": 5494,
      "elvet": 5495,
      "ĠClara": 5496,
      "Leo": 5497,
      "Ġlines": 5498,
      "Ġpermission": 5499,
      "ids": 5500,
      "idges": 5501,
      "Ġtheirs": 5502,
      "ĠWiggly": 5503,
      "Ġsucceeded": 5504,
      "Peter": 5505,
      "Ġtext": 5506,
      "abies": 5507,
      "Ġstrangers": 5508,
      "Ġsneak": 5509,
      "Ġplaytime": 5510,
      "Ġslapped": 5511,
      "Ġresting": 5512,
      "Ġlands": 5513,
      "Cat": 5514,
      "Ġtexture": 5515,
      "Ġwink": 5516,
      "Ġyouth": 5517,
      "ĠZigzag": 5518,
      "\",": 5519,
      "Ha": 5520,
      "please": 5521,
      "sing": 5522,
      "zing": 5523,
      "Ġsupposed": 5524,
      "Ġstealing": 5525,
      "Ġbridges": 5526,
      "Ġmatched": 5527,
      "ĠUncle": 5528,
      "ded": 5529,
      "Ġimportance": 5530,
      "Ġamazement": 5531,
      "irring": 5532,
      "Ġburning": 5533,
      "Ġinvest": 5534,
      "Ġmarks": 5535,
      "Ġscratched": 5536,
      "osity": 5537,
      "Ella": 5538,
      "ĠLizzy": 5539,
      "ĠJul": 5540,
      "Ġlick": 5541,
      "Ġinvestig": 5542,
      "Ġrevealed": 5543,
      "Ġresult": 5544,
      "ĠHo": 5545,
      "ĠHope": 5546,
      "Ġsafety": 5547,
      "Ġkneeled": 5548,
      "Ġachie": 5549,
      "Ġsings": 5550,
      "Ġinch": 5551,
      "Bird": 5552,
      "Ġbabies": 5553,
      "Ġadmir": 5554,
      "Andy": 5555,
      "Ġtickle": 5556,
      "Ġbrushes": 5557,
      "ĠLater": 5558,
      "Ġitem": 5559,
      "Ġthrill": 5560,
      "Ġvet": 5561,
      "Ġsilence": 5562,
      "ĠSuzy": 5563,
      "Ġtucked": 5564,
      "Ġarea": 5565,
      "ĠMo": 5566,
      "ĠAb": 5567,
      "Ġmelting": 5568,
      "Ġwiz": 5569,
      "Ġnapping": 5570,
      "Sammy": 5571,
      "Ġtrembling": 5572,
      "Ġmister": 5573,
      "ĠDino": 5574,
      "ĠRocky": 5575,
      "Ġthreat": 5576,
      "ĠDr": 5577,
      "Ġsisters": 5578,
      "Ġpiles": 5579,
      "isten": 5580,
      "Ġbravely": 5581,
      "Ġcones": 5582,
      "Ġinvestigate": 5583,
      "Ġpearl": 5584,
      "aved": 5585,
      "Ġhen": 5586,
      "Ġhesit": 5587,
      "Ġstirring": 5588,
      "Ġshopping": 5589,
      "Ġleader": 5590,
      "ĠVelvet": 5591,
      "Would": 5592,
      "bers": 5593,
      "ides": 5594,
      "Ġcollecting": 5595,
      "ĠPepper": 5596,
      "Ġkeeps": 5597,
      "Ġbak": 5598,
      "allen": 5599,
      "Ġturning": 5600,
      "Ġguy": 5601,
      "Ġdinosaurs": 5602,
      "Ġfamilies": 5603,
      "Boo": 5604,
      "!\",": 5605,
      "uzz": 5606,
      "Ġchallen": 5607,
      "ĠHop": 5608,
      "Ġbroom": 5609,
      "Ġescaped": 5610,
      "Ġchewing": 5611,
      "Ġsoaked": 5612,
      "ĠFrog": 5613,
      "Ġdire": 5614,
      "Ġkeys": 5615,
      "Ġbringing": 5616,
      "Ġdecision": 5617,
      "hello": 5618,
      "Ġwarmth": 5619,
      "Ġanswers": 5620,
      "Ġserved": 5621,
      "Ġglowed": 5622,
      "Ġneighborhood": 5623,
      "Ġdraws": 5624,
      "Ġmeasuring": 5625,
      "gency": 5626,
      "Ġwizard": 5627,
      "Ġhated": 5628,
      "Ġquack": 5629,
      "Ġshooting": 5630,
      "Ġtickets": 5631,
      "Ġdads": 5632,
      "izing": 5633,
      "Ġsneaky": 5634,
      ".'": 5635,
      "ues": 5636,
      "antly": 5637,
      "ĠSomething": 5638,
      "Ġpeel": 5639,
      "Ġwooden": 5640,
      "Jake": 5641,
      "Ġstudied": 5642,
      "Ġbeamed": 5643,
      "Ġrecorded": 5644,
      "Ġrul": 5645,
      "Ġwrites": 5646,
      "Mmm": 5647,
      "ĠMe": 5648,
      "Ġtrips": 5649,
      "Ġdisturbed": 5650,
      "Ġcuddled": 5651,
      "Ġbleeding": 5652,
      "Ġgust": 5653,
      "ĠChe": 5654,
      "Ġcrawling": 5655,
      "ĠBouncy": 5656,
      "ĠAn": 5657,
      "ĠFirst": 5658,
      "Ġtastes": 5659,
      "Ġfiremen": 5660,
      "Ġpraised": 5661,
      "Ġscooped": 5662,
      "'.": 5663,
      "Ġsparkle": 5664,
      "Un": 5665,
      "Ġpupp": 5666,
      "Ġapproached": 5667,
      "Ġsoared": 5668,
      "Ġstrings": 5669,
      "Ġtouching": 5670,
      "ĠNot": 5671,
      "ĠSlowly": 5672,
      "irts": 5673,
      "embers": 5674,
      "Ġremembers": 5675,
      "Ġcrunchy": 5676,
      "Ġfut": 5677,
      "ĠHappy": 5678,
      "Ġfuture": 5679,
      "ĠOut": 5680,
      "Ġcurled": 5681,
      "Ġfoods": 5682,
      "Ġswims": 5683,
      "ĠSky": 5684,
      "ĠAm": 5685,
      "Ġmonsters": 5686,
      "Ġmotion": 5687,
      "ĠStar": 5688,
      "Ġappreciate": 5689,
      "ena": 5690,
      "Ġeats": 5691,
      "plash": 5692,
      "Ġspaceship": 5693,
      "Ġchirped": 5694,
      "Ġbeat": 5695,
      "Ġgrey": 5696,
      "ĠGr": 5697,
      "Ġfrost": 5698,
      "Ġdecides": 5699,
      "Ġchef": 5700,
      "Ġdot": 5701,
      "Ġpride": 5702,
      "Ġtwin": 5703,
      "Ġflav": 5704,
      "Ġsecrets": 5705,
      "Cl": 5706,
      "Ġtricked": 5707,
      "Ġwonders": 5708,
      "Ġacting": 5709,
      "Ġemergency": 5710,
      "Eventually": 5711,
      "Tr": 5712,
      "Ġknelt": 5713,
      "Ġsiren": 5714,
      "ped": 5715,
      "iggy": 5716,
      "omas": 5717,
      "Ġrides": 5718,
      "hind": 5719,
      "Ġboo": 5720,
      "Ġhi": 5721,
      "Ġagreement": 5722,
      "isdom": 5723,
      "Somet": 5724,
      "Ġwanting": 5725,
      "Ġnoon": 5726,
      "Remember": 5727,
      "ĠBug": 5728,
      "ĠRabbit": 5729,
      "fied": 5730,
      "Ġroads": 5731,
      "ira": 5732,
      "Ġnaps": 5733,
      "unnies": 5734,
      "Ġmittens": 5735,
      "mother": 5736,
      "Ġdownstairs": 5737,
      "Ġowned": 5738,
      "Ġrecognized": 5739,
      "Ġweighed": 5740,
      "ĠMaggie": 5741,
      "Emily": 5742,
      "Ġpedals": 5743,
      "Ġthrilled": 5744,
      "ana": 5745,
      "Ġbehaved": 5746,
      "rs": 5747,
      "Ġprec": 5748,
      "Ġfrosting": 5749,
      "Sp": 5750,
      "Ġbunnies": 5751,
      "Ġbuzzing": 5752,
      "oming": 5753,
      "Ġnicer": 5754,
      "Ġdoggy": 5755,
      "Ġhorns": 5756,
      "act": 5757,
      "Ġawe": 5758,
      "ĠSqu": 5759,
      "Ġgrinned": 5760,
      "Ġloose": 5761,
      "achel": 5762,
      "ls": 5763,
      "igail": 5764,
      "Ġrocking": 5765,
      "Ġzooming": 5766,
      "Ġsprinkles": 5767,
      "Ġtugged": 5768,
      "riends": 5769,
      "Ġpoking": 5770,
      "Ġkindly": 5771,
      "ĠStop": 5772,
      "Ġdecorated": 5773,
      "Ġcrashed": 5774,
      "oys": 5775,
      "Ġpots": 5776,
      "Have": 5777,
      "ĠDavid": 5778,
      "ĠAlways": 5779,
      "Ġprepared": 5780,
      "ibb": 5781,
      "allow": 5782,
      "Ġstripes": 5783,
      "Ġruler": 5784,
      "Ġobe": 5785,
      "Ġkeeper": 5786,
      "Ġstudying": 5787,
      "ĠFrank": 5788,
      "Susie": 5789,
      "Ġloving": 5790,
      "Ġpossible": 5791,
      "ogo": 5792,
      "Ollie": 5793,
      "Ġrepeated": 5794,
      "Ġslim": 5795,
      "Ġheroes": 5796,
      "Ġplanets": 5797,
      "Or": 5798,
      "ĠLike": 5799,
      "ĠGreen": 5800,
      "Ġlily": 5801,
      "Ġhappiest": 5802,
      "Ġscaring": 5803,
      "Ġstruck": 5804,
      "Ġsausages": 5805,
      "Ġapologized": 5806,
      "Ġribbons": 5807,
      "nie": 5808,
      "Ġbloomed": 5809,
      "Ġcomfy": 5810,
      "Ġopinion": 5811,
      "Ġhissed": 5812,
      "ĠBree": 5813,
      "ĠDid": 5814,
      "ĠCar": 5815,
      "Ġpebbles": 5816,
      "ĠBeep": 5817,
      "Ġprecious": 5818,
      "Ġsides": 5819,
      "ĠAunt": 5820,
      "Ġworker": 5821,
      "Ġsparkling": 5822,
      "Ġradishes": 5823,
      "Ġspending": 5824,
      "Ġgained": 5825,
      "Ġstaying": 5826,
      "Ġloaded": 5827,
      "Ġgoodnight": 5828,
      "Ġpolished": 5829,
      "Ġsneaked": 5830,
      "Ġsnowballs": 5831,
      "Ducky": 5832,
      "oh": 5833,
      "ud": 5834,
      "Ġwoof": 5835,
      "Ġhonk": 5836,
      "Ġtoss": 5837,
      "Ġwhatever": 5838,
      "Ġrespons": 5839,
      "ided": 5840,
      "Ġrele": 5841,
      "Ġbrushed": 5842,
      "Ġcomple": 5843,
      "Ġobey": 5844,
      "ĠOnce": 5845,
      "Ġslimy": 5846,
      "loe": 5847,
      "zen": 5848,
      "Ġrust": 5849,
      "Ġprop": 5850,
      "Ġclearing": 5851,
      "Ġourselves": 5852,
      "Ġtallest": 5853,
      "Ġeff": 5854,
      "Ġlimes": 5855,
      "Ġyesterday": 5856,
      "Ġexpected": 5857,
      "First": 5858,
      "Ġopening": 5859,
      "Ġairpl": 5860,
      "Ġpastels": 5861,
      "Ġbalancing": 5862,
      "ales": 5863,
      "Ġpause": 5864,
      "ĠMilly": 5865,
      "Ġanytime": 5866,
      "urry": 5867,
      "Ġyelling": 5868,
      "Ġteaches": 5869,
      "Ġapologize": 5870,
      "Ġadmiring": 5871,
      "lier": 5872,
      "Ġcuriosity": 5873,
      "Ġbuildings": 5874,
      "Ġclaps": 5875,
      "Ġcomforted": 5876,
      "Ġsurrounded": 5877,
      "Ġstare": 5878,
      "ppers": 5879,
      "Ġcatches": 5880,
      "Ġpolishing": 5881,
      "ĠBlink": 5882,
      "Yummy": 5883,
      "amie": 5884,
      "Ġsmiley": 5885,
      "Ġphot": 5886,
      "atie": 5887,
      "Ġcrumb": 5888,
      "affes": 5889,
      "Ġfrozen": 5890,
      "Ġgiraffes": 5891,
      "Ġhugging": 5892,
      "Ġhardly": 5893,
      "Ġrubbing": 5894,
      "Ġcontain": 5895,
      "Ġsplashes": 5896,
      "ĠRobby": 5897,
      "ays": 5898,
      "Ġsting": 5899,
      "ĠBirdie": 5900,
      "Ġbeside": 5901,
      "ĠSteve": 5902,
      "Ġpoems": 5903,
      "ĠMat": 5904,
      "Ġsteep": 5905,
      "Ġcompany": 5906,
      "Ġpurred": 5907,
      "wh": 5908,
      "Ġshirts": 5909,
      "Ġseems": 5910,
      "Ġsafer": 5911,
      "Ġoverjoy": 5912,
      "Ġparties": 5913,
      "Ġprotected": 5914,
      "Ġstruggled": 5915,
      "Ġsighs": 5916,
      "ha": 5917,
      "Ġbelly": 5918,
      "Ġfasc": 5919,
      "Ġgrandmother": 5920,
      "Ġoverjoyed": 5921,
      "Ġseesaw": 5922,
      "Ġbottles": 5923,
      "Ġplayroom": 5924,
      "ĠWisdom": 5925,
      "ĠPippa": 5926,
      "Ġearlier": 5927,
      "Ġmachines": 5928,
      "Ġspraying": 5929,
      "Ex": 5930,
      "Ġsweeties": 5931,
      "Ġbuckets": 5932,
      "Ġdiving": 5933,
      "Ġargued": 5934,
      "Sometimes": 5935,
      "Ġchases": 5936,
      "During": 5937,
      "aster": 5938,
      "use": 5939,
      "Ġcontinue": 5940,
      "Ro": 5941,
      "Ġargu": 5942,
      "Ġfolding": 5943,
      "enty": 5944,
      "Ġgaze": 5945,
      "Ġeffort": 5946,
      "Ġarguing": 5947,
      "ler": 5948,
      "Ġeight": 5949,
      "Ġrocked": 5950,
      "Ġpeered": 5951,
      "ĠRay": 5952,
      "Achoo": 5953,
      "Ġroaring": 5954,
      "Ġlearns": 5955,
      "Ġtails": 5956,
      "Ġstruggling": 5957,
      "anted": 5958,
      "Ġgoals": 5959,
      "Ġmatching": 5960,
      "Ġboom": 5961,
      "Ġmane": 5962,
      "Ġcuts": 5963,
      "Ġdiscovery": 5964,
      "Ġremoved": 5965,
      "Ġwid": 5966,
      "Ġdeser": 5967,
      "Ġreleased": 5968,
      "Ġflutter": 5969,
      "ĠGogo": 5970,
      "Ġgathering": 5971,
      "ĠStitch": 5972,
      "Ġapplauded": 5973,
      "ĠHoot": 5974,
      "ĠAbby": 5975,
      "Ġpockets": 5976,
      "ĠWater": 5977,
      "Ġsled": 5978,
      "Ġdragons": 5979,
      "Ġmovies": 5980,
      "Whiskers": 5981,
      "ĠKeep": 5982,
      "Ġfascin": 5983,
      "Ġdrives": 5984,
      "ĠSpring": 5985,
      "Ġdemanded": 5986,
      "ĠJess": 5987,
      "Ġcracked": 5988,
      "Ġkites": 5989,
      "Ġspiders": 5990,
      "annah": 5991,
      "Ġdipped": 5992,
      "Ġlied": 5993,
      "Ġsmallest": 5994,
      "Thanks": 5995,
      "Ġcrabs": 5996,
      "Ġchallenge": 5997,
      "Ah": 5998,
      "ien": 5999,
      "Ġsunlight": 6000,
      "Ġeagle": 6001,
      "Ġpowers": 6002,
      "Ġcaut": 6003,
      "Ġpaintings": 6004,
      "Ġcuddle": 6005,
      "Ġwiggled": 6006,
      "ib": 6007,
      "Ġwed": 6008,
      "Ġwins": 6009,
      "Ġphotos": 6010,
      "uzzy": 6011,
      "Ġdolphins": 6012,
      "Ġrings": 6013,
      "indy": 6014,
      "Ġsadness": 6015,
      "Ġpretends": 6016,
      "Ġtim": 6017,
      "kelly": 6018,
      "Ġpeppers": 6019,
      "Ġshivered": 6020,
      "zes": 6021,
      "Ġzookeeper": 6022,
      "Ġann": 6023,
      "jam": 6024,
      "Ġpeas": 6025,
      "ĠBeing": 6026,
      "Ġneighbors": 6027,
      "Ġreply": 6028,
      "ĠRemember": 6029,
      "Ġwherever": 6030,
      "Ġuses": 6031,
      "Ġbead": 6032,
      "Ġteased": 6033,
      "ĠZoe": 6034,
      "Ġpouring": 6035,
      "Ġactions": 6036,
      "Ġpencils": 6037,
      "Ġtalent": 6038,
      "Ġcompleted": 6039,
      "ities": 6040,
      "ĠJu": 6041,
      "ĠJan": 6042,
      "Uh": 6043,
      "dam": 6044,
      "Ġbank": 6045,
      "Ġdarker": 6046,
      "Ġrefres": 6047,
      "Ġpenguins": 6048,
      "Ġwedding": 6049,
      "Ġawake": 6050,
      "ĠJoy": 6051,
      "Ġgranted": 6052,
      "Ġsticking": 6053,
      "Luna": 6054,
      "ten": 6055,
      "ley": 6056,
      "ica": 6057,
      "Ġoutdo": 6058,
      "Ġwondering": 6059,
      "Ġpatience": 6060,
      "Ġcircus": 6061,
      "Ġbeard": 6062,
      "uckily": 6063,
      "Ġdragged": 6064,
      "Ġsparkles": 6065,
      "Ġorganizing": 6066,
      "ĠX": 6067,
      "ĠFish": 6068,
      "Ġglitter": 6069,
      "ĠRachel": 6070,
      "Ġactually": 6071,
      "Ġguns": 6072,
      "ĠAva": 6073,
      "Ġbowls": 6074,
      "ĠLeave": 6075,
      "Ġquarreling": 6076,
      "...": 6077,
      "ords": 6078,
      "ĠDare": 6079,
      "âĢĿ.": 6080,
      "Ġpadd": 6081,
      "ĠJe": 6082,
      "icorn": 6083,
      "Ġvisiting": 6084,
      "ĠSkelly": 6085,
      "Ġthird": 6086,
      "ĠLove": 6087,
      "Ġsitu": 6088,
      "Ġpetted": 6089,
      "Ġunicorn": 6090,
      "Ġsweat": 6091,
      "Ġknights": 6092,
      "Ġinstruct": 6093,
      "Ġitems": 6094,
      "Bunny": 6095,
      "ining": 6096,
      "Ġonwards": 6097,
      "Ġsoaring": 6098,
      "Ġgotten": 6099,
      "Ġtraveled": 6100,
      "uke": 6101,
      "Ġcough": 6102,
      "ĠPut": 6103,
      "Rex": 6104,
      "Ġfears": 6105,
      "Ġbedtime": 6106,
      "Ġarrive": 6107,
      "Ġairplane": 6108,
      "aws": 6109,
      "Ġhelmets": 6110,
      "Fr": 6111,
      "ĠSplash": 6112,
      "Poppy": 6113,
      "Ġunited": 6114,
      "Ġparked": 6115,
      "Ġrealize": 6116,
      "lowers": 6117,
      "Rob": 6118,
      "Ġwasted": 6119,
      "umm": 6120,
      "Ġwrist": 6121,
      "Ġrockets": 6122,
      "ern": 6123,
      "Ġforgi": 6124,
      "Ġcontro": 6125,
      "Stay": 6126,
      "Ġdusty": 6127,
      "sses": 6128,
      "Ġmountains": 6129,
      "Ġproject": 6130,
      "Ġbegin": 6131,
      "Ġlap": 6132,
      "usan": 6133,
      "ĠEveryday": 6134,
      "ĠOlly": 6135,
      "Ġprettiest": 6136,
      "Time": 6137,
      "Ġcrept": 6138,
      "Ġcreation": 6139,
      "Ġpracticing": 6140,
      "Grandpa": 6141,
      "Mar": 6142,
      "Ġflags": 6143,
      "irm": 6144,
      "Ġaccom": 6145,
      "Ġprotecting": 6146,
      "Ġmisses": 6147,
      "Ġstaring": 6148,
      "Ġstretching": 6149,
      "Ġinstructions": 6150,
      "Ġdam": 6151,
      "ĠBecause": 6152,
      "Ġweren": 6153,
      "uddles": 6154,
      "Ġlogs": 6155,
      "Ġoutdoors": 6156,
      "ĠFriends": 6157,
      "Ġwhose": 6158,
      "Ġseas": 6159,
      "Ġjoking": 6160,
      "Ġscreaming": 6161,
      "ĠWatch": 6162,
      "ĠPrin": 6163,
      "Ġsatis": 6164,
      "Ġpatiently": 6165,
      "Doggy": 6166,
      "ĠBehind": 6167,
      "Ġchirping": 6168,
      "Ġbeads": 6169,
      "cakes": 6170,
      "ĠSquirrel": 6171,
      "ais": 6172,
      "Ġhomework": 6173,
      "Ġreminder": 6174,
      "Ġaccompl": 6175,
      "Watch": 6176,
      "Ġdent": 6177,
      "Ġhelpers": 6178,
      "Ġweeks": 6179,
      "Ġachieve": 6180,
      "Ġresponsible": 6181,
      "Fo": 6182,
      "Ġwound": 6183,
      "ashed": 6184,
      "Ġbatteries": 6185,
      "Bad": 6186,
      "Tiny": 6187,
      "Ġrip": 6188,
      "Ġperched": 6189,
      "Ġexamined": 6190,
      "Ġagrees": 6191,
      "Ġfirefight": 6192,
      "Johnny": 6193,
      "Ġpacking": 6194,
      "Ġhealed": 6195,
      "Ġremote": 6196,
      "Ġpans": 6197,
      "Ġmasks": 6198,
      "Ġcurtains": 6199,
      "ĠHippy": 6200,
      "Ġrolls": 6201,
      "Ġcopy": 6202,
      "Ġvillag": 6203,
      "Ġtasks": 6204,
      "ĠSun": 6205,
      "Ġfairies": 6206,
      "Ġtowels": 6207,
      "hee": 6208,
      "Ġswoop": 6209,
      "Ġdestination": 6210,
      "Ġrequested": 6211,
      "Ġcandies": 6212,
      "Ġlollipops": 6213,
      "jamas": 6214,
      "uly": 6215,
      "ĠQ": 6216,
      "ĠBeth": 6217,
      "uest": 6218,
      "ĠAbigail": 6219,
      "George": 6220,
      "ĠCuddles": 6221,
      "ĠThomas": 6222,
      "Benny": 6223,
      "ĠCatty": 6224,
      "Ġforks": 6225,
      "Ġcrumbs": 6226,
      "Dave": 6227,
      "njoy": 6228,
      "Ġdied": 6229,
      "Ġguest": 6230,
      "agull": 6231,
      "Ġreaching": 6232,
      "Ġshrug": 6233,
      "Ġrefuse": 6234,
      "Ġvideos": 6235,
      "Ġworkers": 6236,
      "avi": 6237,
      "Silly": 6238,
      "lay": 6239,
      "ubbed": 6240,
      "ĠJosh": 6241,
      "Ġpassing": 6242,
      "Ġscrubbed": 6243,
      "Ġcautious": 6244,
      "Ġcontrol": 6245,
      "Ġtruly": 6246,
      "Ġslam": 6247,
      "ĠCra": 6248,
      "Ġcurly": 6249,
      "Ġvillagers": 6250,
      "Ġcans": 6251,
      "Ġroses": 6252,
      "Ġpajamas": 6253,
      "Ġstole": 6254,
      "Ġrubs": 6255,
      "James": 6256,
      "Ġmes": 6257,
      "ĠRolly": 6258,
      "Ġrainbows": 6259,
      "Ġfascinated": 6260,
      "dies": 6261,
      "Ġbunch": 6262,
      "ĠSkip": 6263,
      "Ġconfl": 6264,
      "Ġprettier": 6265,
      "Tina": 6266,
      "Ġstern": 6267,
      "ĠBop": 6268,
      "Ġpumpkins": 6269,
      "Ġprayer": 6270,
      "Ġpout": 6271,
      "ĠLou": 6272,
      "Ġlistens": 6273,
      "ĠJulie": 6274,
      "Ġfirm": 6275,
      "ora": 6276,
      "Hold": 6277,
      "Ġbecoming": 6278,
      "Ġfault": 6279,
      "Ġpromises": 6280,
      "Ġsteady": 6281,
      "Ġcomplaining": 6282,
      "ĠQuick": 6283,
      "Ġusual": 6284,
      "ĠOur": 6285,
      "Ġsights": 6286,
      "die": 6287,
      "seek": 6288,
      "ĠMoo": 6289,
      "Ġneither": 6290,
      "ueen": 6291,
      "Ġseagull": 6292,
      "vin": 6293,
      "esome": 6294,
      "inda": 6295,
      "Ġinviting": 6296,
      "Ġrescued": 6297,
      "Ġobserved": 6298,
      "aa": 6299,
      "Ġshelves": 6300,
      "Ġglasses": 6301,
      "Ġfilling": 6302,
      "ĠChr": 6303,
      "Ġactiv": 6304,
      "Ġconflict": 6305,
      "Ġthro": 6306,
      "Ġchips": 6307,
      "Ġgems": 6308,
      "uctantly": 6309,
      "Ġthroat": 6310,
      "bl": 6311,
      "neath": 6312,
      "Ġhitting": 6313,
      "ĠBy": 6314,
      "Ġvent": 6315,
      "Ġawesome": 6316,
      "Ġbalanced": 6317,
      "Ġeveryday": 6318,
      "acob": 6319,
      "Ġdesert": 6320,
      "Ġpoliceman": 6321,
      "Ġcause": 6322,
      "Ġexact": 6323,
      "Ġbehaving": 6324,
      "Ġblows": 6325,
      "Ġbaker": 6326,
      "Ġtimer": 6327,
      "go": 6328,
      "Ġheav": 6329,
      "Ġreplaced": 6330,
      "ĠZero": 6331,
      "ĠĠĊ": 6332,
      "Ġsneezing": 6333,
      "Great": 6334,
      "ayla": 6335,
      "Ġstumble": 6336,
      "Mike": 6337,
      "ĠSad": 6338,
      "ĠSure": 6339,
      "inkle": 6340,
      "Ġrule": 6341,
      "Ġpointy": 6342,
      "Ġbeneath": 6343,
      "Ġintroduc": 6344,
      "Ġpaddle": 6345,
      "Ġguys": 6346,
      "Some": 6347,
      "Ġshoulders": 6348,
      "Ġpatted": 6349,
      "Miss": 6350,
      "Ġcloses": 6351,
      "laire": 6352,
      "ĠRover": 6353,
      "ĠTree": 6354,
      "ĠWelcome": 6355,
      "Ġsnakes": 6356,
      "Ġsolut": 6357,
      "Ġcheering": 6358,
      "ilo": 6359,
      "Ġwires": 6360,
      "you": 6361,
      "Ġthorn": 6362,
      "Pete": 6363,
      "gers": 6364,
      "ĠChloe": 6365,
      "Ġadding": 6366,
      "Ġfarther": 6367,
      "Ġbrand": 6368,
      "Ġstartled": 6369,
      "Ġblooming": 6370,
      "Ġinsist": 6371,
      "ners": 6372,
      "Ġ1": 6373,
      "Ġspong": 6374,
      "Ġusually": 6375,
      "Ġtables": 6376,
      "Ġdived": 6377,
      "Ġfara": 6378,
      "Ġdar": 6379,
      "ĠJamie": 6380,
      "ĠZiggy": 6381,
      "Ġimproved": 6382,
      "Ġfaraway": 6383,
      "Paul": 6384,
      "Ġyourselves": 6385,
      "izzie": 6386,
      "Ġsupplies": 6387,
      "An": 6388,
      "Ġbare": 6389,
      "ĠSorry": 6390,
      "ĠBye": 6391,
      "ĠAlly": 6392,
      "Joey": 6393,
      "Ġsqueal": 6394,
      "Ġrecording": 6395,
      "Ġtwirl": 6396,
      "ĠEar": 6397,
      "Ġstays": 6398,
      "Ġsuperheroes": 6399,
      "Ġquacked": 6400,
      "Ġreads": 6401,
      "Ġincluded": 6402,
      "Ġswooped": 6403,
      "bie": 6404,
      "Ġcous": 6405,
      "ĠSc": 6406,
      "ĠWant": 6407,
      "ĠHowever": 6408,
      "Ġteamwork": 6409,
      "Chirpy": 6410,
      "ĠYes": 6411,
      "uggles": 6412,
      "Ġscales": 6413,
      "Ġuntie": 6414,
      "Ġhops": 6415,
      "Ġwinked": 6416,
      "Ġmission": 6417,
      "Ġgiggling": 6418,
      "Ġleaning": 6419,
      "Ġwobbled": 6420,
      "Ġsponge": 6421,
      "Ġbumpy": 6422,
      "Ġkicks": 6423,
      "Ġdelivered": 6424,
      "Grace": 6425,
      "arter": 6426,
      "Ġfaced": 6427,
      "ĠDuck": 6428,
      "Ġremembering": 6429,
      "ĠQueen": 6430,
      "Lola": 6431,
      "Oops": 6432,
      "eed": 6433,
      "Ġtune": 6434,
      "Ġcent": 6435,
      "ido": 6436,
      "Ġreluctantly": 6437,
      "Ġpastries": 6438,
      "Ġexactly": 6439,
      "Dog": 6440,
      "Fine": 6441,
      "ĠFoxy": 6442,
      "Ġwarnings": 6443,
      "True": 6444,
      "Polly": 6445,
      "Toby": 6446,
      "Ġsmarter": 6447,
      "ĠDot": 6448,
      "Ġbravery": 6449,
      "though": 6450,
      "ĠBrownie": 6451,
      "Ġcomplained": 6452,
      "ĠFor": 6453,
      "ĠGet": 6454,
      "Ġcubes": 6455,
      "Our": 6456,
      "Ġvowed": 6457,
      "ĠTwo": 6458,
      "Ġdots": 6459,
      "Ġsituation": 6460,
      "eah": 6461,
      "Ġsquares": 6462,
      "Ġornaments": 6463,
      "Ġruining": 6464,
      "nies": 6465,
      "Ġunderneath": 6466,
      "Ġwindy": 6467,
      "Ġwritten": 6468,
      "Ġcreating": 6469,
      "Ġneighbourhood": 6470,
      "Unfortunately": 6471,
      "Henry": 6472,
      "sm": 6473,
      "ĠSusan": 6474,
      "Ġrisk": 6475,
      "Ġtraded": 6476,
      "Ġarrows": 6477,
      "ĠSnuggles": 6478,
      "ky": 6479,
      "Ġknees": 6480,
      "Ġcomm": 6481,
      "Ġbadge": 6482,
      "ophia": 6483,
      "Run": 6484,
      "ĠPo": 6485,
      "Ġloading": 6486,
      "Ġconfident": 6487,
      "Ġfroze": 6488,
      "ults": 6489,
      "Ġsnowmen": 6490,
      "angled": 6491,
      "Ġminerals": 6492,
      "ĠUnfortunately": 6493,
      "ĠJessie": 6494,
      "Ġclowns": 6495,
      "Ġscratches": 6496,
      "ĠAnt": 6497,
      "ĠEnjoy": 6498,
      "ĠKids": 6499,
      "Ġgrowling": 6500,
      "ĠPrincess": 6501,
      "Ew": 6502,
      "Ru": 6503,
      "ĠMouse": 6504,
      "Ġsobbed": 6505,
      "Ġcaused": 6506,
      "ĠAnne": 6507,
      "Ġtickled": 6508,
      "bbie": 6509,
      "Annie": 6510,
      "ĠJilly": 6511,
      "Ġunf": 6512,
      "Ġdirection": 6513,
      "Maggie": 6514,
      "fl": 6515,
      "ĠKatie": 6516,
      "ĠPaws": 6517,
      "Ġnapkins": 6518,
      "Ġknocks": 6519,
      "Ġpec": 6520,
      "ĠHenny": 6521,
      "arky": 6522,
      "Ġnoses": 6523,
      "Ġgreet": 6524,
      "Ġpens": 6525,
      "Ġpennies": 6526,
      "Ġavo": 6527,
      "ĠQuack": 6528,
      "Ġpuppet": 6529,
      "Ġchefs": 6530,
      "ados": 6531,
      "Ġseven": 6532,
      "Ġstarfish": 6533,
      "Ġchuck": 6534,
      "Ġwipes": 6535,
      "Ġchoices": 6536,
      "ĠEarth": 6537,
      "pite": 6538,
      "itely": 6539,
      "Ġyells": 6540,
      "Ġhides": 6541,
      "Ġmints": 6542,
      "ĠStay": 6543,
      "cuse": 6544,
      "son": 6545,
      "anes": 6546,
      "Ġalien": 6547,
      "ĠJones": 6548,
      "Ġentire": 6549,
      "aisies": 6550,
      "Ġyounger": 6551,
      "ĠJenna": 6552,
      "Ġdrums": 6553,
      "Ġgrowls": 6554,
      "Ġburst": 6555,
      "Roar": 6556,
      "Ġrestored": 6557,
      "Ġpiggy": 6558,
      "Ġpigeons": 6559,
      "ĠSnap": 6560,
      "Ġdaisies": 6561,
      "ĠDizzy": 6562,
      "anging": 6563,
      "Ġspeaking": 6564,
      "Ġjackets": 6565,
      "abel": 6566,
      "Ġskunk": 6567,
      "Ġdoctors": 6568,
      "Ġwishing": 6569,
      "Ġgroups": 6570,
      "Ġbuzzed": 6571,
      "Ġsatisfied": 6572,
      "Sandy": 6573,
      "ĠMad": 6574,
      "Ġunp": 6575,
      "anta": 6576,
      "Ġcrowd": 6577,
      "Excuse": 6578,
      "iti": 6579,
      "Ġdarkness": 6580,
      "Ġavocados": 6581,
      "Buzz": 6582,
      "Ġexplorers": 6583,
      "Ġrelief": 6584,
      "Ġcobwebs": 6585,
      "Teddy": 6586,
      "ody": 6587,
      "Ġchat": 6588,
      "Ġjoked": 6589,
      "Ġdiscovering": 6590,
      "...\"": 6591,
      "Ġast": 6592,
      "Ġtractor": 6593,
      "ĠWhist": 6594,
      "athy": 6595,
      "brush": 6596,
      "Ġguessing": 6597,
      "Shh": 6598,
      "coon": 6599,
      "Ġbiting": 6600,
      "Ġcovers": 6601,
      "Ġlibrarian": 6602,
      "Ġcompletely": 6603,
      "Ġowners": 6604,
      "Ġblocking": 6605,
      "Ġperformed": 6606,
      "Ġsilent": 6607,
      "Ġpaddled": 6608,
      "Ġintroduced": 6609,
      "Big": 6610,
      "Yeah": 6611,
      "ĠMon": 6612,
      "elle": 6613,
      "Ġknowled": 6614,
      "ĠNina": 6615,
      "Ġknowledge": 6616,
      "ouch": 6617,
      "Ġmaster": 6618,
      "Ġjobs": 6619,
      "Ġvalued": 6620,
      "Ġscarves": 6621,
      "Ġventured": 6622,
      "Ġsolution": 6623,
      "Days": 6624,
      "Pe": 6625,
      "ĠMoon": 6626,
      "ĠMix": 6627,
      "Ġropes": 6628,
      "Ġleast": 6629,
      "Ġchoo": 6630,
      "Ġslower": 6631,
      "Ġwandering": 6632,
      "Ġcheeks": 6633,
      "ĠMatt": 6634,
      "Sn": 6635,
      "Ġplenty": 6636,
      "sty": 6637,
      "ĠLena": 6638,
      "ĠThose": 6639,
      "Ġdeal": 6640,
      "Sophie": 6641,
      "Zoom": 6642,
      "Ġnine": 6643,
      "Ġswords": 6644,
      "Those": 6645,
      "Ġtwirling": 6646,
      "rrr": 6647,
      "Ġbarely": 6648,
      "Ġtoaster": 6649,
      "int": 6650,
      "ĠFido": 6651,
      "Ġvehicles": 6652,
      "Ġcautiously": 6653,
      "tuce": 6654,
      "Ġclick": 6655,
      "Ġscur": 6656,
      "Ġlettuce": 6657,
      "Ġrainy": 6658,
      "Ġraces": 6659,
      "coat": 6660,
      "Ġpraying": 6661,
      "Ġonions": 6662,
      "Ġbasement": 6663,
      "Ġvines": 6664,
      "ĠOl": 6665,
      "Ġleading": 6666,
      "Ġtriangles": 6667,
      "Ġtipto": 6668,
      "Ġpurr": 6669,
      "ĠChew": 6670,
      "Ġrefreshed": 6671,
      "Ġreason": 6672,
      "usted": 6673,
      "Ġforehead": 6674,
      "Ġraincoat": 6675,
      "Ġwears": 6676,
      "Beep": 6677,
      "Ġforgets": 6678,
      "Ġpaying": 6679,
      "Ġsurface": 6680,
      "Ġproperly": 6681,
      "ĠJeff": 6682,
      "eal": 6683,
      "Ġworries": 6684,
      "ĠPr": 6685,
      "Ġdollhouse": 6686,
      "Ġwraps": 6687,
      "Ġcompetition": 6688,
      "Follow": 6689,
      "Harry": 6690,
      "ammy": 6691,
      "airy": 6692,
      "Ġprincesses": 6693,
      "Ġitchy": 6694,
      "indr": 6695,
      "Ġsigned": 6696,
      "ĠTrust": 6697,
      "Ġplayhouse": 6698,
      "ĠLion": 6699,
      "?\",": 6700,
      "Ġexha": 6701,
      "Ġfever": 6702,
      "ĠDee": 6703,
      "Ġuns": 6704,
      "Ġinsects": 6705,
      "ĠBall": 6706,
      "Ġbars": 6707,
      "Ġraindr": 6708,
      "Ġsalty": 6709,
      "Ġlighter": 6710,
      "oline": 6711,
      "Ġloops": 6712,
      "Charlie": 6713,
      "Ġhonked": 6714,
      "Ġchuckled": 6715,
      "?'": 6716,
      "May": 6717,
      "Ġfreed": 6718,
      "elia": 6719,
      "Ġtapped": 6720,
      "ĠRon": 6721,
      "ences": 6722,
      "Ġseeker": 6723,
      "Ġsuffering": 6724,
      "fit": 6725,
      "Ġstem": 6726,
      "Ġhowever": 6727,
      "ĠGina": 6728,
      "Ġrefle": 6729,
      "Ġslammed": 6730,
      "Ġsquealed": 6731,
      "Ġscurried": 6732,
      "ho": 6733,
      "ossible": 6734,
      "Ġstung": 6735,
      "Ġdances": 6736,
      "Ġentr": 6737,
      "Ġmatters": 6738,
      "Ġfigured": 6739,
      "Ġrotting": 6740,
      "Ġdeserve": 6741,
      "Ġties": 6742,
      "sequ": 6743,
      "Ġmonth": 6744,
      "Ġripe": 6745,
      "However": 6746,
      "Ġtunnels": 6747,
      "Ġstomped": 6748,
      "ĠBuggy": 6749,
      "no": 6750,
      "ĠWink": 6751,
      "Ġconsequ": 6752,
      "Ġsnowfl": 6753,
      "Ġswans": 6754,
      "Ġtricky": 6755,
      "cher": 6756,
      "oke": 6757,
      "tle": 6758,
      "Ġtangled": 6759,
      "Ġsway": 6760,
      "itched": 6761,
      "Ġoutfit": 6762,
      "Ġdecorating": 6763,
      "Ġcrackers": 6764,
      "Out": 6765,
      "Ġsense": 6766,
      "Ġrotten": 6767,
      "ĠMira": 6768,
      "Ġranger": 6769,
      "Ġgrabbing": 6770,
      "Ġimpossible": 6771,
      "Ġmuscle": 6772,
      "Ġcelebrating": 6773,
      "ĠCopper": 6774,
      "Ġheavier": 6775,
      "Ġdarling": 6776,
      "Ġsinger": 6777,
      "Ġwaiter": 6778,
      "Ġgrows": 6779,
      "Ġbows": 6780,
      "ĠBetsy": 6781,
      "Ġprovided": 6782,
      "ĠâĢĺ": 6783,
      "Tw": 6784,
      "Ġbacked": 6785,
      "Ġmer": 6786,
      "ĠHannah": 6787,
      "ĠMel": 6788,
      "Ġlosing": 6789,
      "ĠAdam": 6790,
      "ĠAsh": 6791,
      "Ġspreading": 6792,
      "Ġsewed": 6793,
      "Ġsibl": 6794,
      "Ġsiblings": 6795,
      "Ġgri": 6796,
      "ĠLuke": 6797,
      "Ġclues": 6798,
      "Ġcolored": 6799,
      "ĠDodo": 6800,
      "Ġsymbols": 6801,
      "Ġlungs": 6802,
      "Ġaccomplish": 6803,
      "Ġpecked": 6804,
      "Ġunpacked": 6805,
      "Ġexhausted": 6806,
      "Danny": 6807,
      "For": 6808,
      "Milly": 6809,
      "len": 6810,
      "aura": 6811,
      "vers": 6812,
      "ĠWoo": 6813,
      "Ġfeast": 6814,
      "Ġinterested": 6815,
      "Ġhesitated": 6816,
      "ĠSanta": 6817,
      "Ġstain": 6818,
      "cky": 6819,
      "ĠDara": 6820,
      "Ġhandful": 6821,
      "ĠPup": 6822,
      "iggie": 6823,
      "Ġpartic": 6824,
      "Ġtwinkle": 6825,
      "Ġtravell": 6826,
      "iar": 6827,
      "rink": 6828,
      "Ġbuses": 6829,
      "Ġmarked": 6830,
      "Ġcuddly": 6831,
      "ĠGoodbye": 6832,
      "Ġconsequences": 6833,
      "band": 6834,
      "ĠTiti": 6835,
      "Ġbodies": 6836,
      "Ġprinting": 6837,
      "Ġbumps": 6838,
      "Ġdentist": 6839,
      "zie": 6840,
      "Ġplayers": 6841,
      "Ġfact": 6842,
      "ept": 6843,
      "rosty": 6844,
      "ĠNana": 6845,
      "Ġstool": 6846,
      "ĠMic": 6847,
      "agic": 6848,
      "Ġflames": 6849,
      "Ġbehavi": 6850,
      "boat": 6851,
      "Ġpancakes": 6852,
      "Ġtires": 6853,
      "Ġthud": 6854,
      "Ġcamping": 6855,
      "Ġtwinkling": 6856,
      "Ġentrance": 6857,
      "Ġden": 6858,
      "Ġpins": 6859,
      "Ġtwisting": 6860,
      "Ġscra": 6861,
      "ĠJon": 6862,
      "Ġdesigned": 6863,
      "Ġdirect": 6864,
      "Listen": 6865,
      "endy": 6866,
      "ĠListen": 6867,
      "undred": 6868,
      "Ġseparated": 6869,
      "Ġannoy": 6870,
      "hi": 6871,
      "Ġleap": 6872,
      "Ġneedles": 6873,
      "ĠRain": 6874,
      "Ġtalks": 6875,
      "Ġmeals": 6876,
      "bric": 6877,
      "ude": 6878,
      "ĠLarry": 6879,
      "Ġfabric": 6880,
      "Ġsuitcase": 6881,
      "Ġcousin": 6882,
      "ĠBirthday": 6883,
      "Ġswept": 6884,
      "Ġbuying": 6885,
      "ĠWithout": 6886,
      "Ġlifts": 6887,
      "Ġgenie": 6888,
      "Ġdetermination": 6889,
      "ĠYesterday": 6890,
      "Ġhider": 6891,
      "ĠNothing": 6892,
      "Ġflavor": 6893,
      "Ġparticular": 6894,
      "Jerry": 6895,
      "Rose": 6896,
      "Ġwow": 6897,
      "ĠTry": 6898,
      "Ġtwice": 6899,
      "Ġimages": 6900,
      "Ġwobb": 6901,
      "Alex": 6902,
      "Tweet": 6903,
      "ael": 6904,
      "Ġhundred": 6905,
      "imon": 6906,
      "lets": 6907,
      "Ġpassports": 6908,
      "Luckily": 6909,
      "ĠJay": 6910,
      "Ġache": 6911,
      "ĠOther": 6912,
      "Ġnecklaces": 6913,
      "igning": 6914,
      "Ġsweets": 6915,
      "Ġscrews": 6916,
      "Ġincreased": 6917,
      "Ġavoid": 6918,
      "Nina": 6919,
      "Ġkings": 6920,
      "ĠWoof": 6921,
      "Ġtramp": 6922,
      "Ġlifting": 6923,
      "ĠJessica": 6924,
      "etty": 6925,
      "ĠLaser": 6926,
      "Ġdod": 6927,
      "Ġbudge": 6928,
      "aut": 6929,
      "Ġnect": 6930,
      "Ġsnat": 6931,
      "Ġthrown": 6932,
      "armer": 6933,
      "Ġlending": 6934,
      "Mrs": 6935,
      "ĠTwinkle": 6936,
      "Ġnectar": 6937,
      "oey": 6938,
      "Ġopp": 6939,
      "ĠEl": 6940,
      "Ġfeeding": 6941,
      "Lilly": 6942,
      "itches": 6943,
      "Ġcash": 6944,
      "amb": 6945,
      "ĠHold": 6946,
      "stick": 6947,
      "ĠMilo": 6948,
      "iece": 6949,
      "Ġchanging": 6950,
      "âĢĶ": 6951,
      "eese": 6952,
      "Ġfuzzy": 6953,
      "ĠSophia": 6954,
      "Ġspat": 6955,
      "ĠFrosty": 6956,
      "ĠJacob": 6957,
      "ĠEle": 6958,
      "ĠClaire": 6959,
      "Ġslowed": 6960,
      "Ġcounts": 6961,
      "Ġtouches": 6962,
      "Ġsniffs": 6963,
      "Pat": 6964,
      "Ġhus": 6965,
      "ĠSleep": 6966,
      "rious": 6967,
      "ĠLizzie": 6968,
      "Ġfires": 6969,
      "Ġbaths": 6970,
      "Ġwhispers": 6971,
      "Ġcelebration": 6972,
      "cope": 6973,
      "pen": 6974,
      "ingo": 6975,
      "Ġperformance": 6976,
      "Ġborrowed": 6977,
      "Ġgrocer": 6978,
      "Ġbeam": 6979,
      "Ġcorners": 6980,
      "Ġpreparing": 6981,
      "Ġpeeking": 6982,
      "Ġactivities": 6983,
      "ĠWhistle": 6984,
      "Ġtrampoline": 6985,
      "rig": 6986,
      "Ġcott": 6987,
      "Ġgeese": 6988,
      "river": 6989,
      "Ġshaped": 6990,
      "Ġcalmed": 6991,
      "Ġfilms": 6992,
      "Ġpuppies": 6993,
      "Dan": 6994,
      "Ġicing": 6995,
      "Ġage": 6996,
      "using": 6997,
      "ives": 6998,
      "Ġstolen": 6999,
      "ĠPatch": 7000,
      "Ġnests": 7001,
      "Ġbracelets": 7002,
      "Ġsewing": 7003,
      "Ġburrow": 7004,
      "Ġmater": 7005,
      "step": 7006,
      "ushing": 7007,
      "Ġuntied": 7008,
      "Ġconn": 7009,
      "Ġspikes": 7010,
      "ĠRollie": 7011,
      "Ġmaterial": 7012,
      "Lulu": 7013,
      "Sunny": 7014,
      "Whee": 7015,
      "Ġplanning": 7016,
      "Ġmarker": 7017,
      "Ġleads": 7018,
      "Ġpupils": 7019,
      "Ab": 7020,
      "Pipp": 7021,
      "but": 7022,
      "ĠTara": 7023,
      "ĠLinda": 7024,
      "child": 7025,
      "Ġwarmer": 7026,
      "ĠRich": 7027,
      "Ġcreations": 7028,
      "Ġsunflowers": 7029,
      "Ġmushrooms": 7030,
      "Ġinstrum": 7031,
      "uppy": 7032,
      "Ġty": 7033,
      "ancy": 7034,
      "Ġdropping": 7035,
      "Ġshops": 7036,
      "Ġdirections": 7037,
      "Ġhusband": 7038,
      "Co": 7039,
      "Ġcust": 7040,
      "ĠBiggie": 7041,
      "retch": 7042,
      "Ġposter": 7043,
      "Ġstroked": 7044,
      "Ġunsure": 7045,
      "Ġreflection": 7046,
      "wk": 7047,
      "Ġgle": 7048,
      "Ġmailed": 7049,
      "Ġsteer": 7050,
      "Ġlaying": 7051,
      "Ġwiping": 7052,
      "Ġencourag": 7053,
      "Ġtiptoed": 7054,
      "Ġwrapping": 7055,
      "Ġrecipe": 7056,
      "Ġhealth": 7057,
      "Ġgears": 7058,
      "Under": 7059,
      "ĠPam": 7060,
      "Ġindeed": 7061,
      "ivity": 7062,
      "Ġlabels": 7063,
      "ĠSparky": 7064,
      "Ġraindrops": 7065,
      "Ġgroceries": 7066,
      "Bill": 7067,
      "Ġpresses": 7068,
      "Ġzipping": 7069,
      "Ġstudents": 7070,
      "Ġpouted": 7071,
      "rigued": 7072,
      "Ġcustom": 7073,
      "Millie": 7074,
      "Ġrepa": 7075,
      "Ġglued": 7076,
      "ĠOnly": 7077,
      "Ġrewarded": 7078,
      "Ġgrandchild": 7079,
      "Ġmesmer": 7080,
      "yes": 7081,
      "immer": 7082,
      "Ġflapping": 7083,
      "Ġcreativity": 7084,
      "cl": 7085,
      "the": 7086,
      "vroom": 7087,
      "Ġaff": 7088,
      "Ġlower": 7089,
      "Ġrising": 7090,
      "Ġcuriously": 7091,
      "ĠBeaky": 7092,
      "Ġtossed": 7093,
      "Ġrusty": 7094,
      "Ġaimed": 7095,
      "Ġfigures": 7096,
      "Ġtying": 7097,
      "Ġnibb": 7098,
      "llen": 7099,
      "Ġscooters": 7100,
      "Ġfirefly": 7101,
      "Ġseasons": 7102,
      "ker": 7103,
      "ters": 7104,
      "ĠWo": 7105,
      "ishy": 7106,
      "Ġsurprising": 7107,
      "angle": 7108,
      "Ġblocked": 7109,
      "Ġchop": 7110,
      "Ġsource": 7111,
      "Ġcushions": 7112,
      "Ġincluding": 7113,
      "Ġobjects": 7114,
      "Ġseconds": 7115,
      "Ġbeginning": 7116,
      "illed": 7117,
      "Ġroars": 7118,
      "ĠFuzzy": 7119,
      "abby": 7120,
      "Ġrains": 7121,
      "Ġadult": 7122,
      "Ġcamel": 7123,
      "ĠSnowman": 7124,
      "ĠElephant": 7125,
      "Ġrepaired": 7126,
      "Ġbackward": 7127,
      "ĠDoctor": 7128,
      "ichael": 7129,
      "Ġforgetting": 7130,
      "ments": 7131,
      "Ġvanilla": 7132,
      "Ġmelons": 7133,
      "Ġblinking": 7134,
      "Ġcashier": 7135,
      "Ġlamb": 7136,
      "Ġsan": 7137,
      "igers": 7138,
      "Ġstrongest": 7139,
      "Ġhearing": 7140,
      "Ġcolder": 7141,
      "iversity": 7142,
      "Ġshrinking": 7143,
      "Ġimagining": 7144,
      "Ġbakery": 7145,
      "Ellie": 7146,
      "Zip": 7147,
      "ne": 7148,
      "prin": 7149,
      "Ġsailboat": 7150,
      "hog": 7151,
      "Ġhawk": 7152,
      "Ġsomebody": 7153,
      "Ġwilling": 7154,
      "ĠRe": 7155,
      "Ġbelts": 7156,
      "Ġwakes": 7157,
      "Ġfrowning": 7158,
      "Ġzebras": 7159,
      "Ġhedgehog": 7160,
      "Ġwobbly": 7161,
      "Ġsank": 7162,
      "Jul": 7163,
      "Ġtiss": 7164,
      "itude": 7165,
      "Ġcoop": 7166,
      "Ġearn": 7167,
      "usty": 7168,
      "ĠCathy": 7169,
      "Ġafterwards": 7170,
      "ĠKayla": 7171,
      "Ġcowb": 7172,
      "Quick": 7173,
      "Ruby": 7174,
      "uing": 7175,
      "Ġpuff": 7176,
      "ĠSw": 7177,
      "Ġyelp": 7178,
      "ddie": 7179,
      "Ġblown": 7180,
      "ilda": 7181,
      "Ġfins": 7182,
      "Ġdancers": 7183,
      "Ġstreets": 7184,
      "Ġpops": 7185,
      "Ġstroll": 7186,
      "Ġdamage": 7187,
      "itted": 7188,
      "Ġscored": 7189,
      "Ġeverybody": 7190,
      "ĠFarmer": 7191,
      "Ġsparks": 7192,
      "Ġsprinkled": 7193,
      "Clara": 7194,
      "Ġforgiving": 7195,
      "Ġsnatched": 7196,
      "Ġhopeful": 7197,
      "Ġsuffered": 7198,
      "Ġrecommended": 7199,
      "Ġtalented": 7200,
      "Ġguests": 7201,
      "iding": 7202,
      "ades": 7203,
      "Ġnightmares": 7204,
      "Ġswimsuit": 7205,
      "Ġastron": 7206,
      "ĠTake": 7207,
      "Ġcoup": 7208,
      "Ġhotter": 7209,
      "Ġpedaled": 7210,
      "jo": 7211,
      "uess": 7212,
      "atur": 7213,
      "Ġplain": 7214,
      "ĠFire": 7215,
      "ĠEls": 7216,
      "Ġrobots": 7217,
      "Ġpaths": 7218,
      "weed": 7219,
      "Ġtrembled": 7220,
      "Ġmerma": 7221,
      "Ġastronaut": 7222,
      "Ġgross": 7223,
      "Ġrushing": 7224,
      "ĠLaura": 7225,
      "Ġfart": 7226,
      "ĠPlay": 7227,
      "Ġplans": 7228,
      "Ġbells": 7229,
      "ĠUp": 7230,
      "ĠRobo": 7231,
      "ĠTurtle": 7232,
      "Ġdet": 7233,
      "ĠCara": 7234,
      "Ġovercome": 7235,
      "Ġqueens": 7236,
      "Ġpassen": 7237,
      "ĠNick": 7238,
      "Ġsurfing": 7239,
      "Ġshovels": 7240,
      "ĠChrist": 7241,
      "Ġencouraging": 7242,
      "Ġtissue": 7243,
      "Baby": 7244,
      "yond": 7245,
      "Ġbeyond": 7246,
      "Ġshoo": 7247,
      "iles": 7248,
      "Ġseaweed": 7249,
      "Ġpinching": 7250,
      "Ġregretted": 7251,
      "Ġcenter": 7252,
      "Mine": 7253,
      "Ġdie": 7254,
      "Ġdip": 7255,
      "Ġfits": 7256,
      "Ġkittens": 7257,
      "Ġslips": 7258,
      "Ġwidened": 7259,
      "Ġfirefighters": 7260,
      "Ġfirmly": 7261,
      "Kate": 7262,
      "ĠBarky": 7263,
      "ĠFairy": 7264,
      "Ġchip": 7265,
      "Ġrobber": 7266,
      "Ġgiggles": 7267,
      "Ġpleasure": 7268,
      "ĠMissy": 7269,
      "ĠSuzie": 7270,
      "Ġachieved": 7271,
      "ĠGrumpy": 7272,
      "Ġfluttered": 7273,
      "ĠSadly": 7274,
      "ggy": 7275,
      "Ġtodd": 7276,
      "ans": 7277,
      "Ġsped": 7278,
      "Ġswir": 7279,
      "Ġsailors": 7280,
      "ĠBloom": 7281,
      "Ġsurfboard": 7282,
      "per": 7283,
      "Ġtigers": 7284,
      "Ġrumble": 7285,
      "arac": 7286,
      "Quack": 7287,
      "Get": 7288,
      "Ġsale": 7289,
      "Ġliqu": 7290,
      "cho": 7291,
      "tha": 7292,
      "Ġhallway": 7293,
      "Always": 7294,
      "Spike": 7295,
      "ibbit": 7296,
      "ĠOliver": 7297,
      "cake": 7298,
      "mas": 7299,
      "Ġtighter": 7300,
      "Ġsqueak": 7301,
      "Ġquarreled": 7302,
      "Ġangels": 7303,
      "Ġsending": 7304,
      "ĠJanie": 7305,
      "Zoomy": 7306,
      "driver": 7307,
      "Ġnood": 7308,
      "ĠBones": 7309,
      "Ġwatering": 7310,
      "Ġsofter": 7311,
      "Ġdrivers": 7312,
      "Ġtested": 7313,
      "Ġwobble": 7314,
      "Ġslices": 7315,
      "ĠAbi": 7316,
      "Ġflavors": 7317,
      "Ġcouple": 7318,
      "Take": 7319,
      "Ġdaring": 7320,
      "Ġwept": 7321,
      "Ġecho": 7322,
      "alph": 7323,
      "Ġbackwards": 7324,
      "Ġends": 7325,
      "Ġmarkers": 7326,
      "Ġhaircuts": 7327,
      "Ġdelivering": 7328,
      "Ġfarthest": 7329,
      "Ġliquid": 7330,
      "Betty": 7331,
      "eds": 7332,
      "Ġcharac": 7333,
      "ertain": 7334,
      "Ġmerry": 7335,
      "Ġguide": 7336,
      "Ġhoriz": 7337,
      "Ġsupported": 7338,
      "ĠSpirit": 7339,
      "Ġmagnets": 7340,
      "ĠTweetie": 7341,
      "Ġwiggly": 7342,
      "ĠGranny": 7343,
      "ummies": 7344,
      "Ġthorns": 7345,
      "Ġgrip": 7346,
      "Dolly": 7347,
      "Jump": 7348,
      "Mira": 7349,
      "Put": 7350,
      "Ġnotes": 7351,
      "ousy": 7352,
      "Ġamong": 7353,
      "ĠThanks": 7354,
      "Ġneighbours": 7355,
      "Ġaccomplishment": 7356,
      "Ġhorizon": 7357,
      "Bear": 7358,
      "cited": 7359,
      "Ġyum": 7360,
      "Ġspins": 7361,
      "ĠJump": 7362,
      "!âĢĿ.": 7363,
      "Ġspells": 7364,
      "ĠMikey": 7365,
      "Ġspits": 7366,
      "Ġtummies": 7367,
      "pecting": 7368,
      "Ġcleaner": 7369,
      "Ġexpress": 7370,
      "Ġscrewdriver": 7371,
      "ĠSparkle": 7372,
      "Car": 7373,
      "Vroom": 7374,
      "obody": 7375,
      "Ġflipped": 7376,
      "Ġsuits": 7377,
      "Ġknots": 7378,
      "Ġcountryside": 7379,
      "ĠRudy": 7380,
      "fall": 7381,
      "Ġnapped": 7382,
      "lle": 7383,
      "ility": 7384,
      "Ġrather": 7385,
      "ighting": 7386,
      "ĠWendy": 7387,
      "urtles": 7388,
      "Ġpaintbrush": 7389,
      "ĠZee": 7390,
      "ĠZoey": 7391,
      "cused": 7392,
      "fted": 7393,
      "ĠSimon": 7394,
      "Ġthoughts": 7395,
      "emma": 7396,
      "Ġbandages": 7397,
      "Ġsharks": 7398,
      "Ġdisturbing": 7399,
      "Ġenthusiasm": 7400,
      "Ġglee": 7401,
      "Ġtipped": 7402,
      "Ġturtles": 7403,
      "Ġais": 7404,
      "onies": 7405,
      "Ġaside": 7406,
      "Ġtreehouse": 7407,
      "Ġbathing": 7408,
      "umbling": 7409,
      "Ġpours": 7410,
      "ĠStretch": 7411,
      "Ġslipping": 7412,
      "Ġmoo": 7413,
      "arrow": 7414,
      "Ġbru": 7415,
      "Ġintrigued": 7416,
      "Ġsweetest": 7417,
      "ĠStella": 7418,
      "Ġbulbs": 7419,
      "'.\"": 7420,
      "parent": 7421,
      "rup": 7422,
      "Ġunw": 7423,
      "Ġdrawn": 7424,
      "Ġcloudy": 7425,
      "Ġpolitely": 7426,
      "ĠChirp": 7427,
      "ĠAlong": 7428,
      "ĠJulia": 7429,
      "ĠChristmas": 7430,
      "Dear": 7431,
      "Ġev": 7432,
      "Ġshown": 7433,
      "Ġdef": 7434,
      "Ġcreamy": 7435,
      "Ġunderstands": 7436,
      "Guess": 7437,
      "Ġcrew": 7438,
      "ĠMousy": 7439,
      "ĠCow": 7440,
      "Ġstopping": 7441,
      "Ġsecure": 7442,
      "Ġrivers": 7443,
      "Ġstands": 7444,
      "Ġdesigns": 7445,
      "Ġaud": 7446,
      "Ġnuzz": 7447,
      "Ġspice": 7448,
      "iley": 7449,
      "ĠCr": 7450,
      "Ġstorekeeper": 7451,
      "Ġbeeh": 7452,
      "Ġperforming": 7453,
      "Ġhealing": 7454,
      "Ġlipstick": 7455,
      "ĠCrab": 7456,
      "Bang": 7457,
      "Ġmate": 7458,
      "ently": 7459,
      "ĠAbbie": 7460,
      "Ġflas": 7461,
      "ĠEx": 7462,
      "Ġgardener": 7463,
      "ounce": 7464,
      "Ġpanicked": 7465,
      "Ġhoops": 7466,
      "ĠYet": 7467,
      "Ġstroke": 7468,
      "Frank": 7469,
      "Ġforgiven": 7470,
      "Ġsnowflakes": 7471,
      "ĠWooly": 7472,
      "Ġsy": 7473,
      "Ġbully": 7474,
      "ĠJune": 7475,
      "Ġchos": 7476,
      "ĠCindy": 7477,
      "Ġmaker": 7478,
      "ĠNear": 7479,
      "awn": 7480,
      "Ġtesting": 7481,
      "Ġpays": 7482,
      "Ġcoloured": 7483,
      "Ġbeehive": 7484,
      "Ġchosen": 7485,
      "Bessie": 7486,
      "David": 7487,
      "Ribbit": 7488,
      "Su": 7489,
      "hil": 7490,
      "iam": 7491,
      "rat": 7492,
      "Ġspies": 7493,
      "ĠWise": 7494,
      "Ġpeck": 7495,
      "Ġhangers": 7496,
      "Ġfrowns": 7497,
      "Ġoysters": 7498,
      "Am": 7499,
      "Very": 7500,
      "ae": 7501,
      "vered": 7502,
      "Ġfocused": 7503,
      "ĠRuff": 7504,
      "ivery": 7505,
      "allowed": 7506,
      "Ġswallowed": 7507,
      "Ġsingle": 7508,
      "Ġgrassy": 7509,
      "asty": 7510,
      "ĠPeanut": 7511,
      "Ġartist": 7512,
      "Ġyielded": 7513,
      "Ġraccoon": 7514,
      "Ġsurroundings": 7515,
      "prints": 7516,
      "Ġmermaid": 7517,
      "Ġaudience": 7518,
      "ĠSl": 7519,
      "ĠKit": 7520,
      "Ġexplo": 7521,
      "Ġheading": 7522,
      "Ġsprang": 7523,
      "Ġignoring": 7524,
      "Leave": 7525,
      "Ġnoodles": 7526,
      "Kiki": 7527,
      "Ġponies": 7528,
      "Ġreass": 7529,
      "Ġdollars": 7530,
      "ĠNice": 7531,
      "Ġteams": 7532,
      "Ġgrandparent": 7533,
      "while": 7534,
      "Ġgreeted": 7535,
      "aven": 7536,
      "omp": 7537,
      "ĠIzzy": 7538,
      "Ġlongest": 7539,
      "Ġmagician": 7540,
      "Ġwrink": 7541,
      "Ġelbow": 7542,
      "Ġtwinkled": 7543,
      "ĠMixy": 7544,
      "Ġtoddler": 7545,
      "bird": 7546,
      "dding": 7547,
      "ĠEmmy": 7548,
      "Ġbelieving": 7549,
      "Ġreminds": 7550,
      "Penny": 7551,
      "eet": 7552,
      "evin": 7553,
      "Ġtil": 7554,
      "Ġhour": 7555,
      "ulp": 7556,
      "ĠFighting": 7557,
      "ably": 7558,
      "Ġdrawers": 7559,
      "Ġbits": 7560,
      "Ġmarsh": 7561,
      "Ġjoining": 7562,
      "ĠBlinky": 7563,
      "Ġcrossing": 7564,
      "Ġnervously": 7565,
      "Ġspeeding": 7566,
      "Ġweekend": 7567,
      "Ġdiscussed": 7568,
      "Ġfreedom": 7569,
      "Ġmesmerized": 7570,
      "Boys": 7571,
      "Jazz": 7572,
      "Like": 7573,
      "Sad": 7574,
      "father": 7575,
      "Ġcoug": 7576,
      "oni": 7577,
      "ĠSoft": 7578,
      "Ġflip": 7579,
      "ĠHerb": 7580,
      "Ġsquishy": 7581,
      "ĠRia": 7582,
      "Ġbicycles": 7583,
      "Ġreversed": 7584,
      "Coco": 7585,
      "Kim": 7586,
      "Zara": 7587,
      "fly": 7588,
      "oring": 7589,
      "Ġprove": 7590,
      "Ġsandy": 7591,
      "Ġsqueezing": 7592,
      "Ġgracefully": 7593,
      "Ġsports": 7594,
      "Moo": 7595,
      "Ġ2": 7596,
      "rier": 7597,
      "Ġknives": 7598,
      "Ġmanag": 7599,
      "ongrat": 7600,
      "oga": 7601,
      "ĠPuppy": 7602,
      "Ġbeloved": 7603,
      "Ġarr": 7604,
      "Ġcrowns": 7605,
      "Ġpurrs": 7606,
      "Freddy": 7607,
      "Ġsweaters": 7608,
      "Ġfirefighter": 7609,
      "urious": 7610,
      "Ġstitches": 7611,
      "Ġshady": 7612,
      "Ġchanges": 7613,
      "bbled": 7614,
      "Ġdisob": 7615,
      "Ġfills": 7616,
      "Ġminded": 7617,
      "ĠUniversity": 7618,
      "ibi": 7619,
      "Buzzy": 7620,
      "vant": 7621,
      "zoom": 7622,
      "Ġwasting": 7623,
      "onna": 7624,
      "ĠHoney": 7625,
      "Ġlies": 7626,
      "ĠMake": 7627,
      "Ġneare": 7628,
      "Ġseals": 7629,
      "Ġworn": 7630,
      "Ġamount": 7631,
      "Ġtearing": 7632,
      "Ġdelivery": 7633,
      "Ġlessons": 7634,
      "Ġengines": 7635,
      "Ġsheets": 7636,
      "ĠIsn": 7637,
      "Maria": 7638,
      "da": 7639,
      "Ġwadd": 7640,
      "ats": 7641,
      "anwhile": 7642,
      "Ġstacked": 7643,
      "ading": 7644,
      "iona": 7645,
      "Ġhandsome": 7646,
      "Ġsails": 7647,
      "immering": 7648,
      "Ġcor": 7649,
      "orter": 7650,
      "Ġbanged": 7651,
      "Ġwisely": 7652,
      "ĠBiggy": 7653,
      "Ġrespond": 7654,
      "Ġhesitant": 7655,
      "Ġevil": 7656,
      "?!\"": 7657,
      "Hurry": 7658,
      "yan": 7659,
      "inny": 7660,
      "Ġnur": 7661,
      "ĠFle": 7662,
      "Ġseller": 7663,
      "Ġrepeating": 7664,
      "Ġbreathed": 7665,
      "ĠAmelia": 7666,
      "Ġinstruments": 7667,
      "mallow": 7668,
      "Ġhiss": 7669,
      "unched": 7670,
      "Ġrespected": 7671,
      "Ġspills": 7672,
      "Ġmosquitoes": 7673,
      "Alright": 7674,
      "Ġencouragement": 7675,
      "Ġrisks": 7676,
      "Snow": 7677,
      "ongratul": 7678,
      "ca": 7679,
      "ĠTe": 7680,
      "omb": 7681,
      "ider": 7682,
      "Ġgap": 7683,
      "ĠMabel": 7684,
      "ecca": 7685,
      "Ġspoonful": 7686,
      "Ġships": 7687,
      "Ġdecisions": 7688,
      "Ġ10": 7689,
      "order": 7690,
      "aren": 7691,
      "Ġwaterfall": 7692,
      "Ġdripping": 7693,
      "Ġdrifted": 7694,
      "Ġcreams": 7695,
      "Ġsneezes": 7696,
      "ĠShow": 7697,
      "Ġsniffing": 7698,
      "Ġbothering": 7699,
      "Even": 7700,
      "Ġlent": 7701,
      "Ġgonna": 7702,
      "ĠLuckily": 7703,
      "Ġnodding": 7704,
      "ĠEddie": 7705,
      "Ġtweet": 7706,
      "Ġswimmer": 7707,
      "Ġterrified": 7708,
      "Ġrustling": 7709,
      "Open": 7710,
      "fus": 7711,
      "mates": 7712,
      "Ġwaking": 7713,
      "Ġdarl": 7714,
      "isc": 7715,
      "llas": 7716,
      "Ġsoaking": 7717,
      "issa": 7718,
      "athan": 7719,
      "Ġumbrellas": 7720,
      "Ġmagnif": 7721,
      "Ġsnaps": 7722,
      "Ġtubes": 7723,
      "Ġstomp": 7724,
      "years": 7725,
      "Ġmeows": 7726,
      "Pippin": 7727,
      "Ġdarlings": 7728,
      "Ġgest": 7729,
      "ĠMan": 7730,
      "ĠMina": 7731,
      "espite": 7732,
      "Ġflight": 7733,
      "Ġfocus": 7734,
      "Ġadults": 7735,
      "ĠRel": 7736,
      "Ġsolving": 7737,
      "Ġaddress": 7738,
      "Ġmagazines": 7739,
      "Ġgazing": 7740,
      "ĠMaya": 7741,
      "ĠChess": 7742,
      "Keep": 7743,
      "Ġbravest": 7744,
      "ĠToot": 7745,
      "ĠTodd": 7746,
      "Ġencount": 7747,
      "Ġburying": 7748,
      "Ġhumans": 7749,
      "Ġcrashing": 7750,
      "Uncle": 7751,
      "Ġmarshmallow": 7752,
      "ĠTia": 7753,
      "ĠSil": 7754,
      "veral": 7755,
      "Ġseveral": 7756,
      "Ġcoloring": 7757,
      "Ġbraver": 7758,
      "Ġtasting": 7759,
      "Ġpolar": 7760,
      "ĠRobert": 7761,
      "Ġbeeped": 7762,
      "Ġstudent": 7763,
      "Ġsweaty": 7764,
      "Ġund": 7765,
      "Ġaren": 7766,
      "Thomas": 7767,
      "oscope": 7768,
      "ĠDani": 7769,
      "Birdy": 7770,
      "ĠJudy": 7771,
      "Ġwounds": 7772,
      "een": 7773,
      "Ġsill": 7774,
      "Ġsteth": 7775,
      "ntil": 7776,
      "Ġonward": 7777,
      "Ġforce": 7778,
      "Ġloses": 7779,
      "Ġscient": 7780,
      "Ġscamp": 7781,
      "Ġswitched": 7782,
      "Which": 7783,
      "Ġworrying": 7784,
      "Ġpuzzled": 7785,
      "ĠMaddie": 7786,
      "Ġscientist": 7787,
      "Ġbitten": 7788,
      "Ġease": 7789,
      "Ġlace": 7790,
      "Ġswap": 7791,
      "Ġtoward": 7792,
      "Ġsmelling": 7793,
      "ĠOkay": 7794,
      "Ġjars": 7795,
      "Ġfootprints": 7796,
      "ĠNobody": 7797,
      "steps": 7798,
      "Ġunwra": 7799,
      "Play": 7800,
      "Slow": 7801,
      "line": 7802,
      "Ġwarri": 7803,
      "Ġfootsteps": 7804,
      "Ġpeacefully": 7805,
      "ĠâĢĶ": 7806,
      "Ġburnt": 7807,
      "Ġmonths": 7808,
      "Ġbehavior": 7809,
      "Ġscraped": 7810,
      "Aunt": 7811,
      "Adam": 7812,
      "ĠLia": 7813,
      "ĠBad": 7814,
      "ĠKip": 7815,
      "Ġcracks": 7816,
      "Ġsweep": 7817,
      "Afterwards": 7818,
      "Ġresisted": 7819,
      "Ġbaskets": 7820,
      "Ġtaped": 7821,
      "Ġrescuing": 7822,
      "Ġproper": 7823,
      "Ġstethoscope": 7824,
      "atty": 7825,
      "aint": 7826,
      "Ġblast": 7827,
      "Ġhanding": 7828,
      "Ġstored": 7829,
      "ĠGary": 7830,
      "Ġantic": 7831,
      "Ġplanting": 7832,
      "Ġresults": 7833,
      "Ġprayers": 7834,
      "ĠFishy": 7835,
      "Hannah": 7836,
      "Ġbomb": 7837,
      "ita": 7838,
      "Ġdump": 7839,
      "Ġscen": 7840,
      "Ġexce": 7841,
      "Ġcovering": 7842,
      "Ġnewspapers": 7843,
      "Ġfamiliar": 7844,
      "Ġwider": 7845,
      "--": 7846,
      "Wake": 7847,
      "bage": 7848,
      "Ġshorter": 7849,
      "urrender": 7850,
      "Ġmanners": 7851,
      "ĠWell": 7852,
      "Ġjoins": 7853,
      "Instead": 7854,
      "Goodnight": 7855,
      "ĠNancy": 7856,
      "Ġminds": 7857,
      "Ġadds": 7858,
      "Ġscattering": 7859,
      "Ġdelayed": 7860,
      "Binky": 7861,
      "Katie": 7862,
      "rect": 7863,
      "Ġpuck": 7864,
      "anie": 7865,
      "Ġslither": 7866,
      "gestion": 7867,
      "acy": 7868,
      "Ġexplorer": 7869,
      "Ġsuggestion": 7870,
      "Ġtrusting": 7871,
      "Ġrelaxing": 7872,
      "Ġscolds": 7873,
      ".'\"": 7874,
      "ĠMicroscope": 7875,
      "Try": 7876,
      "Ġheight": 7877,
      "ĠSe": 7878,
      "Ġplucked": 7879,
      "Ġglitt": 7880,
      "artled": 7881,
      "Ġpurpose": 7882,
      "ĠShare": 7883,
      "Ġpeeled": 7884,
      "ĠJudge": 7885,
      "Bow": 7886,
      "Liz": 7887,
      "Tony": 7888,
      "ition": 7889,
      "Ġmood": 7890,
      "Ġgoo": 7891,
      "ening": 7892,
      "ĠBibi": 7893,
      "Ġanger": 7894,
      "romise": 7895,
      "Ġchecks": 7896,
      "ĠNut": 7897,
      "Ġfleas": 7898,
      "Ġrats": 7899,
      "attered": 7900,
      "Ġtemper": 7901,
      "Ġcells": 7902,
      "Ġpermitted": 7903,
      "Ġsimply": 7904,
      "Ġcharacters": 7905,
      "Ġrowed": 7906,
      "Ġclue": 7907,
      "Ġflown": 7908,
      "Ġcharge": 7909,
      "Ġpotion": 7910,
      "Ġmixture": 7911,
      "ounced": 7912,
      "ipper": 7913,
      "Ġpleaded": 7914,
      "Ġfiles": 7915,
      "Ġlicking": 7916,
      "Ġdodged": 7917,
      "Fl": 7918,
      "Kids": 7919,
      "Mat": 7920,
      "Ġsou": 7921,
      "Ġpound": 7922,
      "orse": 7923,
      "Ġinsp": 7924,
      "ĠAng": 7925,
      "ellow": 7926,
      "Ġcares": 7927,
      "beep": 7928,
      "ears": 7929,
      "Ġreminding": 7930,
      "ĠMartha": 7931,
      "Ġdamaged": 7932,
      "Ġannoyed": 7933,
      "Ġaisle": 7934,
      "Ġgesture": 7935,
      "Carl": 7936,
      "cc": 7937,
      "Ġbam": 7938,
      "Ġmunch": 7939,
      "Ġwithin": 7940,
      "Ġdespite": 7941,
      "Ġcombed": 7942,
      "Ġknocking": 7943,
      "Ġbreathing": 7944,
      "Ġopinions": 7945,
      "Two": 7946,
      "Ġmaterials": 7947,
      "Ġgrandparents": 7948,
      "Ġcorrect": 7949,
      "Ġscampered": 7950,
      "',": 7951,
      "Pandy": 7952,
      "Tilly": 7953,
      "hew": 7954,
      "ĠToys": 7955,
      "Ġmiles": 7956,
      "rac": 7957,
      "Ġocc": 7958,
      "Ġcheers": 7959,
      "ĠRoo": 7960,
      "Ġdrown": 7961,
      "ĠTruck": 7962,
      "Ġedges": 7963,
      "Ġwaddled": 7964,
      "Bee": 7965,
      "Rock": 7966,
      "Ġnasty": 7967,
      "ĠSay": 7968,
      "Ġinj": 7969,
      "ĠTime": 7970,
      "elie": 7971,
      "ĠWilly": 7972,
      "Ġchar": 7973,
      "Ġsnuck": 7974,
      "Ġsquir": 7975,
      "Ġpills": 7976,
      "Ġcalmly": 7977,
      "Ġexplains": 7978,
      "Chloe": 7979,
      "Ġpunishment": 7980,
      "Ġflaps": 7981,
      "Ġastronauts": 7982,
      "By": 7983,
      "Too": 7984,
      "piece": 7985,
      "ĠHug": 7986,
      "ĠLenny": 7987,
      "Ġgobbled": 7988,
      "Ġcarries": 7989,
      "Ġtwenty": 7990,
      "Ġbeaver": 7991,
      "ĠPen": 7992,
      "Ġbusiness": 7993,
      "Ġdresser": 7994,
      "ĠOt": 7995,
      "Ġtreated": 7996,
      "Ġrecorder": 7997,
      "Behind": 7998,
      "Ġtwists": 7999,
      "Ġlowered": 8000,
      "ĠRobbie": 8001,
      "Ġgrandson": 8002,
      "Ġtravelled": 8003,
      "Ġanticip": 8004,
      "Ġbamboo": 8005,
      "Ros": 8006,
      "eel": 8007,
      "form": 8008,
      "hel": 8009,
      "ighing": 8010,
      "Ġyumm": 8011,
      "Ġelf": 8012,
      "opes": 8013,
      "ooky": 8014,
      "retty": 8015,
      "Momma": 8016,
      "bbers": 8017,
      "ĠAli": 8018,
      "Ġfloats": 8019,
      "Ġinvites": 8020,
      "Ġbothered": 8021,
      "ĠMeg": 8022,
      "ĠChris": 8023,
      "ĠPoor": 8024,
      "Ġencountered": 8025,
      "Red": 8026,
      "Ġsens": 8027,
      "Ġfaded": 8028,
      "rey": 8029,
      "ĠLoop": 8030,
      "ĠMint": 8031,
      "Josh": 8032,
      "Ġwhistles": 8033,
      "ebecca": 8034,
      "Ġprick": 8035,
      "Ġsqueaked": 8036,
      "Ġscares": 8037,
      "Ġneatly": 8038,
      "Someone": 8039,
      "Ġtilted": 8040,
      "Back": 8041,
      "Mo": 8042,
      "Ġfant": 8043,
      "inted": 8044,
      "Ġcertain": 8045,
      "inger": 8046,
      "rie": 8047,
      "ĠBally": 8048,
      "ĠMichael": 8049,
      "Ġshall": 8050,
      "Ġrobbers": 8051,
      "Ġswallow": 8052,
      "Ġcaw": 8053,
      "Ġcausing": 8054,
      "Ġfights": 8055,
      "Ġbenches": 8056,
      "Ġaeroplanes": 8057,
      "ĠBubba": 8058,
      "Ġlanguages": 8059,
      "ĠDavey": 8060,
      "Ġpassengers": 8061,
      "Ġanticipation": 8062,
      "vy": 8063,
      "inch": 8064,
      "ĠTess": 8065,
      "Ġramp": 8066,
      "ĠAna": 8067,
      "ĠEverybody": 8068,
      "Ġcheated": 8069,
      "uffin": 8070,
      "Ġdears": 8071,
      "Ġquieter": 8072,
      "Steve": 8073,
      "Ġdestroying": 8074,
      "Ġgrandfather": 8075,
      "Ġmassages": 8076,
      "etchup": 8077,
      "Ġrefreshing": 8078,
      "Ġechoed": 8079,
      "iment": 8080,
      "ofia": 8081,
      "Ġrewards": 8082,
      "Ġposit": 8083,
      "Ġjoyful": 8084,
      "Ġdesigning": 8085,
      "Ġaction": 8086,
      "Meanwhile": 8087,
      "Ġhunters": 8088,
      "ĠFlutter": 8089,
      "Ġyelped": 8090,
      "tock": 8091,
      "Ġtar": 8092,
      "Ġtuck": 8093,
      "Ġinches": 8094,
      "ĠBang": 8095,
      "ĠBaa": 8096,
      "ĠMin": 8097,
      "Ġbacks": 8098,
      "ĠJojo": 8099,
      "Ġfloors": 8100,
      "Ġdreamt": 8101,
      "Ġsets": 8102,
      "ĠZippy": 8103,
      "ails": 8104,
      "Ġserving": 8105,
      "Ġbeetles": 8106,
      "Ġcrawls": 8107,
      "ĠFlop": 8108,
      "Ġscratching": 8109,
      "Ġbackpacks": 8110,
      "Abigail": 8111,
      "fire": 8112,
      "orking": 8113,
      "ĠWait": 8114,
      "andas": 8115,
      "Ġdressing": 8116,
      "Ġthroughout": 8117,
      "Ġshrank": 8118,
      "Ġerase": 8119,
      "Ġpostman": 8120,
      "Ġdisplayed": 8121,
      "Ġrows": 8122,
      "Ġmesses": 8123,
      "aturday": 8124,
      "Ġspices": 8125,
      "Ġfantastic": 8126,
      "Jamie": 8127,
      "Ġhoo": 8128,
      "aty": 8129,
      "ĠSaturday": 8130,
      "unity": 8131,
      "Ġlapt": 8132,
      "Ġdoorway": 8133,
      "Ġsquaw": 8134,
      "ĠRyan": 8135,
      "Ġminding": 8136,
      "Ġhumming": 8137,
      "ĠAlthough": 8138,
      "ĠShadow": 8139,
      "Ġsurrendered": 8140,
      "Ġsternly": 8141,
      "Ġmatey": 8142,
      "iscuit": 8143,
      "Bubb": 8144,
      "Magic": 8145,
      "ms": 8146,
      "onnie": 8147,
      "Ġwhales": 8148,
      "Ġflips": 8149,
      "ĠRalph": 8150,
      "Ġshines": 8151,
      "Ġzooms": 8152,
      "Ġquestioned": 8153,
      "ĠUntil": 8154,
      "ĠYoga": 8155,
      "Ġleapt": 8156,
      "ĠWolf": 8157,
      "Ġtemperature": 8158,
      "Speedy": 8159,
      "Ted": 8160,
      "found": 8161,
      "mies": 8162,
      "munk": 8163,
      "val": 8164,
      "yler": 8165,
      "Ġketchup": 8166,
      "Ġtrot": 8167,
      "Ġwrigg": 8168,
      "Ġbathed": 8169,
      "Ġcollap": 8170,
      "Ġbellies": 8171,
      "Ġpicnics": 8172,
      "Ġstamped": 8173,
      "ĠYummy": 8174,
      "Outside": 8175,
      "ĠSilver": 8176,
      "Ball": 8177,
      "Nice": 8178,
      "Near": 8179,
      "wise": 8180,
      "ppies": 8181,
      "ĠShelly": 8182,
      "Ġreapp": 8183,
      "Ġodd": 8184,
      "Ġsadder": 8185,
      "Ġfailed": 8186,
      "Ġnearly": 8187,
      "ĠKevin": 8188,
      "Ġfinal": 8189,
      "ĠJaney": 8190,
      "Ġtoolbox": 8191
    },
    "merges": [
      [
        "Ġ",
        "t"
      ],
      [
        "h",
        "e"
      ],
      [
        "Ġ",
        "a"
      ],
      [
        "Ġ",
        "s"
      ],
      [
        "n",
        "d"
      ],
      [
        "Ġ",
        "w"
      ],
      [
        "Ġt",
        "he"
      ],
      [
        "e",
        "d"
      ],
      [
        "Ġ",
        "b"
      ],
      [
        "Ġt",
        "o"
      ],
      [
        "Ġa",
        "nd"
      ],
      [
        "Ġ",
        "h"
      ],
      [
        "Ġ",
        "f"
      ],
      [
        "i",
        "n"
      ],
      [
        "Ġ",
        "T"
      ],
      [
        "Ġw",
        "a"
      ],
      [
        "r",
        "e"
      ],
      [
        "i",
        "t"
      ],
      [
        "o",
        "u"
      ],
      [
        "Ġ",
        "l"
      ],
      [
        "Ġ",
        "d"
      ],
      [
        "Ġ",
        "c"
      ],
      [
        "Ġ",
        "p"
      ],
      [
        "a",
        "y"
      ],
      [
        "Ġ",
        "m"
      ],
      [
        "e",
        "r"
      ],
      [
        "Ġwa",
        "s"
      ],
      [
        "o",
        "m"
      ],
      [
        "ĠT",
        "he"
      ],
      [
        "Ġ",
        "he"
      ],
      [
        "i",
        "s"
      ],
      [
        "Ġ",
        "n"
      ],
      [
        "a",
        "r"
      ],
      [
        "i",
        "m"
      ],
      [
        "o",
        "n"
      ],
      [
        "Ġs",
        "a"
      ],
      [
        "i",
        "d"
      ],
      [
        "l",
        "l"
      ],
      [
        "Ġh",
        "a"
      ],
      [
        "Ġ",
        "g"
      ],
      [
        "a",
        "t"
      ],
      [
        "Ġ",
        "S"
      ],
      [
        "in",
        "g"
      ],
      [
        "o",
        "t"
      ],
      [
        "e",
        "n"
      ],
      [
        "a",
        "n"
      ],
      [
        "l",
        "e"
      ],
      [
        "o",
        "r"
      ],
      [
        "e",
        "nd"
      ],
      [
        "i",
        "r"
      ],
      [
        "o",
        "f"
      ],
      [
        "a",
        "m"
      ],
      [
        "e",
        "t"
      ],
      [
        "Ġ",
        "H"
      ],
      [
        "Ġ",
        "it"
      ],
      [
        "Ġt",
        "h"
      ],
      [
        "i",
        "g"
      ],
      [
        "ĠThe",
        "y"
      ],
      [
        "Ġ",
        "in"
      ],
      [
        "i",
        "l"
      ],
      [
        "Ġp",
        "l"
      ],
      [
        "ĠH",
        "e"
      ],
      [
        "Ġ",
        "\""
      ],
      [
        "o",
        "w"
      ],
      [
        "v",
        "er"
      ],
      [
        "r",
        "i"
      ],
      [
        "u",
        "t"
      ],
      [
        "Ġb",
        "e"
      ],
      [
        "Ġ",
        "u"
      ],
      [
        "Ġpl",
        "ay"
      ],
      [
        "Ġsa",
        "id"
      ],
      [
        "it",
        "h"
      ],
      [
        "Ġd",
        "ay"
      ],
      [
        "p",
        "p"
      ],
      [
        "Ġw",
        "ith"
      ],
      [
        "O",
        "n"
      ],
      [
        "Ġ",
        "y"
      ],
      [
        "o",
        "o"
      ],
      [
        "k",
        "ed"
      ],
      [
        "Ġ",
        "r"
      ],
      [
        "e",
        "x"
      ],
      [
        "Ġhe",
        "r"
      ],
      [
        "c",
        "e"
      ],
      [
        "Ġ",
        "I"
      ],
      [
        "ĠS",
        "he"
      ],
      [
        "l",
        "d"
      ],
      [
        "ĠT",
        "im"
      ],
      [
        "Ġh",
        "is"
      ],
      [
        "Ġs",
        "t"
      ],
      [
        "k",
        "e"
      ],
      [
        "Ġb",
        "ig"
      ],
      [
        "n",
        "t"
      ],
      [
        "c",
        "k"
      ],
      [
        "Ġy",
        "ou"
      ],
      [
        "ver",
        "y"
      ],
      [
        "s",
        "t"
      ],
      [
        "v",
        "e"
      ],
      [
        "Ġ",
        "on"
      ],
      [
        "u",
        "n"
      ],
      [
        "Ġha",
        "pp"
      ],
      [
        "ri",
        "end"
      ],
      [
        "Ġf",
        "riend"
      ],
      [
        "a",
        "ll"
      ],
      [
        "il",
        "y"
      ],
      [
        "ex",
        "t"
      ],
      [
        "Ġ",
        "L"
      ],
      [
        "Ġthe",
        "y"
      ],
      [
        "of",
        "t"
      ],
      [
        "Ġw",
        "e"
      ],
      [
        "Ġha",
        "d"
      ],
      [
        "Ġn",
        "ot"
      ],
      [
        "Ġl",
        "i"
      ],
      [
        "Ġu",
        "p"
      ],
      [
        "he",
        "r"
      ],
      [
        "Ġwa",
        "nt"
      ],
      [
        "Ġ",
        "of"
      ],
      [
        "a",
        "d"
      ],
      [
        "it",
        "t"
      ],
      [
        "<",
        "|"
      ],
      [
        "|",
        ">"
      ],
      [
        "end",
        "oft"
      ],
      [
        "endoft",
        "ext"
      ],
      [
        "s",
        "e"
      ],
      [
        "Ġ",
        "B"
      ],
      [
        "Ġd",
        "o"
      ],
      [
        "Ġ",
        "e"
      ],
      [
        "Ġhapp",
        "y"
      ],
      [
        "en",
        "t"
      ],
      [
        "Ġ",
        "M"
      ],
      [
        "Ġ",
        "very"
      ],
      [
        "e",
        "s"
      ],
      [
        "Ġth",
        "at"
      ],
      [
        "Ġsa",
        "w"
      ],
      [
        "On",
        "e"
      ],
      [
        "'",
        "s"
      ],
      [
        "ou",
        "ld"
      ],
      [
        "Ġm",
        "om"
      ],
      [
        "Ġf",
        "or"
      ],
      [
        "Ġs",
        "h"
      ],
      [
        "itt",
        "le"
      ],
      [
        "Ġl",
        "ittle"
      ],
      [
        "Ġs",
        "he"
      ],
      [
        "im",
        "e"
      ],
      [
        "c",
        "h"
      ],
      [
        "Ġn",
        "am"
      ],
      [
        ".",
        "\""
      ],
      [
        "Ġt",
        "ime"
      ],
      [
        "Ġs",
        "o"
      ],
      [
        "Ġ",
        "k"
      ],
      [
        "ou",
        "nd"
      ],
      [
        "Ġthe",
        "re"
      ],
      [
        "Ġnam",
        "ed"
      ],
      [
        "Ġs",
        "m"
      ],
      [
        "Ġb",
        "o"
      ],
      [
        "ĠL",
        "ily"
      ],
      [
        "Ġwe",
        "re"
      ],
      [
        "Ġn",
        "e"
      ],
      [
        "Ġwant",
        "ed"
      ],
      [
        "ou",
        "t"
      ],
      [
        "Ġb",
        "ut"
      ],
      [
        "Ġfriend",
        "s"
      ],
      [
        "T",
        "he"
      ],
      [
        "v",
        "ed"
      ],
      [
        "!",
        "\""
      ],
      [
        "h",
        "t"
      ],
      [
        "ĠT",
        "om"
      ],
      [
        "ir",
        "d"
      ],
      [
        "e",
        "l"
      ],
      [
        "Ġb",
        "ird"
      ],
      [
        "a",
        "l"
      ],
      [
        "Ġa",
        "n"
      ],
      [
        "a",
        "ke"
      ],
      [
        "Ġto",
        "o"
      ],
      [
        "om",
        "e"
      ],
      [
        "ĠI",
        "t"
      ],
      [
        "u",
        "g"
      ],
      [
        "id",
        "e"
      ],
      [
        "Ġw",
        "ent"
      ],
      [
        "Ġw",
        "h"
      ],
      [
        "Ġhe",
        "l"
      ],
      [
        "On",
        "ce"
      ],
      [
        "Ġ",
        "is"
      ],
      [
        "Ġa",
        "ll"
      ],
      [
        "u",
        "e"
      ],
      [
        "Ġhel",
        "p"
      ],
      [
        "Ġl",
        "oo"
      ],
      [
        "Ġl",
        "o"
      ],
      [
        "t",
        "er"
      ],
      [
        "Ġ",
        "A"
      ],
      [
        "Ġup",
        "on"
      ],
      [
        "r",
        "y"
      ],
      [
        "o",
        "re"
      ],
      [
        "Ġf",
        "un"
      ],
      [
        "i",
        "nd"
      ],
      [
        "g",
        "et"
      ],
      [
        "i",
        "ll"
      ],
      [
        "Ġto",
        "y"
      ],
      [
        "am",
        "e"
      ],
      [
        "Ġa",
        "s"
      ],
      [
        "Ġa",
        "t"
      ],
      [
        "Ġ",
        "j"
      ],
      [
        "r",
        "a"
      ],
      [
        "Ġd",
        "id"
      ],
      [
        "get",
        "her"
      ],
      [
        "Ġ",
        "re"
      ],
      [
        "Ġ",
        "o"
      ],
      [
        "u",
        "r"
      ],
      [
        "Ġto",
        "gether"
      ],
      [
        "Ġs",
        "e"
      ],
      [
        "Ġc",
        "at"
      ],
      [
        "a",
        "ck"
      ],
      [
        "Ġt",
        "re"
      ],
      [
        "l",
        "y"
      ],
      [
        "oo",
        "d"
      ],
      [
        "i",
        "c"
      ],
      [
        "Ġdo",
        "g"
      ],
      [
        "t",
        "ed"
      ],
      [
        "Ġc",
        "ould"
      ],
      [
        "Ġc",
        "an"
      ],
      [
        "Ġthe",
        "ir"
      ],
      [
        "ar",
        "d"
      ],
      [
        "ar",
        "k"
      ],
      [
        "e",
        "c"
      ],
      [
        "Ġg",
        "ir"
      ],
      [
        "Ġplay",
        "ed"
      ],
      [
        "Ġh",
        "im"
      ],
      [
        "Ġb",
        "all"
      ],
      [
        "Ġgir",
        "l"
      ],
      [
        "?",
        "\""
      ],
      [
        "Ġr",
        "o"
      ],
      [
        "w",
        "ay"
      ],
      [
        "Ġg",
        "o"
      ],
      [
        "Ġ",
        "out"
      ],
      [
        "m",
        "y"
      ],
      [
        "Ġa",
        "re"
      ],
      [
        "he",
        "d"
      ],
      [
        "a",
        "in"
      ],
      [
        "Ġf",
        "r"
      ],
      [
        "Ġl",
        "e"
      ],
      [
        "Ġk",
        "n"
      ],
      [
        "he",
        "n"
      ],
      [
        "'",
        "t"
      ],
      [
        "u",
        "m"
      ],
      [
        "Ġthe",
        "m"
      ],
      [
        "a",
        "x"
      ],
      [
        "Ġsa",
        "d"
      ],
      [
        "u",
        "l"
      ],
      [
        "Ġtre",
        "e"
      ],
      [
        "Ġbo",
        "y"
      ],
      [
        "ot",
        "her"
      ],
      [
        "Ġha",
        "ve"
      ],
      [
        "Ġm",
        "an"
      ],
      [
        "Ġc",
        "l"
      ],
      [
        "Ġlo",
        "ved"
      ],
      [
        "Ġloo",
        "ked"
      ],
      [
        "ou",
        "g"
      ],
      [
        "Ġf",
        "ound"
      ],
      [
        "Ġs",
        "p"
      ],
      [
        "Ġst",
        "ar"
      ],
      [
        "ĠS",
        "ue"
      ],
      [
        "h",
        "ing"
      ],
      [
        "on",
        "e"
      ],
      [
        "Ġs",
        "c"
      ],
      [
        "Ġb",
        "ack"
      ],
      [
        "ĠM",
        "ax"
      ],
      [
        "ow",
        "n"
      ],
      [
        "Ġli",
        "ke"
      ],
      [
        "a",
        "re"
      ],
      [
        "s",
        "ide"
      ],
      [
        "f",
        "ul"
      ],
      [
        "Ġm",
        "e"
      ],
      [
        "Ġbe",
        "c"
      ],
      [
        "ig",
        "ht"
      ],
      [
        "on",
        "g"
      ],
      [
        "Ġp",
        "ark"
      ],
      [
        "Ġc",
        "ar"
      ],
      [
        "o",
        "p"
      ],
      [
        "el",
        "t"
      ],
      [
        "Ġ",
        "One"
      ],
      [
        "Ġli",
        "ked"
      ],
      [
        "Ġw",
        "ould"
      ],
      [
        "r",
        "ound"
      ],
      [
        "Ġm",
        "ake"
      ],
      [
        "Ġl",
        "a"
      ],
      [
        "Ġf",
        "a"
      ],
      [
        "Ġf",
        "elt"
      ],
      [
        "Y",
        "ou"
      ],
      [
        "Ġse",
        "e"
      ],
      [
        "Ġ",
        "W"
      ],
      [
        "e",
        "ll"
      ],
      [
        "ĠB",
        "ut"
      ],
      [
        "om",
        "et"
      ],
      [
        "ou",
        "se"
      ],
      [
        "Ġas",
        "ked"
      ],
      [
        "a",
        "g"
      ],
      [
        "Ġn",
        "o"
      ],
      [
        "Ġne",
        "w"
      ],
      [
        "ĠS",
        "am"
      ],
      [
        "Ġstar",
        "ted"
      ],
      [
        "ar",
        "ed"
      ],
      [
        "i",
        "ce"
      ],
      [
        "Ġc",
        "ame"
      ],
      [
        "ĠB",
        "en"
      ],
      [
        "Ġa",
        "l"
      ],
      [
        "Ġ",
        "other"
      ],
      [
        "oug",
        "ht"
      ],
      [
        "il",
        "ed"
      ],
      [
        "Ġa",
        "g"
      ],
      [
        "Ġs",
        "omet"
      ],
      [
        "Ġg",
        "ood"
      ],
      [
        "Ġsm",
        "all"
      ],
      [
        "Ġb",
        "r"
      ],
      [
        "s",
        "s"
      ],
      [
        "Ġs",
        "ay"
      ],
      [
        "Ġsm",
        "iled"
      ],
      [
        "ri",
        "ed"
      ],
      [
        "ad",
        "e"
      ],
      [
        "ing",
        "s"
      ],
      [
        "Ġ",
        "Ċ"
      ],
      [
        "o",
        "b"
      ],
      [
        "p",
        "ot"
      ],
      [
        "Ġf",
        "ind"
      ],
      [
        "Ġw",
        "or"
      ],
      [
        "Ġa",
        "way"
      ],
      [
        "Ġ",
        "ex"
      ],
      [
        "Ġp",
        "ut"
      ],
      [
        "i",
        "a"
      ],
      [
        "Ġwh",
        "at"
      ],
      [
        "Ġsomet",
        "hing"
      ],
      [
        "t",
        "y"
      ],
      [
        "Ġfr",
        "om"
      ],
      [
        "Ġm",
        "ade"
      ],
      [
        "Ġth",
        "ought"
      ],
      [
        "en",
        "ed"
      ],
      [
        "Ġh",
        "ome"
      ],
      [
        "Ġc",
        "o"
      ],
      [
        "Ġplay",
        "ing"
      ],
      [
        "Ġe",
        "very"
      ],
      [
        "Ġwa",
        "l"
      ],
      [
        "oo",
        "k"
      ],
      [
        "Ġm",
        "u"
      ],
      [
        "a",
        "ch"
      ],
      [
        "u",
        "c"
      ],
      [
        "ĠS",
        "pot"
      ],
      [
        "Ġr",
        "an"
      ],
      [
        "ar",
        "n"
      ],
      [
        "Ġ",
        "F"
      ],
      [
        "Ġ",
        "J"
      ],
      [
        "i",
        "le"
      ],
      [
        "i",
        "e"
      ],
      [
        "Ġh",
        "ouse"
      ],
      [
        "Ġag",
        "ain"
      ],
      [
        "d",
        "d"
      ],
      [
        "Ġs",
        "ome"
      ],
      [
        "a",
        "ve"
      ],
      [
        "Ġla",
        "ug"
      ],
      [
        "Ġd",
        "own"
      ],
      [
        "Ġf",
        "l"
      ],
      [
        "k",
        "ing"
      ],
      [
        "Ġsc",
        "ared"
      ],
      [
        "n",
        "y"
      ],
      [
        "Ġtoo",
        "k"
      ],
      [
        "u",
        "re"
      ],
      [
        "Ġp",
        "r"
      ],
      [
        "i",
        "ck"
      ],
      [
        "Ġw",
        "ill"
      ],
      [
        "Ġtoy",
        "s"
      ],
      [
        "Ġbo",
        "x"
      ],
      [
        "i",
        "f"
      ],
      [
        "Ġle",
        "arn"
      ],
      [
        "Ġ",
        "You"
      ],
      [
        "Ġa",
        "round"
      ],
      [
        "a",
        "b"
      ],
      [
        "re",
        "t"
      ],
      [
        "e",
        "p"
      ],
      [
        "Ġth",
        "ings"
      ],
      [
        "Ġm",
        "y"
      ],
      [
        "Ġyou",
        "r"
      ],
      [
        "u",
        "ck"
      ],
      [
        "Ġb",
        "l"
      ],
      [
        "ou",
        "d"
      ],
      [
        "Ġw",
        "hen"
      ],
      [
        "Ġs",
        "un"
      ],
      [
        "Ġf",
        "e"
      ],
      [
        "is",
        "h"
      ],
      [
        "Ġli",
        "ved"
      ],
      [
        "Ġs",
        "w"
      ],
      [
        "Ġthe",
        "n"
      ],
      [
        "a",
        "s"
      ],
      [
        "u",
        "s"
      ],
      [
        "pp",
        "ed"
      ],
      [
        ",",
        "\""
      ],
      [
        "Ġc",
        "h"
      ],
      [
        "Ġa",
        "b"
      ],
      [
        "ĠM",
        "ia"
      ],
      [
        "an",
        "k"
      ],
      [
        "Ġg",
        "et"
      ],
      [
        "T",
        "im"
      ],
      [
        "um",
        "p"
      ],
      [
        "Ġl",
        "ot"
      ],
      [
        "uc",
        "y"
      ],
      [
        "T",
        "h"
      ],
      [
        "ot",
        "h"
      ],
      [
        "a",
        "p"
      ],
      [
        "is",
        "t"
      ],
      [
        "Ġt",
        "ried"
      ],
      [
        "Ġsay",
        "s"
      ],
      [
        "Ġg",
        "ot"
      ],
      [
        "Ġkn",
        "ow"
      ],
      [
        "it",
        "ed"
      ],
      [
        "u",
        "st"
      ],
      [
        "Ġwh",
        "o"
      ],
      [
        "Ġkn",
        "e"
      ],
      [
        "Ġman",
        "y"
      ],
      [
        "nd",
        "er"
      ],
      [
        "Ġab",
        "out"
      ],
      [
        "Ġin",
        "t"
      ],
      [
        "L",
        "ily"
      ],
      [
        "Ġp",
        "ret"
      ],
      [
        "Ġan",
        "y"
      ],
      [
        "Ġd",
        "ec"
      ],
      [
        "Ġr",
        "ed"
      ],
      [
        "Ġ",
        "D"
      ],
      [
        "i",
        "ve"
      ],
      [
        "Ġkne",
        "w"
      ],
      [
        "is",
        "e"
      ],
      [
        "ou",
        "s"
      ],
      [
        "a",
        "ce"
      ],
      [
        "Ġm",
        "ore"
      ],
      [
        "Ġp",
        "ic"
      ],
      [
        "Ġ",
        "v"
      ],
      [
        "Ġh",
        "ug"
      ],
      [
        "Ġc",
        "are"
      ],
      [
        "all",
        "y"
      ],
      [
        "q",
        "u"
      ],
      [
        "a",
        "u"
      ],
      [
        "Ġwa",
        "ter"
      ],
      [
        "Ġbe",
        "st"
      ],
      [
        "f",
        "ter"
      ],
      [
        "ĠL",
        "ucy"
      ],
      [
        "Ġbec",
        "ame"
      ],
      [
        "Ġp",
        "o"
      ],
      [
        "Ġlearn",
        "ed"
      ],
      [
        "Ġex",
        "c"
      ],
      [
        "Ġo",
        "p"
      ],
      [
        "au",
        "se"
      ],
      [
        "Ġout",
        "side"
      ],
      [
        "ur",
        "p"
      ],
      [
        "Ġg",
        "re"
      ],
      [
        "â",
        "Ģ"
      ],
      [
        "way",
        "s"
      ],
      [
        "Ġlaug",
        "hed"
      ],
      [
        "Ġloo",
        "k"
      ],
      [
        "Ġal",
        "ways"
      ],
      [
        "Ġsh",
        "ow"
      ],
      [
        "Ġdec",
        "id"
      ],
      [
        "ĠB",
        "ob"
      ],
      [
        "Ġu",
        "n"
      ],
      [
        "Ġro",
        "om"
      ],
      [
        "ĠS",
        "o"
      ],
      [
        "Ġh",
        "o"
      ],
      [
        "Ġbec",
        "ause"
      ],
      [
        "Ġdecid",
        "ed"
      ],
      [
        "it",
        "e"
      ],
      [
        "f",
        "e"
      ],
      [
        "Ġe",
        "at"
      ],
      [
        "Ġb",
        "oth"
      ],
      [
        "Ġint",
        "o"
      ],
      [
        "ĠA",
        "nd"
      ],
      [
        "Ġj",
        "ump"
      ],
      [
        "an",
        "t"
      ],
      [
        "ĠM",
        "om"
      ],
      [
        "er",
        "s"
      ],
      [
        "Ġp",
        "e"
      ],
      [
        "u",
        "dd"
      ],
      [
        "The",
        "y"
      ],
      [
        "Ġd",
        "ad"
      ],
      [
        "Ġon",
        "e"
      ],
      [
        "Ġ",
        "ke"
      ],
      [
        "n",
        "n"
      ],
      [
        "Ġexc",
        "ited"
      ],
      [
        "Ġfe",
        "el"
      ],
      [
        "Ġn",
        "ice"
      ],
      [
        "Ġth",
        "is"
      ],
      [
        "Ġfa",
        "st"
      ],
      [
        "Ġl",
        "ong"
      ],
      [
        "Y",
        "es"
      ],
      [
        "T",
        "om"
      ],
      [
        "Ġ",
        "E"
      ],
      [
        "Ġr",
        "un"
      ],
      [
        "Ġs",
        "k"
      ],
      [
        "Ġto",
        "ld"
      ],
      [
        "urp",
        "r"
      ],
      [
        "Ġt",
        "r"
      ],
      [
        "Ġa",
        "m"
      ],
      [
        "Ġin",
        "side"
      ],
      [
        "u",
        "ll"
      ],
      [
        "ou",
        "r"
      ],
      [
        "Ġs",
        "urpr"
      ],
      [
        "Ġm",
        "o"
      ],
      [
        "in",
        "k"
      ],
      [
        "Ġpret",
        "ty"
      ],
      [
        "in",
        "y"
      ],
      [
        "Ġt",
        "ake"
      ],
      [
        "Ġs",
        "or"
      ],
      [
        "W",
        "h"
      ],
      [
        "Ġg",
        "ra"
      ],
      [
        "nn",
        "a"
      ],
      [
        "o",
        "g"
      ],
      [
        "Ġe",
        "ach"
      ],
      [
        "Ġs",
        "l"
      ],
      [
        "le",
        "w"
      ],
      [
        "Ġg",
        "ave"
      ],
      [
        "Ġmu",
        "ch"
      ],
      [
        "Ġst",
        "r"
      ],
      [
        "Ġro",
        "ck"
      ],
      [
        "g",
        "ed"
      ],
      [
        "Ġh",
        "ow"
      ],
      [
        "im",
        "al"
      ],
      [
        "Ġan",
        "imal"
      ],
      [
        "Ġne",
        "ed"
      ],
      [
        "ar",
        "a"
      ],
      [
        "et",
        "ter"
      ],
      [
        "Ġth",
        "an"
      ],
      [
        "Ġ",
        "or"
      ],
      [
        "B",
        "ut"
      ],
      [
        "Ġto",
[...]
